unsigned char engine_nn_quant_tflite[] = {
  0x1c, 0x00, 0x00, 0x00, 0x54, 0x46, 0x4c, 0x33, 0x14, 0x00, 0x20, 0x00,
  0x1c, 0x00, 0x18, 0x00, 0x14, 0x00, 0x10, 0x00, 0x0c, 0x00, 0x00, 0x00,
  0x08, 0x00, 0x04, 0x00, 0x14, 0x00, 0x00, 0x00, 0x1c, 0x00, 0x00, 0x00,
  0x98, 0x00, 0x00, 0x00, 0x18, 0x01, 0x00, 0x00, 0xf0, 0x22, 0x00, 0x00,
  0x00, 0x23, 0x00, 0x00, 0x9c, 0x3f, 0x00, 0x00, 0x03, 0x00, 0x00, 0x00,
  0x01, 0x00, 0x00, 0x00, 0x10, 0x00, 0x00, 0x00, 0x00, 0x00, 0x0a, 0x00,
  0x10, 0x00, 0x0c, 0x00, 0x08, 0x00, 0x04, 0x00, 0x0a, 0x00, 0x00, 0x00,
  0x0c, 0x00, 0x00, 0x00, 0x1c, 0x00, 0x00, 0x00, 0x3c, 0x00, 0x00, 0x00,
  0x0f, 0x00, 0x00, 0x00, 0x73, 0x65, 0x72, 0x76, 0x69, 0x6e, 0x67, 0x5f,
  0x64, 0x65, 0x66, 0x61, 0x75, 0x6c, 0x74, 0x00, 0x01, 0x00, 0x00, 0x00,
  0x04, 0x00, 0x00, 0x00, 0x68, 0xff, 0xff, 0xff, 0x10, 0x00, 0x00, 0x00,
  0x04, 0x00, 0x00, 0x00, 0x08, 0x00, 0x00, 0x00, 0x6f, 0x75, 0x74, 0x70,
  0x75, 0x74, 0x5f, 0x30, 0x00, 0x00, 0x00, 0x00, 0x01, 0x00, 0x00, 0x00,
  0x04, 0x00, 0x00, 0x00, 0xee, 0xdc, 0xff, 0xff, 0x04, 0x00, 0x00, 0x00,
  0x0c, 0x00, 0x00, 0x00, 0x6b, 0x65, 0x72, 0x61, 0x73, 0x5f, 0x74, 0x65,
  0x6e, 0x73, 0x6f, 0x72, 0x00, 0x00, 0x00, 0x00, 0x03, 0x00, 0x00, 0x00,
  0x5c, 0x00, 0x00, 0x00, 0x2c, 0x00, 0x00, 0x00, 0x04, 0x00, 0x00, 0x00,
  0xb8, 0xff, 0xff, 0xff, 0x14, 0x00, 0x00, 0x00, 0x04, 0x00, 0x00, 0x00,
  0x13, 0x00, 0x00, 0x00, 0x43, 0x4f, 0x4e, 0x56, 0x45, 0x52, 0x53, 0x49,
  0x4f, 0x4e, 0x5f, 0x4d, 0x45, 0x54, 0x41, 0x44, 0x41, 0x54, 0x41, 0x00,
  0xdc, 0xff, 0xff, 0xff, 0x13, 0x00, 0x00, 0x00, 0x04, 0x00, 0x00, 0x00,
  0x13, 0x00, 0x00, 0x00, 0x6d, 0x69, 0x6e, 0x5f, 0x72, 0x75, 0x6e, 0x74,
  0x69, 0x6d, 0x65, 0x5f, 0x76, 0x65, 0x72, 0x73, 0x69, 0x6f, 0x6e, 0x00,
  0x08, 0x00, 0x0c, 0x00, 0x08, 0x00, 0x04, 0x00, 0x08, 0x00, 0x00, 0x00,
  0x12, 0x00, 0x00, 0x00, 0x04, 0x00, 0x00, 0x00, 0x13, 0x00, 0x00, 0x00,
  0x6d, 0x69, 0x6e, 0x5f, 0x72, 0x75, 0x6e, 0x74, 0x69, 0x6d, 0x65, 0x5f,
  0x76, 0x65, 0x72, 0x73, 0x69, 0x6f, 0x6e, 0x00, 0x15, 0x00, 0x00, 0x00,
  0xd4, 0x21, 0x00, 0x00, 0xcc, 0x21, 0x00, 0x00, 0xb4, 0x21, 0x00, 0x00,
  0x64, 0x21, 0x00, 0x00, 0xd4, 0x20, 0x00, 0x00, 0xc4, 0x1c, 0x00, 0x00,
  0x34, 0x1c, 0x00, 0x00, 0x24, 0x14, 0x00, 0x00, 0x14, 0x13, 0x00, 0x00,
  0x04, 0x03, 0x00, 0x00, 0xf4, 0x01, 0x00, 0x00, 0xe4, 0x00, 0x00, 0x00,
  0xdc, 0x00, 0x00, 0x00, 0xd4, 0x00, 0x00, 0x00, 0xcc, 0x00, 0x00, 0x00,
  0xc4, 0x00, 0x00, 0x00, 0xbc, 0x00, 0x00, 0x00, 0xb4, 0x00, 0x00, 0x00,
  0x94, 0x00, 0x00, 0x00, 0x74, 0x00, 0x00, 0x00, 0x04, 0x00, 0x00, 0x00,
  0xe6, 0xdd, 0xff, 0xff, 0x04, 0x00, 0x00, 0x00, 0x60, 0x00, 0x00, 0x00,
  0x0c, 0x00, 0x00, 0x00, 0x08, 0x00, 0x0e, 0x00, 0x08, 0x00, 0x04, 0x00,
  0x08, 0x00, 0x00, 0x00, 0x10, 0x00, 0x00, 0x00, 0x28, 0x00, 0x00, 0x00,
  0x00, 0x00, 0x06, 0x00, 0x08, 0x00, 0x04, 0x00, 0x06, 0x00, 0x00, 0x00,
  0x04, 0x00, 0x00, 0x00, 0x01, 0x00, 0x00, 0x00, 0xeb, 0x03, 0x00, 0x00,
  0x0c, 0x00, 0x18, 0x00, 0x14, 0x00, 0x10, 0x00, 0x0c, 0x00, 0x04, 0x00,
  0x0c, 0x00, 0x00, 0x00, 0xeb, 0x61, 0xc4, 0x7b, 0x62, 0xb6, 0x87, 0x32,
  0x02, 0x00, 0x00, 0x00, 0x02, 0x00, 0x00, 0x00, 0x04, 0x00, 0x00, 0x00,
  0x06, 0x00, 0x00, 0x00, 0x32, 0x2e, 0x31, 0x39, 0x2e, 0x31, 0x00, 0x00,
  0x52, 0xde, 0xff, 0xff, 0x04, 0x00, 0x00, 0x00, 0x10, 0x00, 0x00, 0x00,
  0x00, 0x00, 0x00, 0x00, 0x00, 0x00, 0x00, 0x00, 0x00, 0x00, 0x00, 0x00,
  0x00, 0x00, 0x00, 0x00, 0x6e, 0xde, 0xff, 0xff, 0x04, 0x00, 0x00, 0x00,
  0x10, 0x00, 0x00, 0x00, 0x31, 0x2e, 0x31, 0x34, 0x2e, 0x30, 0x00, 0x00,
  0x00, 0x00, 0x00, 0x00, 0x00, 0x00, 0x00, 0x00, 0x58, 0xde, 0xff, 0xff,
  0x5c, 0xde, 0xff, 0xff, 0x60, 0xde, 0xff, 0xff, 0x64, 0xde, 0xff, 0xff,
  0x68, 0xde, 0xff, 0xff, 0x6c, 0xde, 0xff, 0xff, 0xa2, 0xde, 0xff, 0xff,
  0x04, 0x00, 0x00, 0x00, 0x00, 0x01, 0x00, 0x00, 0xf2, 0x81, 0x00, 0xff,
  0x7f, 0x30, 0x03, 0x62, 0x4a, 0x02, 0x81, 0x48, 0x81, 0x04, 0xff, 0xfa,
  0x0b, 0x06, 0x81, 0x00, 0x81, 0x08, 0xe6, 0x26, 0xfd, 0x81, 0x00, 0x00,
  0x81, 0x4e, 0x0b, 0x03, 0x42, 0x81, 0xf2, 0xc5, 0xb4, 0x81, 0x02, 0x09,
  0x4f, 0x3b, 0x27, 0x81, 0x7f, 0x5b, 0x27, 0xa8, 0xfd, 0x81, 0x00, 0xff,
  0x39, 0x37, 0x06, 0x81, 0x81, 0x1c, 0xfc, 0xe8, 0x7f, 0x29, 0x07, 0x5c,
  0x81, 0x04, 0xff, 0x03, 0x81, 0xf0, 0x00, 0xff, 0x88, 0xa9, 0x67, 0x81,
  0x44, 0x24, 0x7f, 0xa7, 0x81, 0x14, 0x13, 0xe7, 0x81, 0x02, 0x06, 0x10,
  0x22, 0x81, 0xfc, 0x08, 0x62, 0x3c, 0xf8, 0x81, 0x7f, 0x4c, 0x0a, 0xbc,
  0x14, 0x81, 0xca, 0xfe, 0xeb, 0xde, 0x7f, 0x4c, 0xf2, 0x81, 0x00, 0xff,
  0x16, 0x7f, 0x0c, 0xe3, 0x09, 0x81, 0x00, 0x00, 0x0b, 0x06, 0xe7, 0x7f,
  0x00, 0x81, 0x41, 0x0b, 0x2a, 0x81, 0xfe, 0x03, 0x81, 0xf1, 0xfe, 0x02,
  0x00, 0xa0, 0x40, 0x7f, 0x81, 0x8e, 0x06, 0x0e, 0xee, 0x81, 0xf0, 0xff,
  0x7f, 0x1b, 0x00, 0x08, 0xfe, 0x81, 0x00, 0x01, 0x2f, 0x81, 0x20, 0x1b,
  0xd4, 0xc0, 0xd0, 0x81, 0x41, 0x7f, 0x06, 0xd2, 0x81, 0x02, 0x01, 0xee,
  0x0f, 0x81, 0x00, 0x00, 0x08, 0x16, 0x7f, 0xf3, 0x19, 0x06, 0xfa, 0x7f,
  0xb7, 0x81, 0x00, 0x00, 0x3b, 0x2b, 0x7f, 0xa1, 0xd2, 0xdb, 0x02, 0x81,
  0x81, 0x04, 0x00, 0xfe, 0x13, 0x81, 0xfc, 0xea, 0xe4, 0xe1, 0x7f, 0x4d,
  0x8f, 0x3c, 0x01, 0x81, 0x7f, 0x30, 0x02, 0x58, 0x81, 0x04, 0xff, 0xff,
  0x04, 0xb2, 0x56, 0x7f, 0x81, 0xf3, 0x00, 0xf9, 0xd1, 0xda, 0xff, 0x81,
  0x02, 0x05, 0x81, 0x17, 0x7f, 0xf3, 0xff, 0x06, 0x81, 0xab, 0x03, 0x04,
  0x7f, 0xab, 0x5b, 0xc2, 0xfe, 0x04, 0x81, 0x13, 0x81, 0x07, 0x20, 0x04,
  0xae, 0xdf, 0xff, 0xff, 0x04, 0x00, 0x00, 0x00, 0x00, 0x01, 0x00, 0x00,
  0x16, 0xff, 0xff, 0xff, 0x5b, 0xfa, 0xff, 0xff, 0x33, 0xf5, 0xff, 0xff,
  0x2e, 0xfe, 0xff, 0xff, 0x83, 0xf8, 0xff, 0xff, 0xe0, 0xfc, 0xff, 0xff,
  0x19, 0xff, 0xff, 0xff, 0x3e, 0xff, 0xff, 0xff, 0x69, 0xfd, 0xff, 0xff,
  0x7d, 0xfd, 0xff, 0xff, 0x9f, 0xfa, 0xff, 0xff, 0x36, 0xf9, 0xff, 0xff,
  0x2a, 0xff, 0xff, 0xff, 0xb1, 0xfa, 0xff, 0xff, 0x37, 0xfe, 0xff, 0xff,
  0x8d, 0xfa, 0xff, 0xff, 0x7f, 0xfe, 0xff, 0xff, 0x2b, 0xff, 0xff, 0xff,
  0x28, 0x05, 0x00, 0x00, 0xb5, 0x01, 0x00, 0x00, 0xd6, 0xfd, 0xff, 0xff,
  0x2c, 0xfe, 0xff, 0xff, 0xe3, 0xfe, 0xff, 0xff, 0x6f, 0xf7, 0xff, 0xff,
  0xb4, 0xee, 0xff, 0xff, 0xa9, 0xfe, 0xff, 0xff, 0xb0, 0x00, 0x00, 0x00,
  0x5d, 0xfe, 0xff, 0xff, 0x11, 0xfe, 0xff, 0xff, 0x23, 0xfd, 0xff, 0xff,
  0xa0, 0xf9, 0xff, 0xff, 0xa0, 0xf5, 0xff, 0xff, 0xa9, 0xfe, 0xff, 0xff,
  0x3d, 0xfe, 0xff, 0xff, 0x1e, 0xf9, 0xff, 0xff, 0xd7, 0xfc, 0xff, 0xff,
  0x4b, 0xfe, 0xff, 0xff, 0x2d, 0x00, 0x00, 0x00, 0xb8, 0xfe, 0xff, 0xff,
  0x1d, 0xff, 0xff, 0xff, 0xd0, 0xfc, 0xff, 0xff, 0x0a, 0xf3, 0xff, 0xff,
  0x3b, 0xfe, 0xff, 0xff, 0xeb, 0xff, 0xff, 0xff, 0x63, 0xfd, 0xff, 0xff,
  0x7c, 0xf3, 0xff, 0xff, 0xe8, 0xfd, 0xff, 0xff, 0x8e, 0x02, 0x00, 0x00,
  0x83, 0xfd, 0xff, 0xff, 0x5a, 0xff, 0xff, 0xff, 0x91, 0xfe, 0xff, 0xff,
  0xa5, 0x00, 0x00, 0x00, 0xed, 0xfa, 0xff, 0xff, 0x8e, 0xfa, 0xff, 0xff,
  0x66, 0xff, 0xff, 0xff, 0x70, 0xec, 0xff, 0xff, 0x03, 0xfe, 0xff, 0xff,
  0x56, 0xfd, 0xff, 0xff, 0xae, 0xfb, 0xff, 0xff, 0xde, 0xff, 0xff, 0xff,
  0x80, 0xfb, 0xff, 0xff, 0x07, 0xf3, 0xff, 0xff, 0xb2, 0xfb, 0xff, 0xff,
  0xf1, 0xff, 0xff, 0xff, 0xba, 0xe0, 0xff, 0xff, 0x04, 0x00, 0x00, 0x00,
  0x00, 0x10, 0x00, 0x00, 0xf2, 0x00, 0xf0, 0xfe, 0xe6, 0xf5, 0xf9, 0x00,
  0xfe, 0x00, 0xfc, 0x02, 0xf8, 0xf5, 0x03, 0x00, 0x01, 0xff, 0xff, 0x00,
  0x01, 0x03, 0xf0, 0xf2, 0xf6, 0x01, 0x00, 0xdb, 0x00, 0x23, 0xfb, 0x81,
  0xf9, 0x01, 0xfd, 0x06, 0xfd, 0x00, 0xff, 0xff, 0x00, 0x01, 0x00, 0xfe,
  0x00, 0xfa, 0xfa, 0x00, 0xfe, 0xff, 0x05, 0x00, 0xfb, 0x00, 0x00, 0xee,
  0x00, 0xff, 0x00, 0x00, 0xff, 0x02, 0xff, 0x01, 0xfa, 0x01, 0xfc, 0x11,
  0xf3, 0x03, 0x09, 0x01, 0xef, 0x01, 0xea, 0xf2, 0x07, 0xe9, 0xff, 0x01,
  0xac, 0xf9, 0x01, 0xfe, 0xfc, 0xf5, 0xff, 0xdf, 0xeb, 0x01, 0x00, 0x2d,
  0x01, 0x20, 0x01, 0x81, 0xfb, 0xaa, 0x01, 0x0d, 0x03, 0xff, 0x28, 0x02,
  0xf8, 0x00, 0x02, 0x05, 0x02, 0x83, 0xd4, 0xfe, 0xf9, 0xf5, 0xec, 0x01,
  0xf5, 0x01, 0xf5, 0x89, 0x6c, 0xfa, 0x01, 0xff, 0x66, 0xd4, 0x05, 0x03,
  0xea, 0x00, 0xdd, 0x0d, 0xe2, 0xff, 0xf9, 0x01, 0xfe, 0x13, 0xff, 0xff,
  0xf7, 0xff, 0xfc, 0x00, 0xd9, 0xfa, 0xfd, 0x00, 0xfe, 0x04, 0xfd, 0xff,
  0x07, 0xfa, 0x00, 0x58, 0x00, 0x01, 0xfe, 0x95, 0xfb, 0xed, 0x03, 0x0f,
  0x05, 0x00, 0x1e, 0xff, 0x01, 0x00, 0xf0, 0xf7, 0x00, 0x89, 0xef, 0x00,
  0xff, 0xf6, 0xfe, 0x00, 0x06, 0x00, 0xf6, 0x27, 0x14, 0xff, 0xfd, 0x00,
  0x7f, 0xf9, 0xff, 0xff, 0x01, 0x00, 0xf9, 0xef, 0xe6, 0xff, 0x03, 0x00,
  0xfe, 0xfb, 0x00, 0x00, 0x00, 0xff, 0x01, 0x00, 0xf2, 0x00, 0x00, 0x00,
  0x00, 0xf7, 0xf1, 0xff, 0x04, 0xff, 0x00, 0x00, 0x00, 0x11, 0x00, 0xf7,
  0xf1, 0xfb, 0xf7, 0xfb, 0x03, 0x00, 0x03, 0xfc, 0xff, 0x01, 0xfe, 0xff,
  0x01, 0x13, 0xf3, 0x00, 0x00, 0x00, 0x01, 0xff, 0x00, 0x00, 0xff, 0xd5,
  0xed, 0xff, 0xfb, 0x00, 0x7f, 0x02, 0xfd, 0x00, 0x01, 0x00, 0xfd, 0x03,
  0x05, 0xfe, 0xfd, 0x00, 0xff, 0x1a, 0xfb, 0x00, 0xff, 0xff, 0xfa, 0x00,
  0x01, 0x00, 0x01, 0xff, 0x02, 0x06, 0x02, 0xfc, 0xfc, 0x00, 0x00, 0xd6,
  0xfe, 0x10, 0x01, 0xf4, 0x02, 0x01, 0x00, 0x13, 0xff, 0x00, 0xfa, 0x00,
  0xff, 0x00, 0xff, 0x01, 0x00, 0xfe, 0x04, 0x00, 0x00, 0x00, 0xfd, 0x00,
  0xfe, 0x00, 0x00, 0xec, 0x02, 0x00, 0x00, 0x00, 0x81, 0xfd, 0x00, 0x00,
  0xfd, 0xfc, 0x04, 0x10, 0x10, 0x00, 0x02, 0xfe, 0xfc, 0xef, 0xf9, 0xfd,
  0xff, 0xfb, 0x06, 0xfd, 0xef, 0xfc, 0x01, 0x00, 0xfc, 0xf5, 0x00, 0x01,
  0x01, 0x00, 0x00, 0xcc, 0xfc, 0x00, 0x04, 0x25, 0xff, 0xef, 0xfe, 0xf2,
  0xf9, 0xfe, 0x0f, 0x00, 0xfb, 0x00, 0x03, 0x01, 0xff, 0xff, 0xe4, 0x00,
  0xfb, 0xfb, 0xf9, 0x01, 0xfc, 0xfb, 0xfb, 0x08, 0x1b, 0xfb, 0x02, 0xff,
  0x7f, 0xfd, 0x01, 0x01, 0x03, 0x00, 0xf9, 0xdd, 0xf8, 0x01, 0x09, 0xf8,
  0xfa, 0x03, 0x00, 0x01, 0x0a, 0xfe, 0x00, 0xff, 0x01, 0x00, 0xfe, 0x00,
  0x0a, 0x00, 0x04, 0xfe, 0xff, 0x02, 0xfc, 0xf8, 0x00, 0xc4, 0x00, 0xdf,
  0xf9, 0x03, 0xed, 0xff, 0x02, 0xfe, 0x0c, 0xf8, 0xfd, 0xfe, 0xfc, 0x05,
  0x01, 0x03, 0x01, 0x00, 0xfc, 0x01, 0xf8, 0xfb, 0xfd, 0xff, 0x00, 0xe9,
  0xdc, 0xfc, 0x00, 0xff, 0x7f, 0x00, 0x00, 0xfa, 0x01, 0x00, 0x00, 0xff,
  0xfc, 0x03, 0x00, 0x00, 0xff, 0x02, 0xff, 0x01, 0x00, 0xfc, 0x01, 0x00,
  0x01, 0x00, 0x01, 0xff, 0x03, 0x01, 0xfd, 0x02, 0x03, 0xfe, 0x00, 0x23,
  0xfc, 0x0f, 0xf7, 0x81, 0x01, 0x01, 0x01, 0x02, 0x05, 0x00, 0xfa, 0xff,
  0xff, 0x00, 0x00, 0xf9, 0xff, 0x0a, 0x00, 0xff, 0xfe, 0x00, 0xfe, 0x00,
  0xfe, 0x00, 0x01, 0xf2, 0x00, 0xfe, 0xfc, 0x00, 0x00, 0x05, 0xfb, 0x01,
  0xff, 0x00, 0xfc, 0xff, 0x0b, 0x01, 0x06, 0x00, 0x00, 0x01, 0x01, 0x00,
  0x06, 0x01, 0x01, 0x00, 0x00, 0xff, 0xfe, 0x00, 0xff, 0x01, 0x00, 0x00,
  0x01, 0xfe, 0x00, 0x0c, 0x00, 0xfd, 0xf2, 0xd9, 0xff, 0x01, 0xfd, 0x01,
  0xfb, 0x00, 0xfa, 0x01, 0xfe, 0x02, 0xff, 0x02, 0x00, 0xa7, 0xfe, 0x00,
  0xfe, 0xff, 0x02, 0x00, 0x01, 0x00, 0xff, 0x20, 0xff, 0xfe, 0x00, 0x00,
  0x7f, 0x00, 0x00, 0xff, 0xfa, 0x01, 0x03, 0x09, 0xfb, 0x08, 0xf3, 0x00,
  0x02, 0x14, 0x02, 0x01, 0xee, 0xde, 0x01, 0x00, 0x02, 0xfe, 0xfe, 0x02,
  0xff, 0xfe, 0x00, 0xfe, 0x05, 0xf7, 0x00, 0x6b, 0x00, 0xd5, 0x02, 0x81,
  0x01, 0x0a, 0x04, 0x0a, 0x0e, 0x00, 0xef, 0x01, 0x01, 0xd5, 0x08, 0xfd,
  0x01, 0x29, 0xff, 0x02, 0xff, 0xff, 0xf1, 0x00, 0xff, 0x01, 0xfe, 0x0e,
  0x03, 0x01, 0xfa, 0x00, 0x7a, 0x01, 0xfe, 0xfb, 0x02, 0xfa, 0xfc, 0xf9,
  0x01, 0x01, 0xff, 0xf4, 0x01, 0x08, 0x01, 0x01, 0x01, 0x01, 0x00, 0xfa,
  0x00, 0x00, 0x01, 0x00, 0xf7, 0x00, 0x02, 0x00, 0xf2, 0x04, 0xfe, 0xf1,
  0x00, 0x25, 0xfe, 0xfa, 0xfe, 0x01, 0xf3, 0x02, 0x08, 0x00, 0x21, 0xfd,
  0x00, 0xff, 0xff, 0x00, 0x01, 0x16, 0x00, 0x00, 0x01, 0xff, 0xff, 0xff,
  0x00, 0xfb, 0x00, 0x0a, 0xf8, 0x01, 0x00, 0x00, 0x7f, 0x00, 0xfe, 0xf7,
  0x03, 0x00, 0xfe, 0xfe, 0xfc, 0x01, 0x12, 0xff, 0x01, 0x01, 0x00, 0x00,
  0x0e, 0x00, 0x01, 0x00, 0x04, 0x00, 0x00, 0x00, 0xff, 0xfe, 0x01, 0x01,
  0x00, 0x03, 0x00, 0x7f, 0xff, 0x0d, 0xff, 0xcb, 0x01, 0x05, 0xfd, 0xfe,
  0x09, 0x00, 0x21, 0x00, 0x00, 0x02, 0x00, 0x03, 0xff, 0xf9, 0x06, 0x00,
  0xff, 0x00, 0x02, 0xff, 0xff, 0x00, 0x00, 0x04, 0x00, 0xff, 0x00, 0x00,
  0xae, 0x00, 0x00, 0xff, 0xf9, 0xff, 0xdd, 0x0b, 0xe1, 0x02, 0xfd, 0xf5,
  0xff, 0xf5, 0xfe, 0x02, 0xfb, 0x00, 0xf7, 0xff, 0x06, 0xf6, 0x01, 0x01,
  0x00, 0xfd, 0xff, 0xf7, 0xe6, 0x03, 0x00, 0xe0, 0xfe, 0x7f, 0xff, 0x45,
  0xff, 0x09, 0x01, 0xfc, 0x02, 0xff, 0x03, 0x00, 0xff, 0xfb, 0xf0, 0x00,
  0x01, 0xc5, 0x05, 0x01, 0x00, 0xf6, 0x00, 0x00, 0xfe, 0x00, 0xf5, 0x26,
  0x13, 0x01, 0xfe, 0xff, 0x1f, 0x05, 0xfd, 0x00, 0x03, 0x00, 0xfe, 0xf9,
  0xfc, 0xf8, 0xfc, 0x00, 0x01, 0x08, 0x01, 0x00, 0xf8, 0x00, 0x01, 0x00,
  0xfd, 0x00, 0xf8, 0x01, 0x02, 0xf3, 0x01, 0x00, 0x04, 0x00, 0xfe, 0x26,
  0x00, 0xf7, 0xe1, 0xed, 0x00, 0xfb, 0xee, 0x05, 0xfa, 0x00, 0xd3, 0x00,
  0xf9, 0x02, 0xfa, 0x00, 0x00, 0x81, 0xff, 0x01, 0xf8, 0xff, 0x01, 0xfe,
  0x02, 0x00, 0x00, 0xe8, 0xfe, 0xf8, 0x01, 0x00, 0x2e, 0xff, 0xfe, 0xfc,
  0xfc, 0xf8, 0xeb, 0x0c, 0xf6, 0xf9, 0x01, 0x00, 0xfd, 0xea, 0xf8, 0xfc,
  0x05, 0xf9, 0x0d, 0xf7, 0x09, 0xf2, 0x00, 0x01, 0xfe, 0xef, 0x06, 0x04,
  0x09, 0x00, 0x00, 0x81, 0x01, 0x20, 0xff, 0xcb, 0xfd, 0x0c, 0xff, 0xf2,
  0xf6, 0xfe, 0x14, 0x01, 0xfb, 0xfd, 0x0e, 0x03, 0xff, 0x48, 0xf3, 0x01,
  0xfb, 0xf3, 0xfc, 0xff, 0xfd, 0xf9, 0xf6, 0x04, 0x06, 0xfa, 0x01, 0xfb,
  0xb5, 0x07, 0x01, 0xfe, 0x00, 0x00, 0x00, 0x04, 0x00, 0xff, 0x00, 0x00,
  0x00, 0x02, 0x00, 0x00, 0x00, 0x00, 0x00, 0x00, 0x03, 0x00, 0x00, 0x00,
  0x00, 0x00, 0xfe, 0x00, 0x01, 0x00, 0x00, 0x0a, 0x00, 0x08, 0x00, 0xec,
  0x01, 0x05, 0x00, 0x01, 0xff, 0x00, 0x03, 0x00, 0x00, 0xff, 0x01, 0xff,
  0x00, 0xff, 0x02, 0x00, 0x00, 0x00, 0x00, 0x00, 0x00, 0x00, 0x00, 0xfe,
  0x07, 0x00, 0x00, 0x00, 0x81, 0x01, 0x00, 0x00, 0x09, 0xfd, 0x04, 0x2a,
  0x18, 0x09, 0x12, 0xfb, 0x01, 0xea, 0x00, 0x02, 0x0c, 0x02, 0xea, 0xfe,
  0x0e, 0xe2, 0x00, 0x00, 0x05, 0xf4, 0x00, 0xe8, 0x0a, 0x02, 0x01, 0xc5,
  0xfc, 0x81, 0x05, 0xc5, 0xe6, 0x13, 0x03, 0xe9, 0x0c, 0xf9, 0xfc, 0x03,
  0x01, 0x02, 0xe7, 0x09, 0x01, 0xe3, 0x0b, 0xff, 0x01, 0xe7, 0x01, 0x01,
  0x02, 0xff, 0xe8, 0x2a, 0x2c, 0x02, 0x01, 0xf9, 0x1f, 0x05, 0x00, 0xff,
  0xff, 0x00, 0x04, 0x01, 0x08, 0x02, 0x0f, 0x00, 0x00, 0x05, 0x01, 0x00,
  0x0e, 0x01, 0x00, 0x00, 0x06, 0xfe, 0xff, 0x01, 0xfe, 0x04, 0x00, 0x00,
  0x01, 0xff, 0x00, 0x61, 0x00, 0x1c, 0x08, 0x81, 0xff, 0x00, 0x03, 0x04,
  0x02, 0x00, 0x2f, 0xff, 0x01, 0x01, 0xfb, 0x02, 0x01, 0x06, 0x04, 0x01,
  0xff, 0xff, 0x04, 0x00, 0x00, 0xff, 0xfe, 0xd0, 0xf9, 0x00, 0x04, 0x00,
  0xef, 0xfc, 0x04, 0xfd, 0x04, 0x00, 0xf1, 0xff, 0xfc, 0xff, 0x06, 0x00,
  0xff, 0x07, 0x00, 0xff, 0x03, 0x00, 0xff, 0x00, 0x02, 0x00, 0x00, 0xff,
  0xff, 0x02, 0x01, 0x00, 0x03, 0xfe, 0x00, 0x10, 0x00, 0xc1, 0xff, 0xcf,
  0x00, 0x03, 0x01, 0x04, 0xfe, 0x00, 0x19, 0x00, 0x00, 0x02, 0xff, 0x00,
  0x00, 0x17, 0x04, 0xff, 0x00, 0x00, 0xff, 0x00, 0xff, 0x00, 0x00, 0xfb,
  0xff, 0x00, 0xfe, 0x00, 0x81, 0xfe, 0xfe, 0x00, 0x05, 0x00, 0xfb, 0x09,
  0x09, 0x09, 0x28, 0x00, 0x00, 0xf3, 0x01, 0x00, 0x1f, 0x00, 0xf4, 0xff,
  0xf7, 0xfb, 0x00, 0x00, 0x04, 0xf6, 0x01, 0xff, 0x03, 0x05, 0x00, 0x98,
  0xfe, 0x0b, 0x02, 0xbe, 0x00, 0xf3, 0xf9, 0xf8, 0x04, 0x00, 0x50, 0x01,
  0xfe, 0xff, 0xf4, 0x01, 0x01, 0xcd, 0xe6, 0x00, 0xff, 0xf9, 0x01, 0xff,
  0x00, 0xff, 0xf9, 0xd7, 0x10, 0x00, 0x02, 0x00, 0x7f, 0x00, 0x03, 0x02,
  0xff, 0xff, 0x00, 0xff, 0x0a, 0xfe, 0x01, 0xff, 0x00, 0x01, 0x00, 0x00,
  0x02, 0x00, 0x00, 0xff, 0xfd, 0xff, 0xff, 0xff, 0xfe, 0x00, 0xff, 0x00,
  0xff, 0x01, 0x00, 0xf8, 0x00, 0x02, 0xfe, 0xdc, 0xfd, 0xfc, 0x02, 0x00,
  0x03, 0xff, 0xf8, 0x01, 0x00, 0xfd, 0x00, 0xff, 0x00, 0x07, 0xfa, 0x00,
  0x00, 0xff, 0x00, 0x00, 0x01, 0x00, 0xff, 0x07, 0x01, 0x00, 0x01, 0xff,
  0x7f, 0xfe, 0x01, 0x00, 0xf1, 0xf2, 0xd1, 0x14, 0xf8, 0xf3, 0xf7, 0x00,
  0x00, 0xe4, 0x02, 0xff, 0xeb, 0x01, 0xf2, 0xf1, 0x06, 0xe6, 0x02, 0x01,
  0xfa, 0x09, 0x02, 0x01, 0xea, 0x0a, 0x01, 0x30, 0x00, 0x4f, 0xf5, 0xef,
  0xf9, 0x0a, 0x03, 0xf8, 0x0d, 0xff, 0x1c, 0x01, 0x01, 0xf6, 0xdf, 0x00,
  0x01, 0x58, 0xe1, 0x00, 0x02, 0xe9, 0x06, 0x01, 0xfd, 0xef, 0xe7, 0x7f,
  0x24, 0x02, 0xfe, 0x00, 0x4e, 0xfb, 0x01, 0x03, 0x09, 0xfe, 0x0d, 0xff,
  0xdb, 0x03, 0x06, 0xfd, 0x01, 0x04, 0x01, 0xff, 0x04, 0x00, 0xff, 0xfe,
  0x00, 0xff, 0x01, 0x00, 0xfe, 0x00, 0xf6, 0x00, 0xfa, 0xff, 0x00, 0xee,
  0x00, 0xa0, 0xf7, 0x1b, 0xf9, 0xff, 0x00, 0xff, 0xfb, 0x00, 0xfd, 0x00,
  0x00, 0x01, 0xff, 0x02, 0x00, 0x0f, 0xfb, 0x00, 0x00, 0xfd, 0x02, 0x00,
  0xff, 0xfe, 0xff, 0xfb, 0x00, 0x01, 0xf1, 0x00, 0x7f, 0xff, 0xf5, 0xfe,
  0xf8, 0x00, 0x08, 0x0d, 0x23, 0x02, 0xfd, 0x00, 0x00, 0xf9, 0x01, 0xfd,
  0xfd, 0x00, 0xff, 0x00, 0x08, 0xfb, 0x01, 0x00, 0xfd, 0x0a, 0xf0, 0x00,
  0x04, 0xf7, 0x00, 0x0c, 0x00, 0x33, 0xff, 0x81, 0xf5, 0xf3, 0xfd, 0xfb,
  0xfd, 0xff, 0xf9, 0xfd, 0x01, 0x01, 0xf2, 0xff, 0xfa, 0x3a, 0x01, 0x00,
  0x01, 0xfd, 0x01, 0x00, 0x02, 0x00, 0xff, 0x01, 0xf6, 0x01, 0x00, 0xff,
  0x03, 0x03, 0x00, 0x00, 0x02, 0x01, 0x10, 0xdc, 0x9c, 0x03, 0xfd, 0x01,
  0x01, 0x13, 0xff, 0x00, 0xf9, 0x01, 0x00, 0x00, 0x05, 0xfa, 0x01, 0x02,
  0x04, 0x08, 0xff, 0x00, 0x01, 0x05, 0xf0, 0xf1, 0x00, 0xe3, 0x06, 0x0c,
  0x01, 0x05, 0xf6, 0x16, 0x04, 0x00, 0xe5, 0x00, 0x05, 0x01, 0x01, 0x02,
  0xfb, 0x43, 0xde, 0x01, 0x03, 0xfb, 0x07, 0xed, 0x02, 0x00, 0xfe, 0x73,
  0xd0, 0x02, 0xcf, 0x00, 0x7f, 0xf8, 0xd5, 0xfe, 0x01, 0x00, 0x08, 0xfe,
  0xc0, 0x01, 0xfb, 0x00, 0x01, 0xfc, 0x00, 0x00, 0xfc, 0x01, 0x02, 0x00,
  0x03, 0xfd, 0x00, 0x01, 0x02, 0xfc, 0xff, 0x00, 0x00, 0x02, 0xf6, 0x29,
  0x00, 0xe6, 0x05, 0x81, 0x00, 0x04, 0xfa, 0xff, 0xfd, 0x00, 0xf1, 0xff,
  0x01, 0x01, 0x04, 0xff, 0xfd, 0x29, 0x00, 0x01, 0x01, 0xfd, 0x03, 0xf5,
  0x01, 0x00, 0xfe, 0xf5, 0xfb, 0x02, 0xe4, 0x00, 0x0a, 0xfd, 0xe5, 0xfe,
  0x04, 0x00, 0xfe, 0xfd, 0x0b, 0x00, 0xfc, 0x00, 0x01, 0x03, 0x01, 0x00,
  0xfa, 0x01, 0x00, 0x00, 0xfe, 0x00, 0xfc, 0x00, 0xff, 0xff, 0x01, 0x00,
  0x00, 0xff, 0xff, 0x2d, 0x00, 0xf3, 0xe9, 0xc1, 0x00, 0x00, 0xf5, 0x02,
  0x03, 0x00, 0xe6, 0x01, 0xfa, 0x00, 0x08, 0x01, 0x00, 0x81, 0x02, 0x01,
  0xf6, 0xff, 0x01, 0xff, 0x01, 0x00, 0xff, 0x00, 0x03, 0xf8, 0x00, 0x00,
  0xf0, 0x01, 0x00, 0xff, 0x02, 0x00, 0x03, 0x05, 0xfd, 0xff, 0x04, 0x00,
  0x00, 0xf6, 0x00, 0xff, 0x02, 0x00, 0x00, 0x00, 0xf6, 0x00, 0x00, 0x00,
  0x02, 0xf8, 0x00, 0xff, 0x04, 0x01, 0x00, 0x36, 0x00, 0x0d, 0x01, 0xf9,
  0x00, 0xf7, 0x00, 0xf8, 0x02, 0x00, 0x0c, 0x00, 0x00, 0x01, 0x01, 0x01,
  0x00, 0x06, 0x32, 0x00, 0x00, 0x00, 0x00, 0x00, 0x00, 0x00, 0x01, 0xfb,
  0x0a, 0x00, 0x00, 0x00, 0x81, 0xfd, 0x00, 0x01, 0x00, 0x00, 0xfd, 0xf3,
  0xff, 0xed, 0xfd, 0xfc, 0x03, 0x0f, 0x00, 0x00, 0xfe, 0x00, 0xfc, 0x00,
  0xef, 0x00, 0x01, 0xfd, 0xf8, 0x01, 0xe0, 0x02, 0xf4, 0xff, 0xff, 0x06,
  0x00, 0x46, 0x01, 0x81, 0xed, 0xf1, 0xf6, 0x0b, 0x02, 0x00, 0xfe, 0xf6,
  0x01, 0xf2, 0x00, 0xfd, 0xfc, 0xf9, 0xf7, 0xfe, 0x01, 0xfd, 0xff, 0xff,
  0x02, 0x00, 0xfe, 0x03, 0xf3, 0x01, 0x01, 0x00, 0x63, 0xfd, 0x00, 0xfe,
  0xe7, 0x01, 0x07, 0x0f, 0xeb, 0xec, 0x0a, 0x00, 0xff, 0x1a, 0x01, 0xfe,
  0x02, 0xfd, 0xf2, 0x01, 0xf8, 0xfe, 0xfd, 0x04, 0xf8, 0x0e, 0x01, 0xff,
  0x08, 0x22, 0xeb, 0xbb, 0xff, 0x19, 0xfb, 0x81, 0xfe, 0xe5, 0xd9, 0x0c,
  0xb1, 0x00, 0x02, 0x01, 0xf6, 0x08, 0xf9, 0x04, 0xfa, 0xf9, 0xfb, 0x03,
  0xf7, 0xfc, 0x06, 0xe6, 0xf7, 0x01, 0xfb, 0x83, 0x17, 0xf4, 0xf1, 0x00,
  0x71, 0x07, 0xe7, 0x05, 0xc9, 0xfa, 0x01, 0xfd, 0xfb, 0x03, 0xf1, 0xfe,
  0xf5, 0xd1, 0x00, 0xff, 0xe4, 0x01, 0x00, 0xfb, 0x01, 0xff, 0x01, 0x00,
  0x02, 0x00, 0xef, 0xef, 0xfe, 0x00, 0xff, 0xbc, 0x00, 0xfe, 0xff, 0xcc,
  0x14, 0x05, 0xe8, 0xde, 0xf8, 0xfd, 0x24, 0xf7, 0x02, 0x07, 0x05, 0xf0,
  0x00, 0x0e, 0xdc, 0x00, 0x02, 0x01, 0xe9, 0x00, 0x04, 0xfb, 0x01, 0x7f,
  0x02, 0x02, 0x02, 0xf9, 0x3a, 0xfa, 0x03, 0xff, 0xf8, 0xfc, 0x1f, 0x08,
  0xec, 0xdd, 0x01, 0x01, 0xfb, 0xfa, 0xf3, 0xfc, 0x00, 0xf8, 0xfb, 0xfc,
  0xff, 0x01, 0x02, 0x00, 0x01, 0xfd, 0xfe, 0x07, 0x13, 0x03, 0xff, 0xcf,
  0xff, 0x7f, 0xf2, 0xfc, 0xf0, 0xfd, 0xff, 0x03, 0xf6, 0xfb, 0x0c, 0x00,
  0xfa, 0xfd, 0xfe, 0xfa, 0xff, 0x59, 0xf7, 0xff, 0xf7, 0x03, 0xfb, 0x00,
  0xf3, 0xfc, 0x01, 0x14, 0x05, 0xf7, 0xf8, 0xfb, 0xf4, 0x12, 0xfa, 0x02,
  0xff, 0xff, 0x08, 0xe7, 0xf3, 0x03, 0xfe, 0xf2, 0xfe, 0xe1, 0x00, 0x01,
  0x03, 0x00, 0xf9, 0xff, 0x08, 0x03, 0x03, 0x01, 0xf7, 0xea, 0xf0, 0x00,
  0xf2, 0x01, 0x00, 0x6e, 0x00, 0xf6, 0xfd, 0x9f, 0xee, 0x09, 0xed, 0xe4,
  0x0e, 0x00, 0x19, 0xff, 0xf8, 0xf4, 0xf2, 0xfb, 0x00, 0xf1, 0x17, 0x01,
  0xfc, 0x03, 0xf0, 0xff, 0xf9, 0xfe, 0x01, 0xa6, 0xe7, 0xfd, 0xff, 0x01,
  0x7f, 0x03, 0x00, 0xfd, 0xe6, 0x00, 0xd9, 0xff, 0xd2, 0x05, 0xf3, 0x01,
  0xff, 0xf7, 0x00, 0x00, 0xf2, 0x01, 0x02, 0x01, 0x01, 0x00, 0x00, 0x00,
  0x00, 0x02, 0x00, 0x01, 0x03, 0x05, 0x00, 0x81, 0x00, 0xe7, 0xfb, 0xcb,
  0xfe, 0x03, 0xfa, 0xfd, 0xf9, 0x00, 0xf5, 0xfe, 0xff, 0x04, 0xff, 0xff,
  0x01, 0xf0, 0xf8, 0x00, 0x00, 0x00, 0x01, 0x00, 0xfe, 0x00, 0x00, 0xd4,
  0x01, 0x00, 0xf1, 0x00, 0x08, 0x00, 0xf2, 0x00, 0x05, 0xff, 0xea, 0xc6,
  0xda, 0x02, 0x17, 0xff, 0x01, 0x0c, 0x02, 0xfe, 0x0e, 0x00, 0x02, 0xff,
  0x1a, 0xfe, 0x00, 0x00, 0x02, 0xff, 0x00, 0xf9, 0xfd, 0xfe, 0x00, 0xb0,
  0xff, 0xc4, 0x01, 0x81, 0xf9, 0x20, 0x03, 0x04, 0xfc, 0xfd, 0x0e, 0xff,
  0x01, 0xfe, 0x05, 0x05, 0x00, 0x28, 0xb8, 0x00, 0x01, 0xfe, 0x01, 0xff,
  0x01, 0xff, 0x00, 0xe9, 0xba, 0x01, 0xf1, 0xfe, 0x4d, 0xff, 0xf5, 0x00,
  0xfb, 0x00, 0xff, 0x08, 0x15, 0x02, 0x00, 0x00, 0x01, 0xe9, 0x00, 0x00,
  0x00, 0x02, 0x01, 0x00, 0x0b, 0xff, 0xfd, 0x01, 0x04, 0x12, 0x00, 0x00,
  0x00, 0x05, 0xff, 0xd8, 0x00, 0x7f, 0xfe, 0xb5, 0x00, 0xfa, 0x01, 0xf0,
  0xfb, 0x00, 0x07, 0x00, 0xfe, 0x01, 0xf8, 0x03, 0x00, 0x03, 0xec, 0x01,
  0xfa, 0x02, 0x08, 0xff, 0x02, 0x00, 0x03, 0x0a, 0xf3, 0xfb, 0x04, 0x00,
  0xfa, 0x01, 0x04, 0x02, 0x02, 0x00, 0x00, 0xfa, 0xff, 0xff, 0x02, 0x00,
  0xfd, 0xf5, 0xfd, 0x01, 0x02, 0xfa, 0xff, 0x00, 0xfe, 0x00, 0x00, 0x00,
  0x00, 0xf9, 0xf8, 0xf8, 0xf9, 0x00, 0x00, 0x11, 0x00, 0x0f, 0xfc, 0xdd,
  0xfb, 0x02, 0xfc, 0xf7, 0x01, 0x00, 0xee, 0xff, 0xff, 0x00, 0xfc, 0x00,
  0x00, 0xeb, 0x09, 0x00, 0xff, 0x00, 0xfd, 0x00, 0xfe, 0x00, 0x00, 0xfc,
  0xfc, 0xff, 0x01, 0x00, 0x7f, 0x02, 0x01, 0x00, 0xf2, 0xfd, 0xe8, 0x01,
  0xe5, 0xfe, 0xe9, 0x00, 0xff, 0xef, 0xff, 0xfc, 0xec, 0x00, 0x00, 0xfd,
  0xfd, 0x03, 0x00, 0xff, 0x02, 0x00, 0xfb, 0xfd, 0x0d, 0x01, 0x00, 0x81,
  0x00, 0x4c, 0xfd, 0xe1, 0x00, 0xff, 0x00, 0xf9, 0x01, 0xfe, 0xc2, 0x00,
  0x00, 0xff, 0x00, 0xf9, 0xff, 0x32, 0xf1, 0xff, 0xff, 0x02, 0xfd, 0x01,
  0x00, 0xfc, 0x02, 0xcf, 0xfb, 0xff, 0xfd, 0xfe, 0x0e, 0x08, 0xfd, 0x00,
  0x03, 0x00, 0xf5, 0xd4, 0x05, 0x02, 0x05, 0x00, 0xff, 0x0d, 0x01, 0x00,
  0x06, 0x00, 0xfd, 0x00, 0x01, 0x00, 0x00, 0x01, 0x03, 0x04, 0x00, 0x01,
  0x0b, 0x04, 0xff, 0xd6, 0x00, 0x33, 0x02, 0xc1, 0xfb, 0x05, 0xf5, 0x0a,
  0x04, 0x00, 0xef, 0xf7, 0x01, 0x00, 0xfe, 0x00, 0x02, 0x35, 0xf3, 0x01,
  0x00, 0xfe, 0x01, 0xff, 0x00, 0x00, 0xfe, 0xf7, 0xdb, 0x00, 0x00, 0x00,
  0x7f, 0xef, 0x00, 0x01, 0xd0, 0xff, 0x06, 0x01, 0x0d, 0x05, 0xf2, 0x03,
  0x03, 0xdf, 0x01, 0xff, 0xee, 0x01, 0x02, 0xfe, 0x06, 0xff, 0x01, 0x00,
  0x05, 0x06, 0x00, 0x01, 0x0c, 0x09, 0xf4, 0x81, 0xff, 0x32, 0xfa, 0xd3,
  0xff, 0xfd, 0xf1, 0xef, 0xbe, 0x00, 0x1e, 0x01, 0x00, 0xff, 0x01, 0xff,
  0xfd, 0xe6, 0xef, 0x00, 0x01, 0x01, 0x04, 0xf3, 0xfa, 0xfe, 0x01, 0xe2,
  0x04, 0x00, 0xff, 0x00, 0x0a, 0xfb, 0xfe, 0x04, 0xfe, 0x00, 0x0c, 0xe3,
  0x11, 0x06, 0xff, 0xfb, 0x01, 0x0d, 0xff, 0x00, 0xfc, 0xf8, 0xff, 0x00,
  0x05, 0x03, 0xff, 0x01, 0x0a, 0x02, 0x03, 0x01, 0x09, 0x01, 0x00, 0xfa,
  0xff, 0x81, 0x00, 0x96, 0x02, 0x07, 0x02, 0x0d, 0x04, 0x00, 0xf0, 0x00,
  0x00, 0xfb, 0x02, 0x01, 0x01, 0x22, 0x00, 0x01, 0x00, 0x00, 0xf4, 0x00,
  0xff, 0x00, 0x00, 0x31, 0xe9, 0xfe, 0x07, 0x00, 0x20, 0x02, 0x04, 0xff,
  0x00, 0x00, 0xee, 0xf1, 0x0d, 0x03, 0x02, 0x00, 0x01, 0x02, 0x00, 0x00,
  0x03, 0xff, 0xfd, 0x00, 0x0a, 0x00, 0xfd, 0xff, 0xf9, 0x04, 0xfd, 0x00,
  0x03, 0x01, 0x00, 0x96, 0x00, 0x7f, 0x00, 0xdb, 0x00, 0x07, 0x00, 0x01,
  0x00, 0x00, 0x0d, 0x00, 0x01, 0x02, 0xef, 0xff, 0xff, 0xf1, 0x10, 0xff,
  0xff, 0x01, 0x02, 0x00, 0xff, 0x00, 0x02, 0xf7, 0xf1, 0xff, 0xfe, 0x00,
  0xac, 0x04, 0xff, 0x01, 0x02, 0x00, 0x02, 0x05, 0xd6, 0xfb, 0x01, 0xf8,
  0x01, 0xf7, 0xe7, 0x02, 0xfb, 0xfb, 0x02, 0x00, 0xf7, 0x00, 0xfd, 0x01,
  0x00, 0xf6, 0x01, 0xde, 0xd4, 0x03, 0x01, 0x07, 0xf9, 0x7f, 0x00, 0x96,
  0x01, 0xff, 0x06, 0xee, 0x08, 0x00, 0xe0, 0x00, 0x00, 0xf8, 0x02, 0x04,
  0x01, 0xf8, 0xf8, 0x00, 0x00, 0x01, 0x0c, 0x02, 0x00, 0x00, 0x00, 0xd3,
  0x07, 0x00, 0xf8, 0x00, 0x65, 0x04, 0xfa, 0xf6, 0xff, 0xff, 0xf4, 0xfe,
  0xfd, 0xff, 0xfe, 0x00, 0x01, 0x01, 0x00, 0x00, 0xff, 0x00, 0x01, 0xff,
  0xe9, 0x00, 0x00, 0x00, 0x01, 0x01, 0x00, 0xfb, 0x02, 0x02, 0x00, 0x01,
  0xff, 0x10, 0x00, 0xfb, 0xfe, 0xe5, 0x01, 0x02, 0x03, 0xff, 0xfc, 0x00,
  0x00, 0x01, 0x03, 0xff, 0x00, 0x11, 0xef, 0x00, 0x00, 0xff, 0x01, 0x00,
  0x00, 0xff, 0x00, 0x01, 0xfe, 0x00, 0x00, 0xff, 0x7f, 0x00, 0x01, 0x01,
  0xe6, 0x00, 0x0e, 0x0f, 0x02, 0x01, 0x03, 0xfb, 0x01, 0xf6, 0xff, 0xff,
  0x00, 0x01, 0xfc, 0x00, 0x00, 0xfc, 0xfe, 0x00, 0xff, 0xf9, 0xff, 0xff,
  0xc9, 0x00, 0x00, 0x29, 0xf9, 0x30, 0xfc, 0xb1, 0x01, 0xfb, 0x02, 0xf6,
  0xe2, 0x00, 0xff, 0x01, 0x01, 0xf6, 0xfa, 0x07, 0x00, 0xb5, 0xfa, 0x00,
  0x01, 0xfd, 0x07, 0x01, 0xef, 0x00, 0xfc, 0x02, 0x0d, 0x01, 0x00, 0x00,
  0x7f, 0xfe, 0x03, 0xf6, 0x00, 0xff, 0x0b, 0xfb, 0xf1, 0xfe, 0x02, 0xff,
  0x00, 0x00, 0x00, 0x00, 0x01, 0x00, 0x00, 0xfe, 0xee, 0xff, 0x00, 0x00,
  0x01, 0x02, 0xfe, 0x00, 0xfe, 0xff, 0x00, 0xfa, 0xff, 0xef, 0xfd, 0xf5,
  0x00, 0xeb, 0x01, 0x02, 0x00, 0xff, 0x00, 0x00, 0xff, 0xff, 0x00, 0x01,
  0x00, 0x09, 0xf3, 0x00, 0x00, 0x00, 0x00, 0x00, 0xff, 0xfe, 0x00, 0x03,
  0xfd, 0x00, 0xfc, 0xff, 0x7f, 0xff, 0xfc, 0x00, 0xf7, 0x00, 0xf3, 0xf4,
  0xfc, 0xfe, 0x1b, 0x00, 0x00, 0x0c, 0x00, 0x01, 0x13, 0x00, 0xfd, 0x00,
  0x04, 0x01, 0xfd, 0x00, 0xfe, 0x02, 0x01, 0x00, 0xff, 0x00, 0x00, 0x81,
  0x00, 0x03, 0xfd, 0xcc, 0x01, 0x04, 0x00, 0x05, 0xe9, 0x00, 0x2f, 0x01,
  0xfe, 0x02, 0x03, 0x00, 0x00, 0xfa, 0x0c, 0x00, 0xfd, 0x01, 0x02, 0x00,
  0xfd, 0x00, 0x00, 0xfd, 0xfa, 0xfd, 0xf3, 0x00, 0xa9, 0x02, 0xf3, 0xff,
  0xf8, 0xfc, 0xfc, 0xfd, 0xea, 0x0a, 0xfd, 0xff, 0x02, 0x06, 0x01, 0xfd,
  0xfc, 0x00, 0xf9, 0xfc, 0x02, 0x00, 0xfe, 0x00, 0xe5, 0x04, 0xf1, 0x00,
  0x03, 0xf1, 0x00, 0xa1, 0x00, 0x7f, 0x08, 0xbd, 0xed, 0x06, 0x03, 0x05,
  0xf5, 0x00, 0x0a, 0x01, 0x01, 0xfd, 0xed, 0xfa, 0xfc, 0x07, 0x0a, 0x00,
  0x01, 0xff, 0xfa, 0x00, 0x03, 0xfa, 0x00, 0xda, 0xff, 0x01, 0xf0, 0xfe,
  0x98, 0x15, 0xef, 0xfd, 0xf6, 0x00, 0xe2, 0x06, 0xe3, 0xfd, 0xfc, 0xfe,
  0xff, 0xfb, 0xff, 0xfb, 0xfd, 0x00, 0x02, 0x00, 0xfe, 0xfd, 0xff, 0xfb,
  0x02, 0xfe, 0x01, 0xff, 0x0b, 0x02, 0x00, 0xf8, 0x00, 0x14, 0x02, 0x81,
  0x01, 0x00, 0x05, 0xfe, 0xf5, 0x00, 0xf5, 0x00, 0x01, 0x00, 0x02, 0x02,
  0xfe, 0xc7, 0xfd, 0xfc, 0x01, 0xfd, 0xfe, 0x00, 0x01, 0x00, 0xfd, 0xfd,
  0x00, 0x01, 0x00, 0x00, 0xff, 0xf7, 0x00, 0x00, 0xfe, 0x01, 0xf0, 0xfa,
  0xe1, 0x00, 0xff, 0x00, 0xfe, 0xf3, 0xfb, 0x00, 0x00, 0xf5, 0x00, 0x00,
  0xff, 0x00, 0x00, 0xff, 0x01, 0xff, 0xfa, 0xf1, 0xf3, 0x01, 0x00, 0x06,
  0x00, 0x1b, 0xfc, 0xb1, 0xfd, 0xff, 0xf9, 0xfc, 0xfe, 0x00, 0xb4, 0x00,
  0xff, 0x01, 0xfd, 0xfb, 0x00, 0xe4, 0x01, 0x00, 0xfd, 0x00, 0x02, 0x00,
  0xfc, 0x00, 0x00, 0x10, 0xf9, 0xfe, 0x00, 0x00, 0x7f, 0x00, 0x00, 0x03,
  0xff, 0x00, 0xfd, 0xca, 0x0c, 0x02, 0xfb, 0x02, 0xff, 0xff, 0xf2, 0xff,
  0xfa, 0xfb, 0xfd, 0x00, 0x04, 0x02, 0xfe, 0x00, 0xfc, 0xfb, 0x01, 0xea,
  0xe9, 0xff, 0x00, 0xc7, 0xff, 0x33, 0x01, 0xd2, 0x00, 0x0e, 0x03, 0x05,
  0xf9, 0x00, 0xfe, 0x01, 0x00, 0x00, 0xfc, 0x02, 0x00, 0xf3, 0x0e, 0xff,
  0x01, 0x00, 0x01, 0x01, 0x00, 0x00, 0x01, 0x1b, 0xe1, 0x00, 0x01, 0x00,
  0x7f, 0x01, 0x01, 0xfe, 0x00, 0x00, 0x03, 0x01, 0x05, 0xff, 0x1c, 0x01,
  0x00, 0xff, 0x00, 0x00, 0x13, 0x00, 0x00, 0x00, 0xee, 0x01, 0x00, 0x01,
  0x00, 0xfd, 0x00, 0x00, 0xfe, 0x01, 0x00, 0x4d, 0xff, 0x04, 0xf4, 0x81,
  0x00, 0xe8, 0xff, 0xfe, 0xfe, 0x00, 0x53, 0x00, 0xff, 0xff, 0xfe, 0x02,
  0x00, 0xe2, 0x06, 0x00, 0x00, 0xff, 0x02, 0x00, 0xff, 0x00, 0xff, 0x06,
  0x04, 0x00, 0x00, 0x00, 0x33, 0x00, 0x02, 0x01, 0xf9, 0xfe, 0xfa, 0x03,
  0x06, 0x02, 0xf3, 0x00, 0xf8, 0x03, 0x00, 0x03, 0xf2, 0x00, 0xff, 0xfc,
  0x00, 0x02, 0x01, 0x01, 0x06, 0x04, 0xf9, 0xfa, 0x03, 0x02, 0xff, 0xcd,
  0x00, 0x42, 0x03, 0xc6, 0x0c, 0x06, 0xf9, 0x05, 0x07, 0xfe, 0xec, 0xfb,
  0x00, 0xfd, 0x00, 0xf6, 0x00, 0x05, 0xfc, 0x01, 0x01, 0x00, 0xf3, 0x00,
  0x02, 0xfc, 0x01, 0x0c, 0x03, 0x01, 0x01, 0xff, 0x81, 0xfb, 0x01, 0x03,
  0xff, 0x00, 0x02, 0x12, 0x00, 0xff, 0x00, 0x00, 0x00, 0x01, 0x00, 0x00,
  0x00, 0x00, 0x00, 0x00, 0x01, 0x00, 0x00, 0x00, 0x00, 0x02, 0xff, 0x00,
  0x01, 0x00, 0x00, 0xf6, 0x00, 0x07, 0x00, 0xf7, 0x01, 0x00, 0xff, 0x01,
  0x00, 0x00, 0x03, 0x00, 0x00, 0xff, 0x02, 0x00, 0x00, 0xff, 0x04, 0x00,
  0x00, 0x00, 0x00, 0x00, 0x00, 0x00, 0x00, 0xf1, 0x0d, 0x00, 0x00, 0x00,
  0x81, 0x00, 0x00, 0x00, 0x04, 0xfd, 0xec, 0x26, 0x0f, 0x01, 0x0c, 0xf8,
  0x02, 0xf2, 0x00, 0x00, 0x09, 0xff, 0xeb, 0xff, 0x19, 0xe9, 0x02, 0x01,
  0x02, 0xf9, 0x00, 0xea, 0x0c, 0xfd, 0x01, 0x81, 0xfb, 0xb0, 0x04, 0xa3,
  0xdf, 0x19, 0xfe, 0xf7, 0x10, 0xf9, 0x04, 0x01, 0x00, 0x08, 0xea, 0x12,
  0x00, 0x0b, 0xfa, 0x01, 0x01, 0xea, 0x05, 0x01, 0x00, 0xfd, 0xea, 0xec,
  0x2e, 0x00, 0x04, 0xf8, 0xf4, 0x05, 0x02, 0x00, 0x00, 0xfd, 0xff, 0xf5,
  0xce, 0xf5, 0xff, 0x01, 0xfd, 0xeb, 0xfc, 0xfc, 0x01, 0xfd, 0x04, 0xfb,
  0xfa, 0x01, 0x00, 0x00, 0xfa, 0xdf, 0xf9, 0x00, 0x04, 0x02, 0x00, 0x32,
  0x01, 0xf2, 0xf0, 0x9c, 0x00, 0xfb, 0xfb, 0xe7, 0x03, 0xff, 0x0d, 0x00,
  0xfc, 0xfc, 0xe5, 0x01, 0x00, 0x45, 0x0d, 0x00, 0xfc, 0x02, 0xfa, 0xff,
  0xfc, 0xfc, 0x01, 0x0a, 0xf4, 0xfd, 0xff, 0xfd, 0x7f, 0x07, 0x01, 0x00,
  0xd5, 0xf8, 0xf9, 0xd2, 0xf9, 0x03, 0xea, 0x00, 0x04, 0x1c, 0xff, 0x01,
  0xe9, 0x00, 0x06, 0xf6, 0x00, 0x00, 0xfd, 0xfc, 0xfc, 0x14, 0xc5, 0x01,
  0xfa, 0x03, 0x00, 0x23, 0x00, 0x70, 0xfb, 0x81, 0xf0, 0xdd, 0x03, 0x0e,
  0xbc, 0x00, 0xf9, 0x02, 0x01, 0xe3, 0x02, 0xdb, 0xfa, 0x4e, 0xcc, 0xfd,
  0xff, 0x05, 0xed, 0x00, 0x05, 0xf6, 0x05, 0x08, 0xb9, 0x00, 0xfe, 0x03,
  0x4e, 0x0f, 0xfe, 0x08, 0x02, 0xfa, 0xf6, 0xfe, 0x0b, 0x01, 0xfc, 0xf9,
  0x01, 0xfd, 0x01, 0x02, 0xfa, 0x01, 0x02, 0xfa, 0xf1, 0x01, 0x01, 0x00,
  0xf7, 0xfa, 0xfc, 0x01, 0xec, 0x04, 0x00, 0xe4, 0x00, 0xe8, 0xf9, 0x90,
  0xff, 0xf5, 0xfe, 0x00, 0x08, 0x00, 0xed, 0x00, 0x01, 0xfb, 0x03, 0xfe,
  0x01, 0x0f, 0xf5, 0x00, 0x01, 0x00, 0xff, 0x00, 0x00, 0xfa, 0x01, 0xc9,
  0x04, 0x01, 0x04, 0x00, 0x7f, 0x01, 0x02, 0xfc, 0xe0, 0xf3, 0xe6, 0xfb,
  0x94, 0x20, 0xfa, 0x01, 0x03, 0xf4, 0x02, 0x00, 0xf7, 0x02, 0x04, 0xf4,
  0x09, 0x00, 0x02, 0x01, 0x08, 0x15, 0x08, 0x04, 0xef, 0xff, 0xfe, 0x98,
  0xff, 0x1b, 0x04, 0x8e, 0x13, 0x00, 0xe9, 0xf5, 0xf5, 0xff, 0xf1, 0xe3,
  0x04, 0xf8, 0x1b, 0xf8, 0xfb, 0xfe, 0xb8, 0x01, 0x03, 0x01, 0x07, 0xfe,
  0x02, 0xf9, 0x00, 0x19, 0xf3, 0x03, 0xd7, 0x00, 0x81, 0xd3, 0xdb, 0x05,
  0x00, 0xff, 0xfd, 0x01, 0x01, 0x00, 0x00, 0xff, 0x00, 0xfe, 0x00, 0x00,
  0x01, 0xff, 0x00, 0xff, 0x0d, 0x00, 0x00, 0x00, 0x01, 0x00, 0xfe, 0xff,
  0x03, 0x01, 0x00, 0xe1, 0xff, 0x12, 0x01, 0x03, 0x00, 0x14, 0x00, 0x01,
  0x02, 0x00, 0xfe, 0x00, 0x00, 0x00, 0x01, 0xff, 0x00, 0xf1, 0x0e, 0x00,
  0x00, 0x00, 0xff, 0x00, 0x00, 0xff, 0x00, 0x0c, 0x03, 0x00, 0x00, 0x00,
  0x81, 0x01, 0x00, 0x00, 0x00, 0x01, 0xee, 0x0f, 0x0d, 0xfb, 0x04, 0xff,
  0x01, 0x05, 0x00, 0x01, 0x04, 0x00, 0xef, 0x01, 0x08, 0xf4, 0x01, 0x00,
  0x01, 0x03, 0xf3, 0xee, 0x02, 0x03, 0x01, 0xa1, 0xfe, 0x15, 0xf5, 0x81,
  0xea, 0x08, 0x01, 0x04, 0x06, 0xfc, 0x08, 0x01, 0x01, 0x00, 0xea, 0xfe,
  0x01, 0xe6, 0xfd, 0x00, 0x01, 0xf2, 0x04, 0x01, 0x02, 0x01, 0xf2, 0xee,
  0x0f, 0x01, 0x02, 0xfc, 0xfa, 0x03, 0x01, 0x02, 0x00, 0x01, 0xcf, 0x02,
  0xc5, 0x01, 0x02, 0xf9, 0xfc, 0x00, 0xff, 0xf7, 0x00, 0x02, 0x00, 0x01,
  0x03, 0x00, 0xff, 0xfe, 0xfd, 0xfa, 0x02, 0xfa, 0x07, 0x0a, 0xff, 0xbe,
  0xff, 0xf9, 0x02, 0xc7, 0x02, 0x04, 0xfd, 0xfe, 0x10, 0x00, 0xef, 0x00,
  0x00, 0x00, 0x00, 0x06, 0x00, 0x81, 0xff, 0xfe, 0x00, 0x01, 0xff, 0xfe,
  0x01, 0x00, 0x00, 0x03, 0x02, 0x00, 0xfe, 0x00, 0x23, 0xf4, 0xfe, 0xf8,
  0x00, 0x00, 0x02, 0x02, 0xfe, 0x01, 0x01, 0x00, 0x00, 0x00, 0x00, 0x00,
  0xff, 0x00, 0x01, 0x00, 0x02, 0x00, 0x00, 0x00, 0x01, 0x01, 0x00, 0x00,
  0x01, 0xfe, 0x00, 0x1e, 0x00, 0x18, 0x01, 0xc5, 0xff, 0x01, 0x00, 0x00,
  0xfd, 0x00, 0x17, 0x00, 0x00, 0x00, 0x01, 0xfd, 0x00, 0x21, 0x00, 0x00,
  0xff, 0x00, 0x00, 0x00, 0x00, 0x00, 0x00, 0xff, 0x00, 0xff, 0xff, 0x00,
  0x81, 0x01, 0x00, 0x00, 0x02, 0x00, 0x01, 0x03, 0xf0, 0xfe, 0x04, 0x01,
  0x00, 0x0c, 0x00, 0x00, 0x03, 0x00, 0x00, 0x00, 0xf7, 0x01, 0x00, 0x00,
  0x01, 0xff, 0x00, 0xff, 0x00, 0x00, 0x00, 0x0a, 0xff, 0xd5, 0x01, 0xe1,
  0x00, 0xf1, 0x00, 0x04, 0xff, 0x00, 0x15, 0x00, 0x00, 0x00, 0x02, 0x01,
  0x00, 0x09, 0x1c, 0x00, 0x00, 0x00, 0x00, 0x00, 0x00, 0x00, 0x01, 0x09,
  0x09, 0x00, 0xfc, 0x00, 0x81, 0xfd, 0xfb, 0x01, 0xc6, 0xf0, 0xff, 0xff,
  0x04, 0x00, 0x00, 0x00, 0x00, 0x01, 0x00, 0x00, 0x27, 0x00, 0x00, 0x00,
  0xc7, 0x00, 0x00, 0x00, 0x9e, 0x00, 0x00, 0x00, 0x3c, 0x00, 0x00, 0x00,
  0xe9, 0xff, 0xff, 0xff, 0x58, 0x00, 0x00, 0x00, 0xf9, 0xff, 0xff, 0xff,
  0xdc, 0xff, 0xff, 0xff, 0xdd, 0xff, 0xff, 0xff, 0xd5, 0xff, 0xff, 0xff,
  0x1f, 0x00, 0x00, 0x00, 0x57, 0xff, 0xff, 0xff, 0x60, 0x00, 0x00, 0x00,
  0x6c, 0x00, 0x00, 0x00, 0x56, 0x00, 0x00, 0x00, 0xf1, 0xff, 0xff, 0xff,
  0xde, 0xff, 0xff, 0xff, 0x45, 0xff, 0xff, 0xff, 0xd2, 0xff, 0xff, 0xff,
  0x62, 0xff, 0xff, 0xff, 0x14, 0x00, 0x00, 0x00, 0xe6, 0x00, 0x00, 0x00,
  0x22, 0x00, 0x00, 0x00, 0x0d, 0x00, 0x00, 0x00, 0x52, 0x00, 0x00, 0x00,
  0x50, 0x00, 0x00, 0x00, 0x1f, 0x00, 0x00, 0x00, 0xbc, 0xff, 0xff, 0xff,
  0x5e, 0x00, 0x00, 0x00, 0x31, 0x00, 0x00, 0x00, 0xa3, 0x00, 0x00, 0x00,
  0x8f, 0x00, 0x00, 0x00, 0x2f, 0x00, 0x00, 0x00, 0x4f, 0x00, 0x00, 0x00,
  0xac, 0xff, 0xff, 0xff, 0xa5, 0xff, 0xff, 0xff, 0x0a, 0x00, 0x00, 0x00,
  0xad, 0x00, 0x00, 0x00, 0xe8, 0xff, 0xff, 0xff, 0x61, 0x00, 0x00, 0x00,
  0xc0, 0xff, 0xff, 0xff, 0xdc, 0xff, 0xff, 0xff, 0xd1, 0xff, 0xff, 0xff,
  0x39, 0x00, 0x00, 0x00, 0xed, 0xff, 0xff, 0xff, 0x2c, 0x00, 0x00, 0x00,
  0x9f, 0xff, 0xff, 0xff, 0x6f, 0x00, 0x00, 0x00, 0x3d, 0x00, 0x00, 0x00,
  0x33, 0x00, 0x00, 0x00, 0x01, 0x00, 0x00, 0x00, 0x64, 0xff, 0xff, 0xff,
  0x16, 0x00, 0x00, 0x00, 0xec, 0xff, 0xff, 0xff, 0xbd, 0xff, 0xff, 0xff,
  0x45, 0x00, 0x00, 0x00, 0x75, 0x01, 0x00, 0x00, 0x01, 0x00, 0x00, 0x00,
  0x4e, 0x00, 0x00, 0x00, 0xe4, 0xff, 0xff, 0xff, 0x09, 0x00, 0x00, 0x00,
  0x06, 0x00, 0x00, 0x00, 0xd9, 0xff, 0xff, 0xff, 0xbe, 0xff, 0xff, 0xff,
  0xd2, 0xf1, 0xff, 0xff, 0x04, 0x00, 0x00, 0x00, 0x00, 0x08, 0x00, 0x00,
  0x28, 0xf5, 0xf9, 0x1f, 0xc7, 0x65, 0x0d, 0xa6, 0xe0, 0x10, 0x08, 0xfe,
  0x28, 0x0a, 0x25, 0xbe, 0x1a, 0xde, 0x06, 0x0d, 0xd4, 0x07, 0x04, 0x8d,
  0x8f, 0xaa, 0xf4, 0x02, 0x0c, 0x07, 0xd9, 0x0d, 0x15, 0x10, 0x00, 0x9a,
  0x02, 0x14, 0xdf, 0xe3, 0xb1, 0xf4, 0xf1, 0xeb, 0xca, 0x0e, 0x05, 0xf1,
  0x3c, 0x24, 0xf0, 0x17, 0xaf, 0xc5, 0xff, 0x18, 0x0a, 0xe5, 0x81, 0xf6,
  0x0b, 0x09, 0xcb, 0xff, 0xde, 0xb5, 0xe9, 0xf7, 0xd4, 0xb6, 0xe9, 0xc6,
  0x0d, 0xe1, 0x06, 0x02, 0x01, 0xfa, 0xf9, 0xd1, 0xac, 0x02, 0xe2, 0x01,
  0xea, 0xfa, 0x0d, 0xc5, 0x00, 0xfd, 0xf0, 0x01, 0xff, 0x22, 0xdf, 0x96,
  0xe4, 0x04, 0xeb, 0xfd, 0xa5, 0x16, 0xf4, 0x0c, 0xe3, 0x21, 0x0d, 0x0d,
  0x28, 0x09, 0x18, 0xd8, 0xfd, 0xa6, 0xe3, 0x10, 0x15, 0x01, 0xc5, 0xc5,
  0xf1, 0xfd, 0x05, 0xcb, 0x81, 0x0e, 0xf8, 0x0d, 0x1c, 0x0c, 0xfa, 0xfe,
  0xd9, 0x09, 0xfc, 0xe9, 0xbe, 0x06, 0xf4, 0xfe, 0x0d, 0x1a, 0x41, 0x81,
  0xf4, 0xc9, 0x07, 0x06, 0xf3, 0x03, 0x0b, 0xd3, 0xb7, 0xbf, 0xfe, 0x08,
  0x0b, 0x0a, 0x10, 0x04, 0x09, 0xf2, 0xfb, 0x97, 0x0a, 0x0c, 0xc6, 0x1a,
  0x9d, 0xd1, 0xe5, 0x01, 0xd6, 0xfe, 0x07, 0xde, 0x26, 0x0a, 0xf2, 0x0c,
  0xf8, 0x8a, 0x35, 0x1d, 0x0d, 0xd3, 0xaf, 0xd9, 0xfe, 0xed, 0x90, 0x01,
  0xd2, 0x06, 0xf8, 0xcb, 0x00, 0xfd, 0x01, 0x31, 0x06, 0x07, 0x07, 0x00,
  0xfc, 0xdb, 0xfc, 0x06, 0x1f, 0x01, 0x0f, 0x11, 0x0c, 0x04, 0x15, 0x82,
  0xfc, 0xf9, 0x0e, 0x04, 0xcb, 0xc8, 0x81, 0xb7, 0xf7, 0xae, 0x07, 0xdf,
  0x0a, 0xbc, 0xed, 0xa7, 0x03, 0xe5, 0x03, 0xfc, 0xf3, 0xfa, 0x07, 0xd7,
  0xc0, 0x1f, 0xfe, 0x16, 0x0e, 0xff, 0x1c, 0xf2, 0xe1, 0xec, 0x0b, 0x01,
  0xf9, 0xea, 0x2a, 0x07, 0x13, 0x11, 0xfe, 0xd9, 0xfe, 0xc9, 0xce, 0xff,
  0xdb, 0xfa, 0xa9, 0xec, 0x1b, 0xdd, 0xf0, 0x05, 0xe0, 0xd4, 0x1d, 0xd2,
  0xc5, 0xa2, 0xff, 0x30, 0x00, 0x03, 0x07, 0x08, 0x81, 0x23, 0x17, 0x18,
  0xe9, 0xfe, 0x12, 0x29, 0xf0, 0xe8, 0xbe, 0x05, 0xf8, 0xf9, 0x20, 0xb7,
  0x17, 0xcc, 0x18, 0x10, 0xc8, 0xe8, 0x17, 0xf7, 0xe9, 0x02, 0xec, 0xdc,
  0xf6, 0xad, 0x11, 0x06, 0xe1, 0x9f, 0xd3, 0x08, 0xef, 0x04, 0x98, 0xf0,
  0x00, 0x0a, 0x08, 0xc4, 0xe0, 0xd6, 0x0c, 0x08, 0xc5, 0xea, 0xd4, 0xb3,
  0x0c, 0x0b, 0xf6, 0x22, 0xfd, 0xb2, 0xf3, 0xd0, 0xaa, 0xb6, 0xe0, 0xf2,
  0xfd, 0xe8, 0x8e, 0x00, 0x00, 0xe3, 0xf7, 0x0e, 0xf7, 0xd5, 0x10, 0xca,
  0x16, 0x12, 0xc7, 0xf0, 0x85, 0xe9, 0xdc, 0xd0, 0xd5, 0xff, 0xfb, 0xf0,
  0xeb, 0x81, 0xe8, 0x48, 0xc9, 0x03, 0xb4, 0x00, 0xdd, 0xf4, 0x02, 0xc4,
  0x2e, 0xcb, 0xa7, 0x04, 0x0b, 0xa2, 0xda, 0x1e, 0xf0, 0xfd, 0xfc, 0x05,
  0xa3, 0xa5, 0xe7, 0x15, 0xa6, 0x09, 0xe0, 0x09, 0xed, 0x94, 0x0b, 0xe0,
  0x11, 0x08, 0x0a, 0x01, 0x04, 0xf3, 0x02, 0x19, 0xc9, 0x14, 0x2f, 0x09,
  0xcb, 0x0a, 0x08, 0xe9, 0xfe, 0x0f, 0xfb, 0xfd, 0xbf, 0x08, 0xda, 0x08,
  0x08, 0xe8, 0xed, 0x0b, 0x25, 0x01, 0xd4, 0xc0, 0x08, 0xea, 0xfe, 0x0b,
  0x81, 0xff, 0xb9, 0x07, 0xf2, 0xbb, 0xdd, 0xf6, 0xaa, 0xb6, 0x99, 0xf6,
  0xc4, 0x2e, 0xc6, 0xe4, 0xf6, 0x85, 0x07, 0xd2, 0x16, 0xf8, 0xc5, 0x08,
  0xca, 0x08, 0x00, 0x2d, 0xa9, 0xef, 0x8c, 0xfe, 0xcf, 0xbd, 0xe9, 0xd5,
  0xcd, 0xcc, 0xf4, 0x22, 0xb1, 0x81, 0x01, 0x05, 0x02, 0xf0, 0xbe, 0x0a,
  0xdf, 0x0a, 0xdc, 0xe8, 0xf6, 0xe8, 0x9a, 0x16, 0xce, 0x00, 0xf5, 0x0b,
  0xe1, 0xe5, 0x07, 0xd1, 0x35, 0xac, 0xf3, 0x16, 0xe9, 0xd5, 0xf3, 0x09,
  0xdd, 0xe6, 0xfc, 0xf7, 0xfa, 0xf1, 0x05, 0xf3, 0xfb, 0x81, 0x18, 0xb0,
  0xac, 0xc1, 0x04, 0xfa, 0xf7, 0x07, 0x04, 0xcf, 0x01, 0xf9, 0x4b, 0xcd,
  0xf2, 0x0a, 0xf9, 0xd4, 0xf5, 0x09, 0x1f, 0xe0, 0xd8, 0xe0, 0x1d, 0xfc,
  0xda, 0xf2, 0xfb, 0x03, 0x28, 0x0b, 0xd5, 0xe4, 0x08, 0xf6, 0xb9, 0x01,
  0x27, 0xbb, 0xdc, 0x05, 0xde, 0xff, 0x01, 0xc3, 0xa3, 0x01, 0x07, 0xde,
  0xef, 0x07, 0xef, 0xcc, 0x06, 0xea, 0xf8, 0xf0, 0x14, 0x01, 0x0b, 0x0c,
  0x10, 0x00, 0xd7, 0x03, 0xfd, 0x0a, 0x0b, 0x0b, 0xfa, 0x0b, 0xfb, 0xbc,
  0xfa, 0xfc, 0xfd, 0x0a, 0xc8, 0x11, 0x81, 0xf9, 0xeb, 0xf7, 0x02, 0x0b,
  0xe4, 0xd5, 0xe7, 0xff, 0xf3, 0xfc, 0x02, 0xf0, 0x18, 0xf6, 0x13, 0xee,
  0xdc, 0xdc, 0xf6, 0x0a, 0x02, 0x04, 0x03, 0xd8, 0xae, 0x04, 0xf8, 0x02,
  0xe9, 0xe6, 0x08, 0x07, 0xe9, 0x0a, 0xd2, 0xca, 0x11, 0x45, 0xcf, 0xdc,
  0x92, 0xc4, 0xd6, 0xe4, 0xcd, 0x1e, 0xf3, 0x0b, 0x0e, 0x01, 0x01, 0xee,
  0xf3, 0x04, 0x1e, 0x18, 0xcd, 0xff, 0x16, 0x00, 0x01, 0x08, 0x46, 0x17,
  0x01, 0x81, 0x0e, 0x00, 0xf9, 0xad, 0xcc, 0x0e, 0x06, 0x0d, 0x87, 0xe9,
  0x39, 0xf1, 0x1b, 0x10, 0xdf, 0xd6, 0xf0, 0xe2, 0x1b, 0x09, 0x14, 0xfc,
  0x12, 0xf2, 0x9b, 0x00, 0x18, 0xe9, 0x90, 0xfb, 0xef, 0xcf, 0xfa, 0xce,
  0xff, 0xb2, 0xb4, 0xf8, 0x02, 0xfb, 0xca, 0xbf, 0x1d, 0x24, 0x01, 0xfc,
  0x18, 0xdf, 0x0a, 0xb3, 0xc0, 0xeb, 0xe0, 0xfa, 0xf5, 0xfc, 0xd1, 0xeb,
  0xed, 0x1b, 0x0b, 0x03, 0xe7, 0xff, 0x1b, 0x00, 0xe0, 0x07, 0xff, 0x04,
  0xf9, 0x0e, 0x11, 0x81, 0xfd, 0xb6, 0x09, 0x11, 0x95, 0xef, 0x0b, 0xad,
  0xd5, 0xfb, 0x18, 0xd1, 0xf4, 0xc9, 0xec, 0x01, 0xff, 0xaf, 0xea, 0x04,
  0xa8, 0xaa, 0xfd, 0x25, 0xdc, 0xc1, 0xe8, 0xf5, 0x14, 0xeb, 0xc5, 0xbf,
  0xef, 0x19, 0x2f, 0x09, 0xd8, 0xa9, 0xd9, 0xa4, 0xd4, 0xf1, 0xf0, 0xd0,
  0xeb, 0xf6, 0x33, 0xc8, 0xd0, 0x15, 0x29, 0x81, 0xef, 0x16, 0x16, 0x15,
  0xac, 0x06, 0x1a, 0x02, 0xeb, 0xf8, 0xb2, 0x0b, 0x10, 0x02, 0xef, 0xbb,
  0x06, 0xba, 0xbc, 0xb7, 0x14, 0x00, 0xc0, 0xc3, 0xf9, 0xe6, 0xf6, 0x02,
  0x11, 0xf0, 0x1e, 0xbf, 0xd9, 0x02, 0x17, 0xf2, 0xf7, 0x23, 0xc0, 0xd2,
  0x12, 0xf0, 0xf7, 0xa5, 0x18, 0x21, 0xdf, 0x07, 0xdb, 0xe1, 0x0f, 0xca,
  0xe1, 0xff, 0xcd, 0xef, 0x17, 0x0a, 0x2b, 0xf6, 0xca, 0x3a, 0xdb, 0xad,
  0xe1, 0x00, 0x81, 0x0a, 0xdc, 0xe6, 0x08, 0x01, 0xf9, 0xfb, 0x52, 0xef,
  0x0b, 0xf2, 0xa3, 0xa9, 0xfa, 0xe6, 0xf3, 0xa3, 0x1f, 0xd7, 0xf3, 0xd1,
  0xc7, 0xe4, 0xe9, 0xd3, 0xc3, 0xd7, 0x00, 0xe8, 0xa2, 0xd0, 0x0e, 0x36,
  0xf3, 0xe3, 0xd3, 0xee, 0x17, 0xe5, 0xc9, 0xb7, 0xf9, 0x26, 0x04, 0x19,
  0xf5, 0xd9, 0x07, 0xda, 0xf8, 0xe3, 0xd8, 0x01, 0x0d, 0x14, 0x2b, 0xfd,
  0xd5, 0x1c, 0x06, 0xe8, 0xeb, 0x12, 0x04, 0x0b, 0xb8, 0xfd, 0x0d, 0x00,
  0xf3, 0xf8, 0xfc, 0xfa, 0x00, 0xdd, 0xad, 0xcf, 0xf6, 0xbf, 0x81, 0xb9,
  0xf9, 0xfa, 0x06, 0xe6, 0xe7, 0xbc, 0xb1, 0xe1, 0xf6, 0xf5, 0xfc, 0xe1,
  0x09, 0x0e, 0x94, 0x83, 0x01, 0x06, 0xc7, 0xca, 0xee, 0xf4, 0xe1, 0x05,
  0x0b, 0x0f, 0x08, 0x05, 0x13, 0x00, 0xf6, 0xf6, 0xe7, 0xe6, 0x0a, 0x1b,
  0xfd, 0x05, 0x0a, 0x04, 0xa9, 0xd9, 0x0a, 0xe8, 0xde, 0xf7, 0xff, 0x0a,
  0xe7, 0x02, 0xce, 0x23, 0x01, 0x13, 0xd1, 0xb9, 0x04, 0xc4, 0x0a, 0x08,
  0xf6, 0x01, 0x02, 0x07, 0x14, 0xfe, 0x14, 0x81, 0x03, 0xe8, 0xfe, 0xfd,
  0x04, 0xee, 0xdf, 0x00, 0x2f, 0x20, 0xe7, 0xef, 0xed, 0x32, 0xfe, 0xd2,
  0xe1, 0x17, 0x00, 0xca, 0xf9, 0xfa, 0x1f, 0xa1, 0x1f, 0xff, 0xc3, 0x29,
  0x01, 0x19, 0xed, 0x99, 0xe1, 0xd1, 0xf6, 0xe3, 0xfa, 0xde, 0xb1, 0x24,
  0x00, 0x01, 0xef, 0x00, 0xf5, 0x05, 0xe9, 0xa1, 0x05, 0xee, 0xeb, 0x0f,
  0x81, 0xfb, 0xcc, 0x18, 0x05, 0xe2, 0xeb, 0xf4, 0xb8, 0x9d, 0x42, 0xf6,
  0x0b, 0x15, 0xb5, 0xa2, 0x0b, 0x03, 0xea, 0xa2, 0xbe, 0xa5, 0xf8, 0xd8,
  0xcc, 0xcf, 0xdc, 0xae, 0xfc, 0x90, 0x03, 0x01, 0xfb, 0xe3, 0xf5, 0xde,
  0xf2, 0x05, 0xc1, 0x21, 0x02, 0x0f, 0x8b, 0x0f, 0xd2, 0xd1, 0xdd, 0xf8,
  0x14, 0x0e, 0xfe, 0xab, 0xd8, 0xc8, 0x81, 0x04, 0xc1, 0xe2, 0x07, 0x0e,
  0xf6, 0x10, 0xfa, 0x1e, 0x04, 0xb1, 0x28, 0xc8, 0x01, 0xbc, 0xd1, 0x16,
  0xf6, 0x02, 0xfe, 0xe2, 0x06, 0x0c, 0xb6, 0xf4, 0x2c, 0xfd, 0x1b, 0xc8,
  0x1f, 0x1f, 0x11, 0xfc, 0x07, 0x0e, 0x16, 0x9f, 0xc2, 0xf4, 0x00, 0x0f,
  0xf4, 0x02, 0xf0, 0xb0, 0x13, 0x25, 0x09, 0x1f, 0xef, 0xfa, 0x06, 0x3b,
  0x08, 0x0b, 0xb5, 0x11, 0x08, 0xcf, 0x0a, 0x13, 0xf8, 0xf8, 0xff, 0xe5,
  0xff, 0x10, 0xee, 0xfa, 0xfd, 0xf6, 0xe9, 0x09, 0xdf, 0x01, 0x09, 0x18,
  0x81, 0xfd, 0x04, 0x17, 0xd5, 0xc8, 0x32, 0x22, 0xf9, 0xec, 0x02, 0xe9,
  0x00, 0x00, 0xd2, 0x08, 0xe1, 0x12, 0xee, 0xec, 0xf7, 0x00, 0xdc, 0x24,
  0x08, 0x09, 0xf8, 0xcd, 0xd5, 0xce, 0xdc, 0xc0, 0x9a, 0xc1, 0x04, 0xfc,
  0x01, 0xdf, 0x14, 0x0b, 0x09, 0x07, 0x27, 0xcf, 0x00, 0xcc, 0x12, 0x15,
  0xa6, 0xb2, 0x17, 0xf0, 0x00, 0xd2, 0x09, 0xf1, 0xf4, 0xe7, 0xf6, 0x0e,
  0xc5, 0x01, 0x07, 0xe8, 0x1b, 0x12, 0xff, 0xf2, 0xc6, 0xf9, 0xc4, 0xa0,
  0xf7, 0xf9, 0x02, 0x07, 0xb6, 0xf7, 0x81, 0x00, 0xd8, 0x07, 0xcd, 0xff,
  0xeb, 0x2b, 0x07, 0x1e, 0xe1, 0xb1, 0xf8, 0xd1, 0x11, 0xf2, 0x3b, 0xcf,
  0x23, 0xf0, 0xf1, 0x18, 0x04, 0x12, 0x00, 0xff, 0xfc, 0x01, 0xfe, 0xb5,
  0x0a, 0xf2, 0xb2, 0x00, 0xf2, 0xc4, 0x03, 0x03, 0x04, 0xbd, 0x02, 0xb2,
  0xf6, 0xe4, 0xfe, 0x02, 0x94, 0xfe, 0x09, 0x02, 0x03, 0xf6, 0xf9, 0xf9,
  0xc9, 0xc6, 0x31, 0x08, 0x81, 0xf0, 0xea, 0x99, 0x24, 0x03, 0xa5, 0xe8,
  0x08, 0xf6, 0xd5, 0xf8, 0xf6, 0x21, 0xf9, 0xf3, 0xfb, 0xfb, 0xe9, 0xec,
  0x81, 0x97, 0xfc, 0xfa, 0x1b, 0xf4, 0xcc, 0xdc, 0xfc, 0xaa, 0xd6, 0x0b,
  0x07, 0x00, 0x1d, 0x06, 0xf1, 0x13, 0x14, 0x00, 0xfa, 0x06, 0xfc, 0x04,
  0xfe, 0x18, 0x00, 0x08, 0x01, 0x0f, 0xca, 0x03, 0x10, 0xfa, 0x13, 0xfa,
  0x06, 0x09, 0x00, 0xe1, 0x01, 0xff, 0x18, 0xca, 0x14, 0x04, 0x03, 0x02,
  0xd3, 0xf8, 0x02, 0x01, 0xc1, 0x09, 0x01, 0xe3, 0x05, 0xe8, 0x08, 0x0f,
  0x12, 0x17, 0xe3, 0x06, 0xe2, 0xef, 0xd9, 0x04, 0xf5, 0xe7, 0x12, 0xbd,
  0x0d, 0xe8, 0x2d, 0xc2, 0xf5, 0xdf, 0x09, 0xfb, 0xee, 0xdf, 0x88, 0xa7,
  0xe6, 0x81, 0x14, 0xf5, 0x13, 0x98, 0x06, 0x9f, 0xfa, 0xee, 0xfc, 0x0c,
  0xfc, 0x04, 0x01, 0xcd, 0xc6, 0x19, 0xf9, 0xe2, 0x1d, 0x06, 0xf0, 0xcd,
  0xea, 0xf2, 0xf9, 0x01, 0xda, 0xc8, 0x2b, 0x07, 0x03, 0xdd, 0xbe, 0xd4,
  0xf8, 0xa9, 0xd2, 0xe6, 0xe0, 0xeb, 0xbd, 0xdc, 0xd2, 0x81, 0xf0, 0xfb,
  0xfe, 0xd3, 0x18, 0x0b, 0xcc, 0xaa, 0xf8, 0xe9, 0xf8, 0xff, 0x0c, 0x00,
  0xd6, 0x24, 0x25, 0xf9, 0xec, 0x01, 0x17, 0x00, 0xe3, 0x07, 0xed, 0x09,
  0xf3, 0x0b, 0xac, 0xcd, 0x0a, 0xd5, 0x0d, 0x1e, 0xf6, 0xfa, 0x16, 0xee,
  0xf4, 0x05, 0x11, 0xb2, 0x0c, 0xe8, 0x05, 0xfc, 0xff, 0xd9, 0xb5, 0x06,
  0x04, 0x23, 0x00, 0xf6, 0xe9, 0x0c, 0x89, 0x04, 0xf6, 0x02, 0xfc, 0x81,
  0x23, 0xf0, 0x13, 0x07, 0x0b, 0xaa, 0xad, 0xf7, 0xf9, 0x1d, 0xf5, 0xbc,
  0x12, 0x09, 0x12, 0xfd, 0xd7, 0x31, 0x09, 0xaa, 0xda, 0x04, 0xc0, 0x07,
  0x02, 0x00, 0x00, 0x0f, 0xfd, 0x05, 0xee, 0xf0, 0x30, 0xf4, 0x9b, 0xbc,
  0x08, 0x0a, 0x03, 0x95, 0x37, 0x0a, 0x05, 0xbd, 0xdd, 0xf5, 0x0d, 0x06,
  0x09, 0xef, 0x18, 0xe8, 0xfb, 0xbe, 0x81, 0x15, 0xef, 0xb0, 0xf1, 0xda,
  0xff, 0xf6, 0xfc, 0x04, 0x9c, 0xee, 0xfe, 0x00, 0xb7, 0x10, 0xfd, 0x02,
  0xf7, 0x9f, 0x0a, 0xf1, 0x06, 0x0a, 0xbe, 0x05, 0x11, 0xaf, 0xc8, 0xb1,
  0xf1, 0xda, 0x23, 0xea, 0xcd, 0x07, 0x03, 0xda, 0xfc, 0xbe, 0xfb, 0x09,
  0xa5, 0x13, 0xe7, 0xd0, 0xf4, 0xd6, 0xa0, 0x03, 0xe1, 0x02, 0xed, 0xe2,
  0xf3, 0xfe, 0x08, 0x02, 0x93, 0x08, 0x00, 0x07, 0xe0, 0xca, 0xdf, 0xc8,
  0x84, 0xdf, 0xda, 0xc9, 0xeb, 0xeb, 0x03, 0x03, 0xfa, 0xe0, 0x0d, 0x9b,
  0x0f, 0x07, 0xd6, 0x16, 0x00, 0x10, 0x81, 0x02, 0x9a, 0x91, 0xd8, 0xf1,
  0x11, 0xf6, 0x0b, 0xf1, 0xcf, 0xc2, 0x9a, 0x0b, 0xba, 0xff, 0x10, 0x11,
  0xe4, 0x07, 0xfa, 0x1c, 0x09, 0xcf, 0x19, 0xde, 0x14, 0xa4, 0xc6, 0x0f,
  0xfd, 0xf5, 0x1d, 0xe9, 0x0f, 0x0c, 0xb1, 0xd4, 0x29, 0x04, 0x15, 0xcf,
  0x00, 0x2d, 0xfc, 0x01, 0x06, 0xf3, 0x12, 0xad, 0xce, 0xe3, 0xf3, 0xf6,
  0xef, 0x04, 0xb8, 0x99, 0x81, 0xd2, 0xf8, 0xeb, 0xf9, 0xae, 0xfc, 0x0d,
  0xde, 0xe7, 0xfb, 0x01, 0x24, 0xe4, 0xcd, 0x1d, 0x0a, 0x02, 0xe6, 0xb4,
  0x13, 0xfb, 0xe9, 0xfc, 0xde, 0xdc, 0xfc, 0x07, 0x18, 0x03, 0x02, 0xec,
  0x40, 0x0f, 0x04, 0x0f, 0xa2, 0x9b, 0xbb, 0x24, 0xf9, 0xa0, 0xef, 0xdd,
  0x2c, 0x28, 0xd5, 0xfd, 0x14, 0x02, 0xe7, 0xfb, 0xef, 0x08, 0x00, 0xcb,
  0xf8, 0xe5, 0x03, 0xf7, 0x03, 0x05, 0x1b, 0x81, 0xe8, 0xf7, 0xc2, 0x00,
  0x02, 0x02, 0x0c, 0x0e, 0xfc, 0xf4, 0x11, 0xd3, 0x07, 0x16, 0x01, 0xf6,
  0xf9, 0xfd, 0x18, 0xfa, 0xf8, 0xfd, 0x0c, 0x11, 0xfc, 0xe3, 0xf6, 0x0b,
  0xea, 0x07, 0xca, 0x1c, 0xed, 0xf8, 0xf4, 0x01, 0xec, 0xb1, 0x66, 0xfa,
  0xfa, 0xf5, 0xf8, 0xb9, 0xe4, 0xff, 0xe7, 0xd8, 0x13, 0x0f, 0x00, 0x03,
  0xf5, 0xfb, 0xfb, 0x8f, 0xd9, 0xdb, 0xfe, 0xd0, 0x12, 0x17, 0x38, 0xfa,
  0x21, 0xeb, 0xa1, 0x16, 0x00, 0x07, 0xfc, 0xc7, 0x95, 0xb2, 0x05, 0xdc,
  0x1c, 0xef, 0xfa, 0x14, 0x08, 0xee, 0xe5, 0xbb, 0x01, 0x10, 0xe0, 0xfc,
  0xcc, 0xd9, 0xfd, 0x03, 0xfd, 0x08, 0xb0, 0x01, 0x38, 0x0f, 0xfe, 0xfc,
  0xcc, 0xfc, 0x0b, 0x10, 0x10, 0xbe, 0x81, 0x01, 0xde, 0x03, 0xf3, 0xc6,
  0xe9, 0x09, 0xf0, 0x03, 0xc4, 0x0c, 0xe0, 0xe7, 0xed, 0xfb, 0x08, 0xea,
  0x0f, 0xf0, 0xe7, 0xea, 0x05, 0xcb, 0xfb, 0x04, 0xe3, 0x0d, 0x13, 0x06,
  0x86, 0x81, 0xee, 0xef, 0xbf, 0xaa, 0xe7, 0x04, 0x10, 0x0f, 0x0c, 0xf4,
  0xf4, 0xf1, 0xfe, 0xa2, 0x0b, 0xcc, 0xea, 0xf4, 0xfc, 0xf9, 0x02, 0x13,
  0xf2, 0x0e, 0xd6, 0x09, 0xe1, 0xf7, 0x13, 0xf8, 0xf6, 0x1a, 0xe8, 0xe0,
  0xee, 0xc5, 0xd6, 0xed, 0xdb, 0x12, 0xd2, 0x03, 0xc3, 0x11, 0x02, 0xcb,
  0xee, 0xc3, 0x02, 0xe8, 0x10, 0x01, 0x55, 0xca, 0x2a, 0xf4, 0xe9, 0x06,
  0x07, 0x0d, 0x0a, 0x10, 0x07, 0xf8, 0x17, 0xa9, 0x07, 0x1c, 0xa0, 0x00,
  0xf3, 0xdc, 0x0e, 0xf8, 0x00, 0xc4, 0x08, 0xe0, 0xf6, 0xdb, 0xfc, 0xff,
  0xba, 0x01, 0x09, 0xfb, 0x02, 0xf8, 0xea, 0x00, 0xd6, 0xa9, 0x01, 0xff,
  0x81, 0xf1, 0xfb, 0x96, 0x25, 0x03, 0xf9, 0xbd, 0xde, 0xf9, 0xff, 0xff,
  0x04, 0x00, 0x00, 0x00, 0x80, 0x00, 0x00, 0x00, 0xb1, 0x02, 0x00, 0x00,
  0xbe, 0x02, 0x00, 0x00, 0xa7, 0x00, 0x00, 0x00, 0x8a, 0xf9, 0xff, 0xff,
  0xbe, 0x02, 0x00, 0x00, 0x18, 0x02, 0x00, 0x00, 0x63, 0x00, 0x00, 0x00,
  0xdf, 0x01, 0x00, 0x00, 0x8e, 0x01, 0x00, 0x00, 0x15, 0xfc, 0xff, 0xff,
  0xcb, 0x00, 0x00, 0x00, 0xc5, 0x01, 0x00, 0x00, 0xab, 0x01, 0x00, 0x00,
  0x13, 0x02, 0x00, 0x00, 0xd2, 0x00, 0x00, 0x00, 0x5e, 0x02, 0x00, 0x00,
  0x2c, 0x02, 0x00, 0x00, 0x78, 0x03, 0x00, 0x00, 0x5d, 0xff, 0xff, 0xff,
  0x7e, 0x00, 0x00, 0x00, 0xbe, 0xff, 0xff, 0xff, 0x79, 0xfe, 0xff, 0xff,
  0x1c, 0xf5, 0xff, 0xff, 0x31, 0x02, 0x00, 0x00, 0x8f, 0xfd, 0xff, 0xff,
  0x1e, 0x00, 0x00, 0x00, 0xe6, 0x01, 0x00, 0x00, 0x5c, 0xff, 0xff, 0xff,
  0x57, 0x05, 0x00, 0x00, 0x1e, 0x03, 0x00, 0x00, 0xc4, 0xff, 0xff, 0xff,
  0xfc, 0x02, 0x00, 0x00, 0x6a, 0xfa, 0xff, 0xff, 0x04, 0x00, 0x00, 0x00,
  0x00, 0x04, 0x00, 0x00, 0xb8, 0xe8, 0xf3, 0xc7, 0x04, 0x8b, 0xfd, 0x0a,
  0xdb, 0xf9, 0x0c, 0xdf, 0x9f, 0xc2, 0xde, 0xec, 0xa5, 0xb8, 0xd1, 0x81,
  0xf7, 0xeb, 0xec, 0x21, 0xf0, 0x03, 0xce, 0x9a, 0xd2, 0xf2, 0x0f, 0xf7,
  0xf4, 0xcb, 0xf5, 0xe6, 0xf7, 0xe3, 0x81, 0x21, 0x19, 0x00, 0x05, 0x0d,
  0x0b, 0xe5, 0xc8, 0xe9, 0xf1, 0x03, 0xf7, 0xfe, 0x90, 0xfb, 0x0a, 0xf2,
  0xf3, 0xcb, 0x04, 0xf7, 0xdc, 0x15, 0x3f, 0x6f, 0xd6, 0xf7, 0xd6, 0xe7,
  0x23, 0x81, 0x0a, 0xa9, 0x11, 0xf0, 0x16, 0x31, 0x23, 0x34, 0x21, 0x13,
  0xd6, 0xd4, 0xc1, 0x0e, 0x9d, 0x14, 0xd3, 0xe2, 0x0b, 0x03, 0xb3, 0xd6,
  0x29, 0xdc, 0xef, 0x46, 0xea, 0x13, 0xe0, 0xe5, 0xe7, 0xfd, 0xe2, 0xf9,
  0xec, 0x05, 0x8a, 0xef, 0xe2, 0xab, 0xae, 0x1d, 0x14, 0x17, 0xf6, 0x02,
  0x7f, 0x04, 0xfb, 0xfb, 0xf6, 0xda, 0xc0, 0x1f, 0x9a, 0xc6, 0x47, 0xd2,
  0x0a, 0xfc, 0xff, 0x04, 0x01, 0x03, 0x08, 0xad, 0x8f, 0xff, 0x81, 0x09,
  0x00, 0xf6, 0x1a, 0xf5, 0x0d, 0xe5, 0x1e, 0xfd, 0x09, 0xf8, 0xd1, 0x20,
  0x0b, 0x10, 0xdb, 0x01, 0x01, 0x08, 0x07, 0x06, 0x8a, 0xf6, 0x9c, 0x01,
  0x0c, 0x08, 0x08, 0x0c, 0xc4, 0x01, 0x05, 0x02, 0x04, 0xf9, 0x00, 0x08,
  0xf8, 0xfe, 0xfc, 0xfb, 0x11, 0x0e, 0xf7, 0x02, 0xfc, 0xfd, 0x10, 0xd6,
  0xc2, 0x81, 0xe4, 0x03, 0xfd, 0x25, 0xf6, 0xef, 0xfb, 0x10, 0xb9, 0x02,
  0xf7, 0x07, 0x04, 0xc9, 0xb8, 0xcc, 0xb0, 0x22, 0xf7, 0xfe, 0xf4, 0x11,
  0x0c, 0xfe, 0x81, 0xe0, 0xe5, 0xcc, 0x1f, 0xf6, 0xd4, 0x14, 0x27, 0x20,
  0xf4, 0x11, 0xff, 0xe0, 0xd2, 0xe5, 0xfe, 0xeb, 0xea, 0xad, 0xf2, 0xa9,
  0xeb, 0xe5, 0x8f, 0xdc, 0xfb, 0xf4, 0xfb, 0xb7, 0x46, 0xe8, 0xe8, 0x81,
  0xe4, 0x0e, 0x40, 0xe7, 0xe6, 0x23, 0x1b, 0xe9, 0x0a, 0xfa, 0x06, 0xc5,
  0xfe, 0xdf, 0xe0, 0x0a, 0x03, 0x17, 0xce, 0xe7, 0x03, 0xe6, 0x84, 0xff,
  0x25, 0xc5, 0xdf, 0xe1, 0xd8, 0x0f, 0xad, 0xe1, 0xda, 0xda, 0x6c, 0x0b,
  0x04, 0x81, 0xb2, 0x23, 0xd1, 0xf6, 0xbf, 0xbe, 0xb3, 0xc7, 0xfb, 0x0c,
  0x5b, 0xc3, 0x57, 0x4a, 0x81, 0x04, 0x6b, 0xdf, 0xf7, 0xeb, 0xf6, 0xd5,
  0xb1, 0xe3, 0xbd, 0xb1, 0x03, 0xda, 0xdc, 0xd5, 0x02, 0xf5, 0xc8, 0x08,
  0xe7, 0xf9, 0xee, 0xf7, 0x14, 0xe7, 0x0c, 0xdd, 0x3c, 0x06, 0x09, 0x25,
  0x27, 0xcc, 0x3b, 0x27, 0xbb, 0xe7, 0xfc, 0xea, 0x81, 0x2b, 0xd7, 0x2f,
  0x09, 0x16, 0xb6, 0xd6, 0x0c, 0xf6, 0xcf, 0x0c, 0xed, 0xb3, 0x08, 0xf6,
  0xe7, 0xfb, 0x81, 0x34, 0x32, 0x0f, 0xfd, 0x27, 0xd5, 0xc9, 0xf4, 0xc3,
  0xef, 0x21, 0xd4, 0x13, 0x52, 0x22, 0xd4, 0xc4, 0xe5, 0xef, 0xce, 0xf6,
  0xee, 0x0b, 0x20, 0x8a, 0xe2, 0x1c, 0xfa, 0xdf, 0x0b, 0x01, 0xee, 0xcf,
  0x1c, 0xcb, 0xf8, 0xbb, 0x15, 0x1b, 0x15, 0xeb, 0xdd, 0xeb, 0xde, 0xff,
  0x81, 0x0d, 0xda, 0x1c, 0xf2, 0xcc, 0xe1, 0xa2, 0x10, 0xce, 0xf0, 0x08,
  0x04, 0xf4, 0xb1, 0xcc, 0xec, 0x0e, 0xd0, 0x1a, 0x6f, 0x14, 0xe5, 0xdb,
  0x1e, 0x13, 0xf0, 0xef, 0x94, 0xe1, 0xe0, 0xf6, 0xf6, 0x27, 0xba, 0xcf,
  0xc5, 0xfb, 0xfa, 0xb9, 0xd9, 0x81, 0x0b, 0x29, 0xf7, 0x04, 0xe5, 0xd1,
  0xe9, 0xdd, 0x0f, 0xfa, 0x34, 0xba, 0xcd, 0x29, 0x45, 0x36, 0x02, 0x32,
  0xb7, 0xe0, 0x0a, 0x00, 0x81, 0x2f, 0xcd, 0xc3, 0xb0, 0xe1, 0xe8, 0xcd,
  0x02, 0xd7, 0x13, 0xfc, 0xf3, 0x81, 0x2c, 0xff, 0xce, 0xd9, 0xf4, 0x32,
  0xfd, 0xe7, 0xf9, 0xfc, 0xd2, 0x09, 0x85, 0xf5, 0xf7, 0xe9, 0xfa, 0xfe,
  0x2f, 0x00, 0xeb, 0xb5, 0x03, 0x18, 0xf3, 0xe6, 0xdf, 0xe0, 0x1c, 0xe2,
  0xf5, 0xe0, 0xd5, 0xd8, 0xf7, 0xf7, 0x0a, 0x92, 0xf2, 0xf4, 0x0e, 0x10,
  0x1c, 0x19, 0x81, 0x11, 0xeb, 0x8e, 0xf3, 0xee, 0xdb, 0x0a, 0xce, 0x25,
  0xed, 0xe8, 0xa1, 0xef, 0xfa, 0x00, 0xfb, 0xd4, 0xeb, 0xee, 0xcb, 0xf2,
  0xfc, 0xf6, 0x11, 0x08, 0x23, 0xfe, 0x06, 0x1e, 0x06, 0xe4, 0xd4, 0x0e,
  0x06, 0x3c, 0xed, 0xe3, 0xf9, 0x13, 0xf8, 0x0b, 0x03, 0x08, 0x81, 0x1e,
  0x0a, 0x00, 0x37, 0x04, 0xf5, 0xfe, 0xe0, 0xf4, 0xf5, 0x81, 0xe8, 0xca,
  0xd6, 0xf9, 0xb2, 0x01, 0x08, 0xf9, 0x09, 0x0c, 0xef, 0xe3, 0xd1, 0xff,
  0x13, 0x0a, 0xdd, 0x25, 0xfe, 0x05, 0xe8, 0xd3, 0xf4, 0xe3, 0xed, 0xe2,
  0xec, 0x2b, 0xa1, 0xaa, 0xea, 0xe3, 0xfd, 0xfe, 0xcc, 0xfd, 0xd7, 0xa1,
  0xd5, 0xcb, 0xcd, 0xba, 0xec, 0x24, 0xf5, 0x1c, 0x7f, 0xd8, 0xc4, 0xc9,
  0xd9, 0x02, 0x16, 0x06, 0xea, 0x49, 0x0c, 0xbc, 0xec, 0x1d, 0xe7, 0xd2,
  0x11, 0xd7, 0xdc, 0xa5, 0x24, 0xcf, 0xf1, 0x5d, 0xdf, 0xc2, 0x7f, 0x04,
  0xec, 0xd5, 0x87, 0xe2, 0xe2, 0xf5, 0xeb, 0xc7, 0x18, 0xb3, 0xdc, 0xd1,
  0xff, 0xe6, 0xd9, 0xf4, 0x04, 0x37, 0xee, 0xcf, 0x0b, 0xf2, 0x81, 0x05,
  0x11, 0x0b, 0x08, 0xe9, 0x98, 0xb7, 0x98, 0x36, 0xfc, 0x20, 0xc4, 0xea,
  0x30, 0x0b, 0xd7, 0xea, 0xc2, 0xd8, 0xf7, 0xf4, 0xd0, 0xf6, 0x43, 0x20,
  0xdc, 0x0d, 0x4a, 0xc9, 0x02, 0xe3, 0xc3, 0xe9, 0x1a, 0x0c, 0x06, 0x81,
  0xff, 0xba, 0xa1, 0xf2, 0xf4, 0x1e, 0xf5, 0xa6, 0xe3, 0x0c, 0xe0, 0xf7,
  0xd4, 0xed, 0x19, 0xf9, 0x10, 0xf6, 0xf7, 0x37, 0x39, 0x88, 0xc7, 0xfd,
  0x9d, 0xea, 0x81, 0x09, 0xe7, 0xc5, 0xfa, 0xaf, 0xf5, 0xbe, 0xa5, 0xd6,
  0xed, 0xfc, 0x03, 0xe7, 0xd6, 0xee, 0xe6, 0xa2, 0x01, 0x98, 0x0a, 0xe4,
  0xf9, 0xf1, 0xb8, 0x6b, 0x10, 0x17, 0xea, 0xf3, 0x8e, 0xbb, 0xb9, 0x08,
  0x28, 0xfe, 0xb9, 0x10, 0x39, 0x30, 0xa6, 0x15, 0xda, 0xb5, 0xf3, 0x0c,
  0x8f, 0x0e, 0x81, 0x41, 0xd3, 0x15, 0x95, 0x85, 0xe6, 0x17, 0xf8, 0x02,
  0xde, 0xf9, 0x1c, 0xb3, 0xdc, 0xb2, 0xf2, 0x34, 0x24, 0x06, 0x98, 0x28,
  0xda, 0x03, 0x50, 0x07, 0x0a, 0xe5, 0x81, 0xa5, 0x40, 0x18, 0xe4, 0x09,
  0xb0, 0x03, 0xcf, 0x96, 0xcc, 0x23, 0x0e, 0x23, 0xef, 0xe3, 0x2c, 0x07,
  0x0d, 0xd1, 0xfe, 0x1b, 0xae, 0xfa, 0x02, 0xd7, 0xca, 0xd3, 0x07, 0x0f,
  0xf6, 0x81, 0xe0, 0x11, 0xe2, 0x0f, 0x05, 0xd6, 0xec, 0xd8, 0x5c, 0xd9,
  0x10, 0x26, 0xed, 0x31, 0x1c, 0x81, 0x0e, 0xd4, 0xd0, 0xf7, 0xb7, 0x0b,
  0xf7, 0xd9, 0xdd, 0xeb, 0xb8, 0x90, 0x98, 0xfc, 0x23, 0x0d, 0x0f, 0xbd,
  0x22, 0xef, 0xcd, 0xbf, 0xe4, 0x99, 0x03, 0x00, 0x46, 0x0b, 0x1f, 0x21,
  0xfa, 0xf7, 0xbb, 0xd6, 0xa6, 0xce, 0x06, 0x05, 0x38, 0xf0, 0x02, 0xe0,
  0xa2, 0x20, 0x7f, 0x40, 0xdd, 0x09, 0xe0, 0xfd, 0xa3, 0x0f, 0xd1, 0x44,
  0xfc, 0xf8, 0xeb, 0xe2, 0xc5, 0x22, 0xde, 0x21, 0xf1, 0xf9, 0xe4, 0xd2,
  0x09, 0xff, 0xe3, 0xf4, 0x41, 0xc4, 0x06, 0xdf, 0xda, 0x1f, 0x3f, 0x16,
  0x12, 0xde, 0x22, 0x04, 0x81, 0xfe, 0xdd, 0x3f, 0xea, 0x0a, 0xf1, 0xf1,
  0xe1, 0xd3, 0xa6, 0xed, 0xfd, 0xf0, 0x90, 0xdc, 0xe3, 0xe0, 0xd7, 0xed,
  0xd1, 0xfd, 0xd3, 0xd5, 0xc6, 0x8d, 0xa6, 0xe2, 0xd5, 0xe9, 0xca, 0xff,
  0x1a, 0xf5, 0xd4, 0x81, 0xdd, 0xe7, 0x29, 0x11, 0xb0, 0x19, 0xff, 0xfe,
  0xf5, 0xf7, 0x07, 0xe2, 0xdd, 0x8f, 0xf1, 0xdb, 0xa5, 0xd7, 0xb4, 0xe0,
  0xe2, 0xd7, 0xf0, 0xb8, 0xff, 0xc9, 0xea, 0xd7, 0x06, 0xd2, 0xeb, 0x03,
  0xbe, 0xeb, 0x91, 0x81, 0xf4, 0x06, 0x0e, 0xf9, 0x76, 0xfe, 0xff, 0xff,
  0x04, 0x00, 0x00, 0x00, 0x80, 0x00, 0x00, 0x00, 0x34, 0xf6, 0xff, 0xff,
  0x1a, 0xfe, 0xff, 0xff, 0xf2, 0x03, 0x00, 0x00, 0x6a, 0xfc, 0xff, 0xff,
  0xca, 0xf7, 0xff, 0xff, 0xca, 0xfc, 0xff, 0xff, 0x0d, 0xfb, 0xff, 0xff,
  0xbd, 0x02, 0x00, 0x00, 0x7a, 0x00, 0x00, 0x00, 0x20, 0xff, 0xff, 0xff,
  0xa8, 0x07, 0x00, 0x00, 0xed, 0xf7, 0xff, 0xff, 0x41, 0x01, 0x00, 0x00,
  0x73, 0xf0, 0xff, 0xff, 0xb1, 0xfd, 0xff, 0xff, 0x39, 0x01, 0x00, 0x00,
  0x66, 0x02, 0x00, 0x00, 0xd0, 0xf9, 0xff, 0xff, 0x25, 0xfb, 0xff, 0xff,
  0xd1, 0x00, 0x00, 0x00, 0x01, 0x00, 0x00, 0x00, 0x29, 0xf9, 0xff, 0xff,
  0x49, 0xfe, 0xff, 0xff, 0x07, 0x01, 0x00, 0x00, 0xf5, 0xfd, 0xff, 0xff,
  0x94, 0xf5, 0xff, 0xff, 0x14, 0xff, 0xff, 0xff, 0x5f, 0x05, 0x00, 0x00,
  0x22, 0xff, 0xff, 0xff, 0x68, 0xf7, 0xff, 0xff, 0x7a, 0xfd, 0xff, 0xff,
  0x70, 0xfc, 0xff, 0xff, 0x02, 0xff, 0xff, 0xff, 0x04, 0x00, 0x00, 0x00,
  0x40, 0x00, 0x00, 0x00, 0xae, 0xd1, 0xd8, 0x00, 0xbb, 0xf4, 0x18, 0xc6,
  0xeb, 0xf8, 0x81, 0xe1, 0xef, 0xaf, 0xe9, 0xaa, 0x06, 0xf1, 0x3a, 0xce,
  0xc0, 0xaf, 0x06, 0x12, 0x2e, 0x5e, 0xc1, 0x1d, 0x2a, 0x54, 0xde, 0x1d,
  0xa1, 0xc8, 0x06, 0xf6, 0xe4, 0xba, 0xf6, 0x99, 0xd8, 0x26, 0xd1, 0xdd,
  0x0e, 0xb6, 0x07, 0x97, 0x2a, 0xc6, 0x7f, 0xc4, 0xeb, 0xa3, 0xf2, 0xee,
  0x3a, 0x6c, 0xb5, 0xe1, 0x37, 0x54, 0xfe, 0x18, 0x4e, 0xff, 0xff, 0xff,
  0x04, 0x00, 0x00, 0x00, 0x08, 0x00, 0x00, 0x00, 0xed, 0x00, 0x00, 0x00,
  0x29, 0xff, 0xff, 0xff, 0x30, 0xff, 0xff, 0xff, 0x34, 0xff, 0xff, 0xff,
  0x0f, 0x00, 0x00, 0x00, 0x4d, 0x4c, 0x49, 0x52, 0x20, 0x43, 0x6f, 0x6e,
  0x76, 0x65, 0x72, 0x74, 0x65, 0x64, 0x2e, 0x00, 0x01, 0x00, 0x00, 0x00,
  0x14, 0x00, 0x00, 0x00, 0x00, 0x00, 0x0e, 0x00, 0x18, 0x00, 0x14, 0x00,
  0x10, 0x00, 0x0c, 0x00, 0x08, 0x00, 0x04, 0x00, 0x0e, 0x00, 0x00, 0x00,
  0x14, 0x00, 0x00, 0x00, 0x1c, 0x00, 0x00, 0x00, 0x98, 0x01, 0x00, 0x00,
  0x9c, 0x01, 0x00, 0x00, 0xa0, 0x01, 0x00, 0x00, 0x04, 0x00, 0x00, 0x00,
  0x6d, 0x61, 0x69, 0x6e, 0x00, 0x00, 0x00, 0x00, 0x06, 0x00, 0x00, 0x00,
  0x40, 0x01, 0x00, 0x00, 0xf8, 0x00, 0x00, 0x00, 0xc0, 0x00, 0x00, 0x00,
  0x88, 0x00, 0x00, 0x00, 0x50, 0x00, 0x00, 0x00, 0x14, 0x00, 0x00, 0x00,
  0x00, 0x00, 0x0e, 0x00, 0x1a, 0x00, 0x14, 0x00, 0x10, 0x00, 0x0c, 0x00,
  0x0b, 0x00, 0x04, 0x00, 0x0e, 0x00, 0x00, 0x00, 0x1c, 0x00, 0x00, 0x00,
  0x00, 0x00, 0x00, 0x09, 0x1c, 0x00, 0x00, 0x00, 0x20, 0x00, 0x00, 0x00,
  0x01, 0x00, 0x00, 0x00, 0x00, 0x00, 0x06, 0x00, 0x08, 0x00, 0x04, 0x00,
  0x06, 0x00, 0x00, 0x00, 0x00, 0x00, 0x80, 0x3f, 0x01, 0x00, 0x00, 0x00,
  0x10, 0x00, 0x00, 0x00, 0x01, 0x00, 0x00, 0x00, 0x0f, 0x00, 0x00, 0x00,
  0x2e, 0xff, 0xff, 0xff, 0x14, 0x00, 0x00, 0x00, 0x00, 0x00, 0x00, 0x08,
  0x10, 0x00, 0x00, 0x00, 0x14, 0x00, 0x00, 0x00, 0x04, 0x00, 0x04, 0x00,
  0x04, 0x00, 0x00, 0x00, 0x01, 0x00, 0x00, 0x00, 0x0f, 0x00, 0x00, 0x00,
  0x03, 0x00, 0x00, 0x00, 0x0e, 0x00, 0x00, 0x00, 0x02, 0x00, 0x00, 0x00,
  0x01, 0x00, 0x00, 0x00, 0x62, 0xff, 0xff, 0xff, 0x10, 0x00, 0x00, 0x00,
  0x00, 0x00, 0x00, 0x08, 0x10, 0x00, 0x00, 0x00, 0x14, 0x00, 0x00, 0x00,
  0x52, 0xff, 0xff, 0xff, 0x00, 0x00, 0x00, 0x01, 0x01, 0x00, 0x00, 0x00,
  0x0e, 0x00, 0x00, 0x00, 0x03, 0x00, 0x00, 0x00, 0x0d, 0x00, 0x00, 0x00,
  0x04, 0x00, 0x00, 0x00, 0x03, 0x00, 0x00, 0x00, 0x96, 0xff, 0xff, 0xff,
  0x10, 0x00, 0x00, 0x00, 0x00, 0x00, 0x00, 0x08, 0x10, 0x00, 0x00, 0x00,
  0x14, 0x00, 0x00, 0x00, 0x86, 0xff, 0xff, 0xff, 0x00, 0x00, 0x00, 0x01,
  0x01, 0x00, 0x00, 0x00, 0x0d, 0x00, 0x00, 0x00, 0x03, 0x00, 0x00, 0x00,
  0x0c, 0x00, 0x00, 0x00, 0x06, 0x00, 0x00, 0x00, 0x05, 0x00, 0x00, 0x00,
  0xca, 0xff, 0xff, 0xff, 0x10, 0x00, 0x00, 0x00, 0x00, 0x00, 0x00, 0x08,
  0x10, 0x00, 0x00, 0x00, 0x14, 0x00, 0x00, 0x00, 0xba, 0xff, 0xff, 0xff,
  0x00, 0x00, 0x00, 0x01, 0x01, 0x00, 0x00, 0x00, 0x0c, 0x00, 0x00, 0x00,
  0x03, 0x00, 0x00, 0x00, 0x0b, 0x00, 0x00, 0x00, 0x08, 0x00, 0x00, 0x00,
  0x07, 0x00, 0x00, 0x00, 0x00, 0x00, 0x0e, 0x00, 0x16, 0x00, 0x00, 0x00,
  0x10, 0x00, 0x0c, 0x00, 0x0b, 0x00, 0x04, 0x00, 0x0e, 0x00, 0x00, 0x00,
  0x18, 0x00, 0x00, 0x00, 0x00, 0x00, 0x00, 0x08, 0x18, 0x00, 0x00, 0x00,
  0x1c, 0x00, 0x00, 0x00, 0x00, 0x00, 0x06, 0x00, 0x08, 0x00, 0x07, 0x00,
  0x06, 0x00, 0x00, 0x00, 0x00, 0x00, 0x00, 0x01, 0x01, 0x00, 0x00, 0x00,
  0x0b, 0x00, 0x00, 0x00, 0x03, 0x00, 0x00, 0x00, 0x00, 0x00, 0x00, 0x00,
  0x0a, 0x00, 0x00, 0x00, 0x09, 0x00, 0x00, 0x00, 0x01, 0x00, 0x00, 0x00,
  0x10, 0x00, 0x00, 0x00, 0x01, 0x00, 0x00, 0x00, 0x00, 0x00, 0x00, 0x00,
  0x11, 0x00, 0x00, 0x00, 0x48, 0x1a, 0x00, 0x00, 0xc0, 0x19, 0x00, 0x00,
  0x34, 0x19, 0x00, 0x00, 0x60, 0x17, 0x00, 0x00, 0x84, 0x15, 0x00, 0x00,
  0xb0, 0x13, 0x00, 0x00, 0xd4, 0x11, 0x00, 0x00, 0x80, 0x0e, 0x00, 0x00,
  0x24, 0x0b, 0x00, 0x00, 0xd0, 0x07, 0x00, 0x00, 0x74, 0x04, 0x00, 0x00,
  0xc0, 0x03, 0x00, 0x00, 0x9c, 0x02, 0x00, 0x00, 0xe0, 0x01, 0x00, 0x00,
  0x24, 0x01, 0x00, 0x00, 0x80, 0x00, 0x00, 0x00, 0x04, 0x00, 0x00, 0x00,
  0x12, 0xe6, 0xff, 0xff, 0x00, 0x00, 0x00, 0x01, 0x18, 0x00, 0x00, 0x00,
  0x20, 0x00, 0x00, 0x00, 0x3c, 0x00, 0x00, 0x00, 0x11, 0x00, 0x00, 0x00,
  0x00, 0x00, 0x00, 0x09, 0x50, 0x00, 0x00, 0x00, 0x02, 0x00, 0x00, 0x00,
  0xff, 0xff, 0xff, 0xff, 0x02, 0x00, 0x00, 0x00, 0xfc, 0xe5, 0xff, 0xff,
  0x08, 0x00, 0x00, 0x00, 0x10, 0x00, 0x00, 0x00, 0x01, 0x00, 0x00, 0x00,
  0x80, 0xff, 0xff, 0xff, 0xff, 0xff, 0xff, 0xff, 0x01, 0x00, 0x00, 0x00,
  0x00, 0x00, 0x80, 0x3b, 0x1b, 0x00, 0x00, 0x00, 0x53, 0x74, 0x61, 0x74,
  0x65, 0x66, 0x75, 0x6c, 0x50, 0x61, 0x72, 0x74, 0x69, 0x74, 0x69, 0x6f,
  0x6e, 0x65, 0x64, 0x43, 0x61, 0x6c, 0x6c, 0x5f, 0x31, 0x3a, 0x30, 0x00,
  0x02, 0x00, 0x00, 0x00, 0x01, 0x00, 0x00, 0x00, 0x02, 0x00, 0x00, 0x00,
  0x8a, 0xe6, 0xff, 0xff, 0x00, 0x00, 0x00, 0x01, 0x18, 0x00, 0x00, 0x00,
  0x20, 0x00, 0x00, 0x00, 0x40, 0x00, 0x00, 0x00, 0x10, 0x00, 0x00, 0x00,
  0x00, 0x00, 0x00, 0x09, 0x78, 0x00, 0x00, 0x00, 0x02, 0x00, 0x00, 0x00,
  0xff, 0xff, 0xff, 0xff, 0x02, 0x00, 0x00, 0x00, 0x74, 0xe6, 0xff, 0xff,
  0x08, 0x00, 0x00, 0x00, 0x14, 0x00, 0x00, 0x00, 0x01, 0x00, 0x00, 0x00,
  0x75, 0x00, 0x00, 0x00, 0x00, 0x00, 0x00, 0x00, 0x00, 0x00, 0x00, 0x00,
  0x01, 0x00, 0x00, 0x00, 0x0f, 0x11, 0x88, 0x3d, 0x3c, 0x00, 0x00, 0x00,
  0x73, 0x65, 0x71, 0x75, 0x65, 0x6e, 0x74, 0x69, 0x61, 0x6c, 0x5f, 0x31,
  0x2f, 0x64, 0x65, 0x6e, 0x73, 0x65, 0x5f, 0x34, 0x5f, 0x31, 0x2f, 0x4d,
  0x61, 0x74, 0x4d, 0x75, 0x6c, 0x3b, 0x73, 0x65, 0x71, 0x75, 0x65, 0x6e,
  0x74, 0x69, 0x61, 0x6c, 0x5f, 0x31, 0x2f, 0x64, 0x65, 0x6e, 0x73, 0x65,
  0x5f, 0x34, 0x5f, 0x31, 0x2f, 0x42, 0x69, 0x61, 0x73, 0x41, 0x64, 0x64,
  0x00, 0x00, 0x00, 0x00, 0x02, 0x00, 0x00, 0x00, 0x01, 0x00, 0x00, 0x00,
  0x02, 0x00, 0x00, 0x00, 0x2a, 0xe7, 0xff, 0xff, 0x00, 0x00, 0x00, 0x01,
  0x18, 0x00, 0x00, 0x00, 0x20, 0x00, 0x00, 0x00, 0x3c, 0x00, 0x00, 0x00,
  0x0f, 0x00, 0x00, 0x00, 0x00, 0x00, 0x00, 0x09, 0x90, 0x00, 0x00, 0x00,
  0x02, 0x00, 0x00, 0x00, 0xff, 0xff, 0xff, 0xff, 0x20, 0x00, 0x00, 0x00,
  0x14, 0xe7, 0xff, 0xff, 0x08, 0x00, 0x00, 0x00, 0x10, 0x00, 0x00, 0x00,
  0x01, 0x00, 0x00, 0x00, 0x80, 0xff, 0xff, 0xff, 0xff, 0xff, 0xff, 0xff,
  0x01, 0x00, 0x00, 0x00, 0x92, 0x41, 0x8c, 0x3d, 0x58, 0x00, 0x00, 0x00,
  0x73, 0x65, 0x71, 0x75, 0x65, 0x6e, 0x74, 0x69, 0x61, 0x6c, 0x5f, 0x31,
  0x2f, 0x64, 0x65, 0x6e, 0x73, 0x65, 0x5f, 0x33, 0x5f, 0x31, 0x2f, 0x4d,
  0x61, 0x74, 0x4d, 0x75, 0x6c, 0x3b, 0x73, 0x65, 0x71, 0x75, 0x65, 0x6e,
  0x74, 0x69, 0x61, 0x6c, 0x5f, 0x31, 0x2f, 0x64, 0x65, 0x6e, 0x73, 0x65,
  0x5f, 0x33, 0x5f, 0x31, 0x2f, 0x52, 0x65, 0x6c, 0x75, 0x3b, 0x73, 0x65,
  0x71, 0x75, 0x65, 0x6e, 0x74, 0x69, 0x61, 0x6c, 0x5f, 0x31, 0x2f, 0x64,
  0x65, 0x6e, 0x73, 0x65, 0x5f, 0x33, 0x5f, 0x31, 0x2f, 0x42, 0x69, 0x61,
  0x73, 0x41, 0x64, 0x64, 0x00, 0x00, 0x00, 0x00, 0x02, 0x00, 0x00, 0x00,
  0x01, 0x00, 0x00, 0x00, 0x20, 0x00, 0x00, 0x00, 0xe2, 0xe7, 0xff, 0xff,
  0x00, 0x00, 0x00, 0x01, 0x18, 0x00, 0x00, 0x00, 0x20, 0x00, 0x00, 0x00,
  0x3c, 0x00, 0x00, 0x00, 0x0e, 0x00, 0x00, 0x00, 0x00, 0x00, 0x00, 0x09,
  0x90, 0x00, 0x00, 0x00, 0x02, 0x00, 0x00, 0x00, 0xff, 0xff, 0xff, 0xff,
  0x20, 0x00, 0x00, 0x00, 0xcc, 0xe7, 0xff, 0xff, 0x08, 0x00, 0x00, 0x00,
  0x10, 0x00, 0x00, 0x00, 0x01, 0x00, 0x00, 0x00, 0x80, 0xff, 0xff, 0xff,
  0xff, 0xff, 0xff, 0xff, 0x01, 0x00, 0x00, 0x00, 0x68, 0x31, 0xea, 0x3d,
  0x58, 0x00, 0x00, 0x00, 0x73, 0x65, 0x71, 0x75, 0x65, 0x6e, 0x74, 0x69,
  0x61, 0x6c, 0x5f, 0x31, 0x2f, 0x64, 0x65, 0x6e, 0x73, 0x65, 0x5f, 0x32,
  0x5f, 0x31, 0x2f, 0x4d, 0x61, 0x74, 0x4d, 0x75, 0x6c, 0x3b, 0x73, 0x65,
  0x71, 0x75, 0x65, 0x6e, 0x74, 0x69, 0x61, 0x6c, 0x5f, 0x31, 0x2f, 0x64,
  0x65, 0x6e, 0x73, 0x65, 0x5f, 0x32, 0x5f, 0x31, 0x2f, 0x52, 0x65, 0x6c,
  0x75, 0x3b, 0x73, 0x65, 0x71, 0x75, 0x65, 0x6e, 0x74, 0x69, 0x61, 0x6c,
  0x5f, 0x31, 0x2f, 0x64, 0x65, 0x6e, 0x73, 0x65, 0x5f, 0x32, 0x5f, 0x31,
  0x2f, 0x42, 0x69, 0x61, 0x73, 0x41, 0x64, 0x64, 0x00, 0x00, 0x00, 0x00,
  0x02, 0x00, 0x00, 0x00, 0x01, 0x00, 0x00, 0x00, 0x20, 0x00, 0x00, 0x00,
  0x9a, 0xe8, 0xff, 0xff, 0x00, 0x00, 0x00, 0x01, 0x18, 0x00, 0x00, 0x00,
  0x20, 0x00, 0x00, 0x00, 0x40, 0x00, 0x00, 0x00, 0x0d, 0x00, 0x00, 0x00,
  0x00, 0x00, 0x00, 0x09, 0xf8, 0x00, 0x00, 0x00, 0x02, 0x00, 0x00, 0x00,
  0xff, 0xff, 0xff, 0xff, 0x40, 0x00, 0x00, 0x00, 0x84, 0xe8, 0xff, 0xff,
  0x08, 0x00, 0x00, 0x00, 0x14, 0x00, 0x00, 0x00, 0x01, 0x00, 0x00, 0x00,
  0x80, 0xff, 0xff, 0xff, 0xff, 0xff, 0xff, 0xff, 0x00, 0x00, 0x00, 0x00,
  0x01, 0x00, 0x00, 0x00, 0x06, 0xe4, 0x8f, 0x3d, 0xbe, 0x00, 0x00, 0x00,
  0x73, 0x65, 0x71, 0x75, 0x65, 0x6e, 0x74, 0x69, 0x61, 0x6c, 0x5f, 0x31,
  0x2f, 0x62, 0x61, 0x74, 0x63, 0x68, 0x5f, 0x6e, 0x6f, 0x72, 0x6d, 0x61,
  0x6c, 0x69, 0x7a, 0x61, 0x74, 0x69, 0x6f, 0x6e, 0x5f, 0x31, 0x2f, 0x62,
  0x61, 0x74, 0x63, 0x68, 0x6e, 0x6f, 0x72, 0x6d, 0x2f, 0x6d, 0x75, 0x6c,
  0x5f, 0x31, 0x3b, 0x73, 0x65, 0x71, 0x75, 0x65, 0x6e, 0x74, 0x69, 0x61,
  0x6c, 0x5f, 0x31, 0x2f, 0x62, 0x61, 0x74, 0x63, 0x68, 0x5f, 0x6e, 0x6f,
  0x72, 0x6d, 0x61, 0x6c, 0x69, 0x7a, 0x61, 0x74, 0x69, 0x6f, 0x6e, 0x5f,
  0x31, 0x2f, 0x62, 0x61, 0x74, 0x63, 0x68, 0x6e, 0x6f, 0x72, 0x6d, 0x2f,
  0x61, 0x64, 0x64, 0x5f, 0x31, 0x3b, 0x73, 0x65, 0x71, 0x75, 0x65, 0x6e,
  0x74, 0x69, 0x61, 0x6c, 0x5f, 0x31, 0x2f, 0x64, 0x65, 0x6e, 0x73, 0x65,
  0x5f, 0x31, 0x5f, 0x32, 0x2f, 0x4d, 0x61, 0x74, 0x4d, 0x75, 0x6c, 0x3b,
  0x73, 0x65, 0x71, 0x75, 0x65, 0x6e, 0x74, 0x69, 0x61, 0x6c, 0x5f, 0x31,
  0x2f, 0x64, 0x65, 0x6e, 0x73, 0x65, 0x5f, 0x31, 0x5f, 0x32, 0x2f, 0x52,
  0x65, 0x6c, 0x75, 0x3b, 0x73, 0x65, 0x71, 0x75, 0x65, 0x6e, 0x74, 0x69,
  0x61, 0x6c, 0x5f, 0x31, 0x2f, 0x64, 0x65, 0x6e, 0x73, 0x65, 0x5f, 0x31,
  0x5f, 0x32, 0x2f, 0x42, 0x69, 0x61, 0x73, 0x41, 0x64, 0x64, 0x00, 0x00,
  0x02, 0x00, 0x00, 0x00, 0x01, 0x00, 0x00, 0x00, 0x40, 0x00, 0x00, 0x00,
  0xba, 0xe9, 0xff, 0xff, 0x00, 0x00, 0x00, 0x01, 0x18, 0x00, 0x00, 0x00,
  0x20, 0x00, 0x00, 0x00, 0x3c, 0x00, 0x00, 0x00, 0x0c, 0x00, 0x00, 0x00,
  0x00, 0x00, 0x00, 0x09, 0x88, 0x00, 0x00, 0x00, 0x02, 0x00, 0x00, 0x00,
  0xff, 0xff, 0xff, 0xff, 0x40, 0x00, 0x00, 0x00, 0xa4, 0xe9, 0xff, 0xff,
  0x08, 0x00, 0x00, 0x00, 0x10, 0x00, 0x00, 0x00, 0x01, 0x00, 0x00, 0x00,
  0x80, 0xff, 0xff, 0xff, 0xff, 0xff, 0xff, 0xff, 0x01, 0x00, 0x00, 0x00,
  0xd5, 0xe9, 0x01, 0x3e, 0x52, 0x00, 0x00, 0x00, 0x73, 0x65, 0x71, 0x75,
  0x65, 0x6e, 0x74, 0x69, 0x61, 0x6c, 0x5f, 0x31, 0x2f, 0x64, 0x65, 0x6e,
  0x73, 0x65, 0x5f, 0x31, 0x2f, 0x4d, 0x61, 0x74, 0x4d, 0x75, 0x6c, 0x3b,
  0x73, 0x65, 0x71, 0x75, 0x65, 0x6e, 0x74, 0x69, 0x61, 0x6c, 0x5f, 0x31,
  0x2f, 0x64, 0x65, 0x6e, 0x73, 0x65, 0x5f, 0x31, 0x2f, 0x52, 0x65, 0x6c,
  0x75, 0x3b, 0x73, 0x65, 0x71, 0x75, 0x65, 0x6e, 0x74, 0x69, 0x61, 0x6c,
  0x5f, 0x31, 0x2f, 0x64, 0x65, 0x6e, 0x73, 0x65, 0x5f, 0x31, 0x2f, 0x42,
  0x69, 0x61, 0x73, 0x41, 0x64, 0x64, 0x00, 0x00, 0x02, 0x00, 0x00, 0x00,
  0x01, 0x00, 0x00, 0x00, 0x40, 0x00, 0x00, 0x00, 0xee, 0xea, 0xff, 0xff,
  0x00, 0x00, 0x00, 0x01, 0x14, 0x00, 0x00, 0x00, 0x28, 0x03, 0x00, 0x00,
  0x0b, 0x00, 0x00, 0x00, 0x00, 0x00, 0x00, 0x09, 0x34, 0x03, 0x00, 0x00,
  0x44, 0xea, 0xff, 0xff, 0x08, 0x00, 0x00, 0x00, 0x0c, 0x02, 0x00, 0x00,
  0x40, 0x00, 0x00, 0x00, 0x00, 0x00, 0x00, 0x00, 0x00, 0x00, 0x00, 0x00,
  0x00, 0x00, 0x00, 0x00, 0x00, 0x00, 0x00, 0x00, 0x00, 0x00, 0x00, 0x00,
  0x00, 0x00, 0x00, 0x00, 0x00, 0x00, 0x00, 0x00, 0x00, 0x00, 0x00, 0x00,
  0x00, 0x00, 0x00, 0x00, 0x00, 0x00, 0x00, 0x00, 0x00, 0x00, 0x00, 0x00,
  0x00, 0x00, 0x00, 0x00, 0x00, 0x00, 0x00, 0x00, 0x00, 0x00, 0x00, 0x00,
  0x00, 0x00, 0x00, 0x00, 0x00, 0x00, 0x00, 0x00, 0x00, 0x00, 0x00, 0x00,
  0x00, 0x00, 0x00, 0x00, 0x00, 0x00, 0x00, 0x00, 0x00, 0x00, 0x00, 0x00,
  0x00, 0x00, 0x00, 0x00, 0x00, 0x00, 0x00, 0x00, 0x00, 0x00, 0x00, 0x00,
  0x00, 0x00, 0x00, 0x00, 0x00, 0x00, 0x00, 0x00, 0x00, 0x00, 0x00, 0x00,
  0x00, 0x00, 0x00, 0x00, 0x00, 0x00, 0x00, 0x00, 0x00, 0x00, 0x00, 0x00,
  0x00, 0x00, 0x00, 0x00, 0x00, 0x00, 0x00, 0x00, 0x00, 0x00, 0x00, 0x00,
  0x00, 0x00, 0x00, 0x00, 0x00, 0x00, 0x00, 0x00, 0x00, 0x00, 0x00, 0x00,
  0x00, 0x00, 0x00, 0x00, 0x00, 0x00, 0x00, 0x00, 0x00, 0x00, 0x00, 0x00,
  0x00, 0x00, 0x00, 0x00, 0x00, 0x00, 0x00, 0x00, 0x00, 0x00, 0x00, 0x00,
  0x00, 0x00, 0x00, 0x00, 0x00, 0x00, 0x00, 0x00, 0x00, 0x00, 0x00, 0x00,
  0x00, 0x00, 0x00, 0x00, 0x00, 0x00, 0x00, 0x00, 0x00, 0x00, 0x00, 0x00,
  0x00, 0x00, 0x00, 0x00, 0x00, 0x00, 0x00, 0x00, 0x00, 0x00, 0x00, 0x00,
  0x00, 0x00, 0x00, 0x00, 0x00, 0x00, 0x00, 0x00, 0x00, 0x00, 0x00, 0x00,
  0x00, 0x00, 0x00, 0x00, 0x00, 0x00, 0x00, 0x00, 0x00, 0x00, 0x00, 0x00,
  0x00, 0x00, 0x00, 0x00, 0x00, 0x00, 0x00, 0x00, 0x00, 0x00, 0x00, 0x00,
  0x00, 0x00, 0x00, 0x00, 0x00, 0x00, 0x00, 0x00, 0x00, 0x00, 0x00, 0x00,
  0x00, 0x00, 0x00, 0x00, 0x00, 0x00, 0x00, 0x00, 0x00, 0x00, 0x00, 0x00,
  0x00, 0x00, 0x00, 0x00, 0x00, 0x00, 0x00, 0x00, 0x00, 0x00, 0x00, 0x00,
  0x00, 0x00, 0x00, 0x00, 0x00, 0x00, 0x00, 0x00, 0x00, 0x00, 0x00, 0x00,
  0x00, 0x00, 0x00, 0x00, 0x00, 0x00, 0x00, 0x00, 0x00, 0x00, 0x00, 0x00,
  0x00, 0x00, 0x00, 0x00, 0x00, 0x00, 0x00, 0x00, 0x00, 0x00, 0x00, 0x00,
  0x00, 0x00, 0x00, 0x00, 0x00, 0x00, 0x00, 0x00, 0x00, 0x00, 0x00, 0x00,
  0x00, 0x00, 0x00, 0x00, 0x00, 0x00, 0x00, 0x00, 0x00, 0x00, 0x00, 0x00,
  0x00, 0x00, 0x00, 0x00, 0x00, 0x00, 0x00, 0x00, 0x00, 0x00, 0x00, 0x00,
  0x00, 0x00, 0x00, 0x00, 0x00, 0x00, 0x00, 0x00, 0x00, 0x00, 0x00, 0x00,
  0x00, 0x00, 0x00, 0x00, 0x00, 0x00, 0x00, 0x00, 0x00, 0x00, 0x00, 0x00,
  0x00, 0x00, 0x00, 0x00, 0x00, 0x00, 0x00, 0x00, 0x00, 0x00, 0x00, 0x00,
  0x00, 0x00, 0x00, 0x00, 0x00, 0x00, 0x00, 0x00, 0x00, 0x00, 0x00, 0x00,
  0x00, 0x00, 0x00, 0x00, 0x00, 0x00, 0x00, 0x00, 0x00, 0x00, 0x00, 0x00,
  0x00, 0x00, 0x00, 0x00, 0x00, 0x00, 0x00, 0x00, 0x00, 0x00, 0x00, 0x00,
  0x00, 0x00, 0x00, 0x00, 0x00, 0x00, 0x00, 0x00, 0x00, 0x00, 0x00, 0x00,
  0x00, 0x00, 0x00, 0x00, 0x00, 0x00, 0x00, 0x00, 0x00, 0x00, 0x00, 0x00,
  0x00, 0x00, 0x00, 0x00, 0x00, 0x00, 0x00, 0x00, 0x00, 0x00, 0x00, 0x00,
  0x00, 0x00, 0x00, 0x00, 0x00, 0x00, 0x00, 0x00, 0x00, 0x00, 0x00, 0x00,
  0x00, 0x00, 0x00, 0x00, 0x00, 0x00, 0x00, 0x00, 0x00, 0x00, 0x00, 0x00,
  0x00, 0x00, 0x00, 0x00, 0x00, 0x00, 0x00, 0x00, 0x00, 0x00, 0x00, 0x00,
  0x00, 0x00, 0x00, 0x00, 0x00, 0x00, 0x00, 0x00, 0x00, 0x00, 0x00, 0x00,
  0x00, 0x00, 0x00, 0x00, 0x00, 0x00, 0x00, 0x00, 0x00, 0x00, 0x00, 0x00,
  0x00, 0x00, 0x00, 0x00, 0x40, 0x00, 0x00, 0x00, 0x2d, 0x69, 0xec, 0x3c,
  0xea, 0x48, 0x0a, 0x3c, 0x9a, 0xb3, 0xa7, 0x3b, 0x72, 0xae, 0x9a, 0x3c,
  0x47, 0x03, 0x04, 0x3c, 0xf6, 0xbc, 0x64, 0x3c, 0xf4, 0xdf, 0x19, 0x3d,
  0xfa, 0x66, 0x86, 0x3c, 0x4a, 0x74, 0x33, 0x3c, 0x41, 0x6e, 0x72, 0x3c,
  0x85, 0xba, 0x0f, 0x3c, 0x8d, 0x8e, 0xd5, 0x3b, 0xbd, 0x6a, 0x17, 0x3d,
  0x4b, 0x13, 0x2b, 0x3c, 0x00, 0x1d, 0xa2, 0x3c, 0x2c, 0xd2, 0x08, 0x3c,
  0x91, 0x91, 0xbc, 0x3c, 0xba, 0x12, 0x0b, 0x3d, 0x4c, 0x91, 0xbb, 0x3b,
  0xdb, 0xdc, 0x08, 0x3c, 0x6d, 0x9e, 0x82, 0x3c, 0x57, 0x90, 0x94, 0x3c,
  0xc4, 0x93, 0x95, 0x3c, 0x01, 0x2c, 0x08, 0x3c, 0x36, 0xb5, 0x86, 0x3b,
  0x14, 0xe5, 0x8f, 0x3c, 0xad, 0x9a, 0x3c, 0x3c, 0xcc, 0x10, 0xa7, 0x3c,
  0x78, 0x9f, 0x83, 0x3c, 0x77, 0x6f, 0x8b, 0x3c, 0x62, 0xc6, 0x21, 0x3c,
  0x7b, 0x3e, 0x85, 0x3a, 0x78, 0x17, 0x59, 0x3c, 0x49, 0x5f, 0xaf, 0x3c,
  0xdb, 0xb6, 0xf4, 0x3b, 0xea, 0x0c, 0x48, 0x3c, 0x28, 0xbc, 0xa0, 0x3c,
  0x92, 0x89, 0xc3, 0x3c, 0x88, 0x7d, 0xd5, 0x3c, 0xe4, 0x09, 0x7b, 0x3c,
  0x8e, 0xbf, 0x0d, 0x3c, 0x75, 0xbc, 0x9c, 0x3b, 0x37, 0x88, 0x9d, 0x3c,
  0x12, 0xb0, 0xe9, 0x3c, 0x43, 0x41, 0x6a, 0x3c, 0x86, 0x96, 0xb6, 0x3b,
  0xf8, 0x19, 0xa2, 0x3c, 0x67, 0x27, 0x0b, 0x3c, 0xb2, 0x00, 0x1c, 0x3c,
  0xb5, 0xec, 0x13, 0x3d, 0xe7, 0xa5, 0xb4, 0x3c, 0x61, 0xa5, 0x35, 0x3c,
  0x2a, 0xb3, 0x1d, 0x3c, 0x67, 0xaf, 0x05, 0x3c, 0x68, 0x83, 0x18, 0x3d,
  0xd0, 0xf6, 0x09, 0x3b, 0xea, 0xea, 0x92, 0x3c, 0x1e, 0xf5, 0x17, 0x3c,
  0x5d, 0x25, 0x3e, 0x3c, 0xaa, 0xab, 0xe2, 0x3c, 0x9c, 0xa7, 0x01, 0x3c,
  0x01, 0x76, 0x95, 0x3b, 0x8f, 0x45, 0x3f, 0x3c, 0x27, 0x06, 0x8a, 0x3c,
  0x12, 0x00, 0x00, 0x00, 0x74, 0x66, 0x6c, 0x2e, 0x70, 0x73, 0x65, 0x75,
  0x64, 0x6f, 0x5f, 0x71, 0x63, 0x6f, 0x6e, 0x73, 0x74, 0x39, 0x00, 0x00,
  0x02, 0x00, 0x00, 0x00, 0x40, 0x00, 0x00, 0x00, 0x04, 0x00, 0x00, 0x00,
  0x46, 0xee, 0xff, 0xff, 0x00, 0x00, 0x00, 0x01, 0x14, 0x00, 0x00, 0x00,
  0x24, 0x03, 0x00, 0x00, 0x0a, 0x00, 0x00, 0x00, 0x00, 0x00, 0x00, 0x02,
  0x30, 0x03, 0x00, 0x00, 0x9c, 0xed, 0xff, 0xff, 0x08, 0x00, 0x00, 0x00,
  0x08, 0x02, 0x00, 0x00, 0x40, 0x00, 0x00, 0x00, 0x00, 0x00, 0x00, 0x00,
  0x00, 0x00, 0x00, 0x00, 0x00, 0x00, 0x00, 0x00, 0x00, 0x00, 0x00, 0x00,
  0x00, 0x00, 0x00, 0x00, 0x00, 0x00, 0x00, 0x00, 0x00, 0x00, 0x00, 0x00,
  0x00, 0x00, 0x00, 0x00, 0x00, 0x00, 0x00, 0x00, 0x00, 0x00, 0x00, 0x00,
  0x00, 0x00, 0x00, 0x00, 0x00, 0x00, 0x00, 0x00, 0x00, 0x00, 0x00, 0x00,
  0x00, 0x00, 0x00, 0x00, 0x00, 0x00, 0x00, 0x00, 0x00, 0x00, 0x00, 0x00,
  0x00, 0x00, 0x00, 0x00, 0x00, 0x00, 0x00, 0x00, 0x00, 0x00, 0x00, 0x00,
  0x00, 0x00, 0x00, 0x00, 0x00, 0x00, 0x00, 0x00, 0x00, 0x00, 0x00, 0x00,
  0x00, 0x00, 0x00, 0x00, 0x00, 0x00, 0x00, 0x00, 0x00, 0x00, 0x00, 0x00,
  0x00, 0x00, 0x00, 0x00, 0x00, 0x00, 0x00, 0x00, 0x00, 0x00, 0x00, 0x00,
  0x00, 0x00, 0x00, 0x00, 0x00, 0x00, 0x00, 0x00, 0x00, 0x00, 0x00, 0x00,
  0x00, 0x00, 0x00, 0x00, 0x00, 0x00, 0x00, 0x00, 0x00, 0x00, 0x00, 0x00,
  0x00, 0x00, 0x00, 0x00, 0x00, 0x00, 0x00, 0x00, 0x00, 0x00, 0x00, 0x00,
  0x00, 0x00, 0x00, 0x00, 0x00, 0x00, 0x00, 0x00, 0x00, 0x00, 0x00, 0x00,
  0x00, 0x00, 0x00, 0x00, 0x00, 0x00, 0x00, 0x00, 0x00, 0x00, 0x00, 0x00,
  0x00, 0x00, 0x00, 0x00, 0x00, 0x00, 0x00, 0x00, 0x00, 0x00, 0x00, 0x00,
  0x00, 0x00, 0x00, 0x00, 0x00, 0x00, 0x00, 0x00, 0x00, 0x00, 0x00, 0x00,
  0x00, 0x00, 0x00, 0x00, 0x00, 0x00, 0x00, 0x00, 0x00, 0x00, 0x00, 0x00,
  0x00, 0x00, 0x00, 0x00, 0x00, 0x00, 0x00, 0x00, 0x00, 0x00, 0x00, 0x00,
  0x00, 0x00, 0x00, 0x00, 0x00, 0x00, 0x00, 0x00, 0x00, 0x00, 0x00, 0x00,
  0x00, 0x00, 0x00, 0x00, 0x00, 0x00, 0x00, 0x00, 0x00, 0x00, 0x00, 0x00,
  0x00, 0x00, 0x00, 0x00, 0x00, 0x00, 0x00, 0x00, 0x00, 0x00, 0x00, 0x00,
  0x00, 0x00, 0x00, 0x00, 0x00, 0x00, 0x00, 0x00, 0x00, 0x00, 0x00, 0x00,
  0x00, 0x00, 0x00, 0x00, 0x00, 0x00, 0x00, 0x00, 0x00, 0x00, 0x00, 0x00,
  0x00, 0x00, 0x00, 0x00, 0x00, 0x00, 0x00, 0x00, 0x00, 0x00, 0x00, 0x00,
  0x00, 0x00, 0x00, 0x00, 0x00, 0x00, 0x00, 0x00, 0x00, 0x00, 0x00, 0x00,
  0x00, 0x00, 0x00, 0x00, 0x00, 0x00, 0x00, 0x00, 0x00, 0x00, 0x00, 0x00,
  0x00, 0x00, 0x00, 0x00, 0x00, 0x00, 0x00, 0x00, 0x00, 0x00, 0x00, 0x00,
  0x00, 0x00, 0x00, 0x00, 0x00, 0x00, 0x00, 0x00, 0x00, 0x00, 0x00, 0x00,
  0x00, 0x00, 0x00, 0x00, 0x00, 0x00, 0x00, 0x00, 0x00, 0x00, 0x00, 0x00,
  0x00, 0x00, 0x00, 0x00, 0x00, 0x00, 0x00, 0x00, 0x00, 0x00, 0x00, 0x00,
  0x00, 0x00, 0x00, 0x00, 0x00, 0x00, 0x00, 0x00, 0x00, 0x00, 0x00, 0x00,
  0x00, 0x00, 0x00, 0x00, 0x00, 0x00, 0x00, 0x00, 0x00, 0x00, 0x00, 0x00,
  0x00, 0x00, 0x00, 0x00, 0x00, 0x00, 0x00, 0x00, 0x00, 0x00, 0x00, 0x00,
  0x00, 0x00, 0x00, 0x00, 0x00, 0x00, 0x00, 0x00, 0x00, 0x00, 0x00, 0x00,
  0x00, 0x00, 0x00, 0x00, 0x00, 0x00, 0x00, 0x00, 0x00, 0x00, 0x00, 0x00,
  0x00, 0x00, 0x00, 0x00, 0x00, 0x00, 0x00, 0x00, 0x00, 0x00, 0x00, 0x00,
  0x00, 0x00, 0x00, 0x00, 0x00, 0x00, 0x00, 0x00, 0x00, 0x00, 0x00, 0x00,
  0x00, 0x00, 0x00, 0x00, 0x00, 0x00, 0x00, 0x00, 0x00, 0x00, 0x00, 0x00,
  0x00, 0x00, 0x00, 0x00, 0x00, 0x00, 0x00, 0x00, 0x00, 0x00, 0x00, 0x00,
  0x00, 0x00, 0x00, 0x00, 0x00, 0x00, 0x00, 0x00, 0x00, 0x00, 0x00, 0x00,
  0x00, 0x00, 0x00, 0x00, 0x00, 0x00, 0x00, 0x00, 0x00, 0x00, 0x00, 0x00,
  0x00, 0x00, 0x00, 0x00, 0x00, 0x00, 0x00, 0x00, 0x00, 0x00, 0x00, 0x00,
  0x00, 0x00, 0x00, 0x00, 0x40, 0x00, 0x00, 0x00, 0x33, 0x8a, 0x03, 0x3b,
  0x64, 0xe2, 0x19, 0x3a, 0x98, 0x9e, 0xba, 0x39, 0x6f, 0x21, 0xac, 0x3a,
  0xa0, 0xe7, 0x12, 0x3a, 0x9b, 0x8a, 0x7e, 0x3a, 0xa6, 0x3b, 0x2b, 0x3b,
  0x54, 0x90, 0x95, 0x3a, 0xaf, 0xb2, 0x47, 0x3a, 0xa9, 0xe3, 0x86, 0x3a,
  0x34, 0xf1, 0x1f, 0x3a, 0xc8, 0xa5, 0xed, 0x39, 0x74, 0x7f, 0x28, 0x3b,
  0xb7, 0x5f, 0x3e, 0x3a, 0x9c, 0x66, 0xb4, 0x3a, 0x60, 0x41, 0x18, 0x3a,
  0x2c, 0xd7, 0xd1, 0x3a, 0xf8, 0xc2, 0x1a, 0x3b, 0xfe, 0xb9, 0xd0, 0x39,
  0x43, 0x4d, 0x18, 0x3a, 0x85, 0x5a, 0x91, 0x3a, 0xa9, 0x52, 0xa5, 0x3a,
  0x5a, 0x73, 0xa6, 0x3a, 0x76, 0x88, 0x17, 0x3a, 0x64, 0xe7, 0x95, 0x39,
  0x90, 0x20, 0xa0, 0x3a, 0x4f, 0xe1, 0x51, 0x3a, 0x6c, 0xe9, 0xb9, 0x3a,
  0x8f, 0x78, 0x92, 0x3a, 0x2b, 0x2a, 0x9b, 0x3a, 0x39, 0x06, 0x34, 0x3a,
  0x63, 0x46, 0x94, 0x38, 0xc7, 0x94, 0x71, 0x3a, 0xcb, 0x27, 0xc3, 0x3a,
  0xef, 0x28, 0x08, 0x3a, 0x19, 0x9e, 0x5e, 0x3a, 0xf6, 0xdd, 0xb2, 0x3a,
  0x6c, 0x98, 0xd9, 0x3a, 0xd7, 0x92, 0xed, 0x3a, 0xc5, 0xad, 0x8b, 0x3a,
  0x0d, 0xbd, 0x1d, 0x3a, 0xc8, 0x6a, 0xae, 0x39, 0x87, 0x4d, 0xaf, 0x3a,
  0x54, 0x06, 0x02, 0x3b, 0x1d, 0x57, 0x82, 0x3a, 0x6a, 0x2f, 0xcb, 0x39,
  0x3d, 0x63, 0xb4, 0x3a, 0xfa, 0xd9, 0x1a, 0x3a, 0xd7, 0x99, 0x2d, 0x3a,
  0x91, 0x9c, 0x24, 0x3b, 0xc5, 0x06, 0xc9, 0x3a, 0x11, 0x23, 0x4a, 0x3a,
  0x52, 0x7d, 0x2f, 0x3a, 0x0c, 0xc4, 0x14, 0x3a, 0xc8, 0xb7, 0x29, 0x3b,
  0x07, 0x87, 0x19, 0x39, 0xb2, 0x7d, 0xa3, 0x3a, 0x71, 0x19, 0x29, 0x3a,
  0x85, 0x98, 0x53, 0x3a, 0x9a, 0x3d, 0xfc, 0x3a, 0xdc, 0x47, 0x10, 0x3a,
  0x3b, 0x52, 0xa6, 0x39, 0x39, 0xd9, 0x54, 0x3a, 0x19, 0x98, 0x99, 0x3a,
  0x12, 0x00, 0x00, 0x00, 0x74, 0x66, 0x6c, 0x2e, 0x70, 0x73, 0x65, 0x75,
  0x64, 0x6f, 0x5f, 0x71, 0x63, 0x6f, 0x6e, 0x73, 0x74, 0x38, 0x00, 0x00,
  0x01, 0x00, 0x00, 0x00, 0x40, 0x00, 0x00, 0x00, 0x96, 0xf1, 0xff, 0xff,
  0x00, 0x00, 0x00, 0x01, 0x14, 0x00, 0x00, 0x00, 0x28, 0x03, 0x00, 0x00,
  0x09, 0x00, 0x00, 0x00, 0x00, 0x00, 0x00, 0x09, 0x34, 0x03, 0x00, 0x00,
  0xec, 0xf0, 0xff, 0xff, 0x08, 0x00, 0x00, 0x00, 0x0c, 0x02, 0x00, 0x00,
  0x40, 0x00, 0x00, 0x00, 0x00, 0x00, 0x00, 0x00, 0x00, 0x00, 0x00, 0x00,
  0x00, 0x00, 0x00, 0x00, 0x00, 0x00, 0x00, 0x00, 0x00, 0x00, 0x00, 0x00,
  0x00, 0x00, 0x00, 0x00, 0x00, 0x00, 0x00, 0x00, 0x00, 0x00, 0x00, 0x00,
  0x00, 0x00, 0x00, 0x00, 0x00, 0x00, 0x00, 0x00, 0x00, 0x00, 0x00, 0x00,
  0x00, 0x00, 0x00, 0x00, 0x00, 0x00, 0x00, 0x00, 0x00, 0x00, 0x00, 0x00,
  0x00, 0x00, 0x00, 0x00, 0x00, 0x00, 0x00, 0x00, 0x00, 0x00, 0x00, 0x00,
  0x00, 0x00, 0x00, 0x00, 0x00, 0x00, 0x00, 0x00, 0x00, 0x00, 0x00, 0x00,
  0x00, 0x00, 0x00, 0x00, 0x00, 0x00, 0x00, 0x00, 0x00, 0x00, 0x00, 0x00,
  0x00, 0x00, 0x00, 0x00, 0x00, 0x00, 0x00, 0x00, 0x00, 0x00, 0x00, 0x00,
  0x00, 0x00, 0x00, 0x00, 0x00, 0x00, 0x00, 0x00, 0x00, 0x00, 0x00, 0x00,
  0x00, 0x00, 0x00, 0x00, 0x00, 0x00, 0x00, 0x00, 0x00, 0x00, 0x00, 0x00,
  0x00, 0x00, 0x00, 0x00, 0x00, 0x00, 0x00, 0x00, 0x00, 0x00, 0x00, 0x00,
  0x00, 0x00, 0x00, 0x00, 0x00, 0x00, 0x00, 0x00, 0x00, 0x00, 0x00, 0x00,
  0x00, 0x00, 0x00, 0x00, 0x00, 0x00, 0x00, 0x00, 0x00, 0x00, 0x00, 0x00,
  0x00, 0x00, 0x00, 0x00, 0x00, 0x00, 0x00, 0x00, 0x00, 0x00, 0x00, 0x00,
  0x00, 0x00, 0x00, 0x00, 0x00, 0x00, 0x00, 0x00, 0x00, 0x00, 0x00, 0x00,
  0x00, 0x00, 0x00, 0x00, 0x00, 0x00, 0x00, 0x00, 0x00, 0x00, 0x00, 0x00,
  0x00, 0x00, 0x00, 0x00, 0x00, 0x00, 0x00, 0x00, 0x00, 0x00, 0x00, 0x00,
  0x00, 0x00, 0x00, 0x00, 0x00, 0x00, 0x00, 0x00, 0x00, 0x00, 0x00, 0x00,
  0x00, 0x00, 0x00, 0x00, 0x00, 0x00, 0x00, 0x00, 0x00, 0x00, 0x00, 0x00,
  0x00, 0x00, 0x00, 0x00, 0x00, 0x00, 0x00, 0x00, 0x00, 0x00, 0x00, 0x00,
  0x00, 0x00, 0x00, 0x00, 0x00, 0x00, 0x00, 0x00, 0x00, 0x00, 0x00, 0x00,
  0x00, 0x00, 0x00, 0x00, 0x00, 0x00, 0x00, 0x00, 0x00, 0x00, 0x00, 0x00,
  0x00, 0x00, 0x00, 0x00, 0x00, 0x00, 0x00, 0x00, 0x00, 0x00, 0x00, 0x00,
  0x00, 0x00, 0x00, 0x00, 0x00, 0x00, 0x00, 0x00, 0x00, 0x00, 0x00, 0x00,
  0x00, 0x00, 0x00, 0x00, 0x00, 0x00, 0x00, 0x00, 0x00, 0x00, 0x00, 0x00,
  0x00, 0x00, 0x00, 0x00, 0x00, 0x00, 0x00, 0x00, 0x00, 0x00, 0x00, 0x00,
  0x00, 0x00, 0x00, 0x00, 0x00, 0x00, 0x00, 0x00, 0x00, 0x00, 0x00, 0x00,
  0x00, 0x00, 0x00, 0x00, 0x00, 0x00, 0x00, 0x00, 0x00, 0x00, 0x00, 0x00,
  0x00, 0x00, 0x00, 0x00, 0x00, 0x00, 0x00, 0x00, 0x00, 0x00, 0x00, 0x00,
  0x00, 0x00, 0x00, 0x00, 0x00, 0x00, 0x00, 0x00, 0x00, 0x00, 0x00, 0x00,
  0x00, 0x00, 0x00, 0x00, 0x00, 0x00, 0x00, 0x00, 0x00, 0x00, 0x00, 0x00,
  0x00, 0x00, 0x00, 0x00, 0x00, 0x00, 0x00, 0x00, 0x00, 0x00, 0x00, 0x00,
  0x00, 0x00, 0x00, 0x00, 0x00, 0x00, 0x00, 0x00, 0x00, 0x00, 0x00, 0x00,
  0x00, 0x00, 0x00, 0x00, 0x00, 0x00, 0x00, 0x00, 0x00, 0x00, 0x00, 0x00,
  0x00, 0x00, 0x00, 0x00, 0x00, 0x00, 0x00, 0x00, 0x00, 0x00, 0x00, 0x00,
  0x00, 0x00, 0x00, 0x00, 0x00, 0x00, 0x00, 0x00, 0x00, 0x00, 0x00, 0x00,
  0x00, 0x00, 0x00, 0x00, 0x00, 0x00, 0x00, 0x00, 0x00, 0x00, 0x00, 0x00,
  0x00, 0x00, 0x00, 0x00, 0x00, 0x00, 0x00, 0x00, 0x00, 0x00, 0x00, 0x00,
  0x00, 0x00, 0x00, 0x00, 0x00, 0x00, 0x00, 0x00, 0x00, 0x00, 0x00, 0x00,
  0x00, 0x00, 0x00, 0x00, 0x00, 0x00, 0x00, 0x00, 0x00, 0x00, 0x00, 0x00,
  0x00, 0x00, 0x00, 0x00, 0x00, 0x00, 0x00, 0x00, 0x00, 0x00, 0x00, 0x00,
  0x00, 0x00, 0x00, 0x00, 0x00, 0x00, 0x00, 0x00, 0x00, 0x00, 0x00, 0x00,
  0x00, 0x00, 0x00, 0x00, 0x40, 0x00, 0x00, 0x00, 0x0f, 0x64, 0x78, 0x3e,
  0xc8, 0xff, 0x8d, 0x3d, 0x02, 0xca, 0x19, 0x3e, 0x89, 0xb0, 0x59, 0x3e,
  0xd4, 0xf9, 0x8b, 0x3e, 0x51, 0x5c, 0x1f, 0x3e, 0xa0, 0x73, 0x33, 0x3e,
  0x16, 0x88, 0xc3, 0x3e, 0x4a, 0xa2, 0xa7, 0x3e, 0xf3, 0xd8, 0xf1, 0x3d,
  0x27, 0xa8, 0x35, 0x3e, 0xb6, 0x40, 0x89, 0x3e, 0xa1, 0xaf, 0xfe, 0x3d,
  0xbb, 0x75, 0x2f, 0x3e, 0xd4, 0x9e, 0xcf, 0x3d, 0x14, 0x28, 0x26, 0x3f,
  0x1d, 0x62, 0xa4, 0x3d, 0x2c, 0x28, 0x70, 0x3e, 0x4f, 0xee, 0xc9, 0x3e,
  0xdb, 0xdc, 0x03, 0x3e, 0xa6, 0x8f, 0xc3, 0x3e, 0x84, 0x94, 0x91, 0x3d,
  0xe0, 0xcc, 0x52, 0x3e, 0x60, 0x5b, 0x55, 0x3e, 0x41, 0x11, 0xb5, 0x3d,
  0xe1, 0x7f, 0x0c, 0x3e, 0x75, 0x9a, 0x7c, 0x3e, 0xfe, 0xce, 0x88, 0x3e,
  0xc8, 0xc1, 0x18, 0x3e, 0xce, 0x0a, 0x75, 0x3d, 0x11, 0xc1, 0xc2, 0x3d,
  0x5c, 0x1a, 0xb5, 0x3d, 0x14, 0x55, 0xee, 0x3d, 0x92, 0x83, 0x3e, 0x3e,
  0x3f, 0xa6, 0xe1, 0x3d, 0x3b, 0xfc, 0x2d, 0x3e, 0xa1, 0x5b, 0xa9, 0x3e,
  0x7a, 0x38, 0x25, 0x3e, 0x6b, 0x02, 0x38, 0x3e, 0x6a, 0x4f, 0xd0, 0x3d,
  0x03, 0xf1, 0x10, 0x3e, 0x99, 0xea, 0x59, 0x3e, 0x5d, 0x7b, 0x06, 0x3e,
  0x76, 0xde, 0x8c, 0x3e, 0x1c, 0x27, 0x00, 0x3e, 0x27, 0xa2, 0x96, 0x3e,
  0x78, 0x9f, 0x33, 0x3e, 0x12, 0x59, 0xf2, 0x3d, 0xa9, 0x41, 0x65, 0x3e,
  0xac, 0x0c, 0x64, 0x3e, 0x8c, 0x02, 0x2b, 0x3e, 0x1c, 0x9b, 0x35, 0x3e,
  0x7f, 0xff, 0x39, 0x3e, 0xda, 0xbf, 0xed, 0x3e, 0xee, 0x55, 0xa0, 0x3d,
  0x74, 0xa7, 0x17, 0x3e, 0xc3, 0x89, 0x81, 0x3d, 0xa2, 0xfd, 0x38, 0x3e,
  0xc1, 0x48, 0x82, 0x3d, 0x32, 0xca, 0xa2, 0x3e, 0xee, 0xa2, 0x03, 0x3e,
  0x75, 0xf1, 0x31, 0x3e, 0xe2, 0xd9, 0x0f, 0x3f, 0x95, 0x82, 0x8c, 0x3e,
  0x12, 0x00, 0x00, 0x00, 0x74, 0x66, 0x6c, 0x2e, 0x70, 0x73, 0x65, 0x75,
  0x64, 0x6f, 0x5f, 0x71, 0x63, 0x6f, 0x6e, 0x73, 0x74, 0x37, 0x00, 0x00,
  0x02, 0x00, 0x00, 0x00, 0x40, 0x00, 0x00, 0x00, 0x40, 0x00, 0x00, 0x00,
  0xee, 0xf4, 0xff, 0xff, 0x00, 0x00, 0x00, 0x01, 0x14, 0x00, 0x00, 0x00,
  0x24, 0x03, 0x00, 0x00, 0x08, 0x00, 0x00, 0x00, 0x00, 0x00, 0x00, 0x02,
  0x30, 0x03, 0x00, 0x00, 0x44, 0xf4, 0xff, 0xff, 0x08, 0x00, 0x00, 0x00,
  0x08, 0x02, 0x00, 0x00, 0x40, 0x00, 0x00, 0x00, 0x00, 0x00, 0x00, 0x00,
  0x00, 0x00, 0x00, 0x00, 0x00, 0x00, 0x00, 0x00, 0x00, 0x00, 0x00, 0x00,
  0x00, 0x00, 0x00, 0x00, 0x00, 0x00, 0x00, 0x00, 0x00, 0x00, 0x00, 0x00,
  0x00, 0x00, 0x00, 0x00, 0x00, 0x00, 0x00, 0x00, 0x00, 0x00, 0x00, 0x00,
  0x00, 0x00, 0x00, 0x00, 0x00, 0x00, 0x00, 0x00, 0x00, 0x00, 0x00, 0x00,
  0x00, 0x00, 0x00, 0x00, 0x00, 0x00, 0x00, 0x00, 0x00, 0x00, 0x00, 0x00,
  0x00, 0x00, 0x00, 0x00, 0x00, 0x00, 0x00, 0x00, 0x00, 0x00, 0x00, 0x00,
  0x00, 0x00, 0x00, 0x00, 0x00, 0x00, 0x00, 0x00, 0x00, 0x00, 0x00, 0x00,
  0x00, 0x00, 0x00, 0x00, 0x00, 0x00, 0x00, 0x00, 0x00, 0x00, 0x00, 0x00,
  0x00, 0x00, 0x00, 0x00, 0x00, 0x00, 0x00, 0x00, 0x00, 0x00, 0x00, 0x00,
  0x00, 0x00, 0x00, 0x00, 0x00, 0x00, 0x00, 0x00, 0x00, 0x00, 0x00, 0x00,
  0x00, 0x00, 0x00, 0x00, 0x00, 0x00, 0x00, 0x00, 0x00, 0x00, 0x00, 0x00,
  0x00, 0x00, 0x00, 0x00, 0x00, 0x00, 0x00, 0x00, 0x00, 0x00, 0x00, 0x00,
  0x00, 0x00, 0x00, 0x00, 0x00, 0x00, 0x00, 0x00, 0x00, 0x00, 0x00, 0x00,
  0x00, 0x00, 0x00, 0x00, 0x00, 0x00, 0x00, 0x00, 0x00, 0x00, 0x00, 0x00,
  0x00, 0x00, 0x00, 0x00, 0x00, 0x00, 0x00, 0x00, 0x00, 0x00, 0x00, 0x00,
  0x00, 0x00, 0x00, 0x00, 0x00, 0x00, 0x00, 0x00, 0x00, 0x00, 0x00, 0x00,
  0x00, 0x00, 0x00, 0x00, 0x00, 0x00, 0x00, 0x00, 0x00, 0x00, 0x00, 0x00,
  0x00, 0x00, 0x00, 0x00, 0x00, 0x00, 0x00, 0x00, 0x00, 0x00, 0x00, 0x00,
  0x00, 0x00, 0x00, 0x00, 0x00, 0x00, 0x00, 0x00, 0x00, 0x00, 0x00, 0x00,
  0x00, 0x00, 0x00, 0x00, 0x00, 0x00, 0x00, 0x00, 0x00, 0x00, 0x00, 0x00,
  0x00, 0x00, 0x00, 0x00, 0x00, 0x00, 0x00, 0x00, 0x00, 0x00, 0x00, 0x00,
  0x00, 0x00, 0x00, 0x00, 0x00, 0x00, 0x00, 0x00, 0x00, 0x00, 0x00, 0x00,
  0x00, 0x00, 0x00, 0x00, 0x00, 0x00, 0x00, 0x00, 0x00, 0x00, 0x00, 0x00,
  0x00, 0x00, 0x00, 0x00, 0x00, 0x00, 0x00, 0x00, 0x00, 0x00, 0x00, 0x00,
  0x00, 0x00, 0x00, 0x00, 0x00, 0x00, 0x00, 0x00, 0x00, 0x00, 0x00, 0x00,
  0x00, 0x00, 0x00, 0x00, 0x00, 0x00, 0x00, 0x00, 0x00, 0x00, 0x00, 0x00,
  0x00, 0x00, 0x00, 0x00, 0x00, 0x00, 0x00, 0x00, 0x00, 0x00, 0x00, 0x00,
  0x00, 0x00, 0x00, 0x00, 0x00, 0x00, 0x00, 0x00, 0x00, 0x00, 0x00, 0x00,
  0x00, 0x00, 0x00, 0x00, 0x00, 0x00, 0x00, 0x00, 0x00, 0x00, 0x00, 0x00,
  0x00, 0x00, 0x00, 0x00, 0x00, 0x00, 0x00, 0x00, 0x00, 0x00, 0x00, 0x00,
  0x00, 0x00, 0x00, 0x00, 0x00, 0x00, 0x00, 0x00, 0x00, 0x00, 0x00, 0x00,
  0x00, 0x00, 0x00, 0x00, 0x00, 0x00, 0x00, 0x00, 0x00, 0x00, 0x00, 0x00,
  0x00, 0x00, 0x00, 0x00, 0x00, 0x00, 0x00, 0x00, 0x00, 0x00, 0x00, 0x00,
  0x00, 0x00, 0x00, 0x00, 0x00, 0x00, 0x00, 0x00, 0x00, 0x00, 0x00, 0x00,
  0x00, 0x00, 0x00, 0x00, 0x00, 0x00, 0x00, 0x00, 0x00, 0x00, 0x00, 0x00,
  0x00, 0x00, 0x00, 0x00, 0x00, 0x00, 0x00, 0x00, 0x00, 0x00, 0x00, 0x00,
  0x00, 0x00, 0x00, 0x00, 0x00, 0x00, 0x00, 0x00, 0x00, 0x00, 0x00, 0x00,
  0x00, 0x00, 0x00, 0x00, 0x00, 0x00, 0x00, 0x00, 0x00, 0x00, 0x00, 0x00,
  0x00, 0x00, 0x00, 0x00, 0x00, 0x00, 0x00, 0x00, 0x00, 0x00, 0x00, 0x00,
  0x00, 0x00, 0x00, 0x00, 0x00, 0x00, 0x00, 0x00, 0x00, 0x00, 0x00, 0x00,
  0x00, 0x00, 0x00, 0x00, 0x00, 0x00, 0x00, 0x00, 0x00, 0x00, 0x00, 0x00,
  0x00, 0x00, 0x00, 0x00, 0x00, 0x00, 0x00, 0x00, 0x00, 0x00, 0x00, 0x00,
  0x00, 0x00, 0x00, 0x00, 0x40, 0x00, 0x00, 0x00, 0x9b, 0x1a, 0xfc, 0x3c,
  0x2f, 0x1f, 0x10, 0x3c, 0x88, 0x16, 0x9c, 0x3c, 0x98, 0xf1, 0xdc, 0x3c,
  0x7d, 0x11, 0x0e, 0x3d, 0x29, 0xbe, 0xa1, 0x3c, 0x5a, 0x22, 0xb6, 0x3c,
  0x59, 0x74, 0x46, 0x3d, 0xcb, 0x23, 0x2a, 0x3d, 0x74, 0x76, 0x75, 0x3c,
  0x52, 0x5f, 0xb8, 0x3c, 0xf4, 0x4d, 0x0b, 0x3d, 0x22, 0x3f, 0x81, 0x3c,
  0x2f, 0x15, 0xb2, 0x3c, 0x5a, 0xb9, 0x52, 0x3c, 0xee, 0xa3, 0xa8, 0x3d,
  0x2d, 0xd7, 0x26, 0x3c, 0x35, 0xbf, 0xf3, 0x3c, 0x0f, 0xf3, 0x4c, 0x3d,
  0x78, 0xd5, 0x85, 0x3c, 0x06, 0x7c, 0x46, 0x3d, 0xa0, 0xc1, 0x13, 0x3c,
  0x91, 0xf3, 0xd5, 0x3c, 0xda, 0x8b, 0xd8, 0x3c, 0x2a, 0xc6, 0x37, 0x3c,
  0x8b, 0x99, 0x8e, 0x3c, 0x90, 0x30, 0x00, 0x3d, 0x88, 0xda, 0x0a, 0x3d,
  0x5b, 0x0a, 0x9b, 0x3c, 0x89, 0xb4, 0xf8, 0x3b, 0x5b, 0xaa, 0x45, 0x3c,
  0x68, 0xcf, 0x37, 0x3c, 0x22, 0xe5, 0x71, 0x3c, 0xa2, 0x5c, 0xc1, 0x3c,
  0xc4, 0x05, 0x65, 0x3c, 0x0a, 0x96, 0xb0, 0x3c, 0xbb, 0xe3, 0x2b, 0x3d,
  0xbf, 0xb0, 0xa7, 0x3c, 0x96, 0xc2, 0xba, 0x3c, 0x94, 0x6c, 0x53, 0x3c,
  0xad, 0x1b, 0x93, 0x3c, 0x86, 0x2c, 0xdd, 0x3c, 0x00, 0x7e, 0x88, 0x3c,
  0x8a, 0xf9, 0x0e, 0x3d, 0x87, 0x11, 0x82, 0x3c, 0x99, 0xe2, 0x18, 0x3d,
  0xda, 0x4e, 0xb6, 0x3c, 0x7e, 0xf8, 0x75, 0x3c, 0xfb, 0xae, 0xe8, 0x3c,
  0x60, 0x75, 0xe7, 0x3c, 0xf8, 0x90, 0xad, 0x3c, 0x15, 0x52, 0xb8, 0x3c,
  0x47, 0xc7, 0xbc, 0x3c, 0xad, 0x4d, 0x71, 0x3d, 0x81, 0xbb, 0x22, 0x3c,
  0xce, 0xeb, 0x99, 0x3c, 0x7b, 0x79, 0x03, 0x3c, 0x8f, 0xc1, 0xbb, 0x3c,
  0x54, 0x3b, 0x04, 0x3c, 0x29, 0x39, 0x25, 0x3d, 0xad, 0x9a, 0x85, 0x3c,
  0x6a, 0x9a, 0xb4, 0x3c, 0x60, 0x00, 0x92, 0x3d, 0x4a, 0x9c, 0x0e, 0x3d,
  0x12, 0x00, 0x00, 0x00, 0x74, 0x66, 0x6c, 0x2e, 0x70, 0x73, 0x65, 0x75,
  0x64, 0x6f, 0x5f, 0x71, 0x63, 0x6f, 0x6e, 0x73, 0x74, 0x36, 0x00, 0x00,
  0x01, 0x00, 0x00, 0x00, 0x40, 0x00, 0x00, 0x00, 0x3e, 0xf8, 0xff, 0xff,
  0x00, 0x00, 0x00, 0x01, 0x14, 0x00, 0x00, 0x00, 0xa8, 0x01, 0x00, 0x00,
  0x07, 0x00, 0x00, 0x00, 0x00, 0x00, 0x00, 0x09, 0xb4, 0x01, 0x00, 0x00,
  0x94, 0xf7, 0xff, 0xff, 0x08, 0x00, 0x00, 0x00, 0x0c, 0x01, 0x00, 0x00,
  0x20, 0x00, 0x00, 0x00, 0x00, 0x00, 0x00, 0x00, 0x00, 0x00, 0x00, 0x00,
  0x00, 0x00, 0x00, 0x00, 0x00, 0x00, 0x00, 0x00, 0x00, 0x00, 0x00, 0x00,
  0x00, 0x00, 0x00, 0x00, 0x00, 0x00, 0x00, 0x00, 0x00, 0x00, 0x00, 0x00,
  0x00, 0x00, 0x00, 0x00, 0x00, 0x00, 0x00, 0x00, 0x00, 0x00, 0x00, 0x00,
  0x00, 0x00, 0x00, 0x00, 0x00, 0x00, 0x00, 0x00, 0x00, 0x00, 0x00, 0x00,
  0x00, 0x00, 0x00, 0x00, 0x00, 0x00, 0x00, 0x00, 0x00, 0x00, 0x00, 0x00,
  0x00, 0x00, 0x00, 0x00, 0x00, 0x00, 0x00, 0x00, 0x00, 0x00, 0x00, 0x00,
  0x00, 0x00, 0x00, 0x00, 0x00, 0x00, 0x00, 0x00, 0x00, 0x00, 0x00, 0x00,
  0x00, 0x00, 0x00, 0x00, 0x00, 0x00, 0x00, 0x00, 0x00, 0x00, 0x00, 0x00,
  0x00, 0x00, 0x00, 0x00, 0x00, 0x00, 0x00, 0x00, 0x00, 0x00, 0x00, 0x00,
  0x00, 0x00, 0x00, 0x00, 0x00, 0x00, 0x00, 0x00, 0x00, 0x00, 0x00, 0x00,
  0x00, 0x00, 0x00, 0x00, 0x00, 0x00, 0x00, 0x00, 0x00, 0x00, 0x00, 0x00,
  0x00, 0x00, 0x00, 0x00, 0x00, 0x00, 0x00, 0x00, 0x00, 0x00, 0x00, 0x00,
  0x00, 0x00, 0x00, 0x00, 0x00, 0x00, 0x00, 0x00, 0x00, 0x00, 0x00, 0x00,
  0x00, 0x00, 0x00, 0x00, 0x00, 0x00, 0x00, 0x00, 0x00, 0x00, 0x00, 0x00,
  0x00, 0x00, 0x00, 0x00, 0x00, 0x00, 0x00, 0x00, 0x00, 0x00, 0x00, 0x00,
  0x00, 0x00, 0x00, 0x00, 0x00, 0x00, 0x00, 0x00, 0x00, 0x00, 0x00, 0x00,
  0x00, 0x00, 0x00, 0x00, 0x00, 0x00, 0x00, 0x00, 0x00, 0x00, 0x00, 0x00,
  0x00, 0x00, 0x00, 0x00, 0x00, 0x00, 0x00, 0x00, 0x00, 0x00, 0x00, 0x00,
  0x00, 0x00, 0x00, 0x00, 0x00, 0x00, 0x00, 0x00, 0x00, 0x00, 0x00, 0x00,
  0x00, 0x00, 0x00, 0x00, 0x00, 0x00, 0x00, 0x00, 0x00, 0x00, 0x00, 0x00,
  0x00, 0x00, 0x00, 0x00, 0x00, 0x00, 0x00, 0x00, 0x00, 0x00, 0x00, 0x00,
  0x20, 0x00, 0x00, 0x00, 0xb0, 0x7e, 0x7a, 0x3c, 0x3b, 0xa5, 0xb2, 0x3c,
  0xa5, 0xe9, 0xd4, 0x3c, 0x26, 0x08, 0xef, 0x3c, 0x13, 0xf9, 0x88, 0x3c,
  0xe4, 0x79, 0xb7, 0x3c, 0x1b, 0x58, 0x88, 0x3c, 0x08, 0xb4, 0xb8, 0x3c,
  0x4d, 0x1e, 0xaa, 0x3c, 0x4a, 0x40, 0x0c, 0x3d, 0x52, 0x6e, 0x91, 0x3c,
  0xbb, 0x5d, 0xb7, 0x3c, 0xfd, 0xca, 0x8a, 0x3c, 0xb2, 0x72, 0xb4, 0x3c,
  0x44, 0xe1, 0x6d, 0x3c, 0x09, 0xc2, 0xcc, 0x3c, 0xd6, 0x88, 0x89, 0x3c,
  0x66, 0xcf, 0xd0, 0x3c, 0x2d, 0xe9, 0xac, 0x3c, 0x6f, 0x80, 0xc7, 0x3c,
  0x81, 0xcd, 0x8a, 0x3c, 0xf2, 0x30, 0xe6, 0x3c, 0x81, 0xfa, 0xaf, 0x3c,
  0xec, 0xa5, 0xa6, 0x3c, 0x85, 0x7b, 0xa8, 0x3c, 0xfe, 0xda, 0xb7, 0x3c,
  0x68, 0xdc, 0xb5, 0x3c, 0xc7, 0xda, 0xa0, 0x3c, 0xf7, 0xf3, 0xad, 0x3c,
  0x11, 0x5c, 0xab, 0x3c, 0x1f, 0xac, 0xaf, 0x3c, 0xa3, 0xe4, 0xa1, 0x3c,
  0x12, 0x00, 0x00, 0x00, 0x74, 0x66, 0x6c, 0x2e, 0x70, 0x73, 0x65, 0x75,
  0x64, 0x6f, 0x5f, 0x71, 0x63, 0x6f, 0x6e, 0x73, 0x74, 0x35, 0x00, 0x00,
  0x02, 0x00, 0x00, 0x00, 0x20, 0x00, 0x00, 0x00, 0x40, 0x00, 0x00, 0x00,
  0x16, 0xfa, 0xff, 0xff, 0x00, 0x00, 0x00, 0x01, 0x14, 0x00, 0x00, 0x00,
  0xa4, 0x01, 0x00, 0x00, 0x06, 0x00, 0x00, 0x00, 0x00, 0x00, 0x00, 0x02,
  0xb0, 0x01, 0x00, 0x00, 0x6c, 0xf9, 0xff, 0xff, 0x08, 0x00, 0x00, 0x00,
  0x08, 0x01, 0x00, 0x00, 0x20, 0x00, 0x00, 0x00, 0x00, 0x00, 0x00, 0x00,
  0x00, 0x00, 0x00, 0x00, 0x00, 0x00, 0x00, 0x00, 0x00, 0x00, 0x00, 0x00,
  0x00, 0x00, 0x00, 0x00, 0x00, 0x00, 0x00, 0x00, 0x00, 0x00, 0x00, 0x00,
  0x00, 0x00, 0x00, 0x00, 0x00, 0x00, 0x00, 0x00, 0x00, 0x00, 0x00, 0x00,
  0x00, 0x00, 0x00, 0x00, 0x00, 0x00, 0x00, 0x00, 0x00, 0x00, 0x00, 0x00,
  0x00, 0x00, 0x00, 0x00, 0x00, 0x00, 0x00, 0x00, 0x00, 0x00, 0x00, 0x00,
  0x00, 0x00, 0x00, 0x00, 0x00, 0x00, 0x00, 0x00, 0x00, 0x00, 0x00, 0x00,
  0x00, 0x00, 0x00, 0x00, 0x00, 0x00, 0x00, 0x00, 0x00, 0x00, 0x00, 0x00,
  0x00, 0x00, 0x00, 0x00, 0x00, 0x00, 0x00, 0x00, 0x00, 0x00, 0x00, 0x00,
  0x00, 0x00, 0x00, 0x00, 0x00, 0x00, 0x00, 0x00, 0x00, 0x00, 0x00, 0x00,
  0x00, 0x00, 0x00, 0x00, 0x00, 0x00, 0x00, 0x00, 0x00, 0x00, 0x00, 0x00,
  0x00, 0x00, 0x00, 0x00, 0x00, 0x00, 0x00, 0x00, 0x00, 0x00, 0x00, 0x00,
  0x00, 0x00, 0x00, 0x00, 0x00, 0x00, 0x00, 0x00, 0x00, 0x00, 0x00, 0x00,
  0x00, 0x00, 0x00, 0x00, 0x00, 0x00, 0x00, 0x00, 0x00, 0x00, 0x00, 0x00,
  0x00, 0x00, 0x00, 0x00, 0x00, 0x00, 0x00, 0x00, 0x00, 0x00, 0x00, 0x00,
  0x00, 0x00, 0x00, 0x00, 0x00, 0x00, 0x00, 0x00, 0x00, 0x00, 0x00, 0x00,
  0x00, 0x00, 0x00, 0x00, 0x00, 0x00, 0x00, 0x00, 0x00, 0x00, 0x00, 0x00,
  0x00, 0x00, 0x00, 0x00, 0x00, 0x00, 0x00, 0x00, 0x00, 0x00, 0x00, 0x00,
  0x00, 0x00, 0x00, 0x00, 0x00, 0x00, 0x00, 0x00, 0x00, 0x00, 0x00, 0x00,
  0x00, 0x00, 0x00, 0x00, 0x00, 0x00, 0x00, 0x00, 0x00, 0x00, 0x00, 0x00,
  0x00, 0x00, 0x00, 0x00, 0x00, 0x00, 0x00, 0x00, 0x00, 0x00, 0x00, 0x00,
  0x00, 0x00, 0x00, 0x00, 0x00, 0x00, 0x00, 0x00, 0x00, 0x00, 0x00, 0x00,
  0x20, 0x00, 0x00, 0x00, 0xe3, 0xcb, 0x8c, 0x3a, 0xd7, 0xd2, 0xc8, 0x3a,
  0x50, 0x58, 0xef, 0x3a, 0x76, 0x5a, 0x06, 0x3b, 0x45, 0xfa, 0x99, 0x3a,
  0x06, 0x41, 0xce, 0x3a, 0x51, 0x45, 0x99, 0x3a, 0x2a, 0xa2, 0xcf, 0x3a,
  0xe8, 0x3c, 0xbf, 0x3a, 0xac, 0xa9, 0x1d, 0x3b, 0x53, 0x7c, 0xa3, 0x3a,
  0x5e, 0x21, 0xce, 0x3a, 0x07, 0x06, 0x9c, 0x3a, 0x98, 0xd9, 0xca, 0x3a,
  0xb7, 0xb4, 0x85, 0x3a, 0x89, 0x2d, 0xe6, 0x3a, 0xe1, 0x9b, 0x9a, 0x3a,
  0xaf, 0xbb, 0xea, 0x3a, 0x88, 0x60, 0xc2, 0x3a, 0xe2, 0x44, 0xe0, 0x3a,
  0xdb, 0x08, 0x9c, 0x3a, 0x60, 0x62, 0x01, 0x3b, 0x5b, 0xd3, 0xc5, 0x3a,
  0x3d, 0x56, 0xbb, 0x3a, 0x23, 0x66, 0xbd, 0x3a, 0x2e, 0xae, 0xce, 0x3a,
  0x35, 0x70, 0xcc, 0x3a, 0xf8, 0xd2, 0xb4, 0x3a, 0x71, 0x8c, 0xc3, 0x3a,
  0x1f, 0xa2, 0xc0, 0x3a, 0x3d, 0x7b, 0xc5, 0x3a, 0xd5, 0xfd, 0xb5, 0x3a,
  0x12, 0x00, 0x00, 0x00, 0x74, 0x66, 0x6c, 0x2e, 0x70, 0x73, 0x65, 0x75,
  0x64, 0x6f, 0x5f, 0x71, 0x63, 0x6f, 0x6e, 0x73, 0x74, 0x34, 0x00, 0x00,
  0x01, 0x00, 0x00, 0x00, 0x20, 0x00, 0x00, 0x00, 0xe6, 0xfb, 0xff, 0xff,
  0x00, 0x00, 0x00, 0x01, 0x14, 0x00, 0x00, 0x00, 0xa8, 0x01, 0x00, 0x00,
  0x05, 0x00, 0x00, 0x00, 0x00, 0x00, 0x00, 0x09, 0xb4, 0x01, 0x00, 0x00,
  0x3c, 0xfb, 0xff, 0xff, 0x08, 0x00, 0x00, 0x00, 0x0c, 0x01, 0x00, 0x00,
  0x20, 0x00, 0x00, 0x00, 0x00, 0x00, 0x00, 0x00, 0x00, 0x00, 0x00, 0x00,
  0x00, 0x00, 0x00, 0x00, 0x00, 0x00, 0x00, 0x00, 0x00, 0x00, 0x00, 0x00,
  0x00, 0x00, 0x00, 0x00, 0x00, 0x00, 0x00, 0x00, 0x00, 0x00, 0x00, 0x00,
  0x00, 0x00, 0x00, 0x00, 0x00, 0x00, 0x00, 0x00, 0x00, 0x00, 0x00, 0x00,
  0x00, 0x00, 0x00, 0x00, 0x00, 0x00, 0x00, 0x00, 0x00, 0x00, 0x00, 0x00,
  0x00, 0x00, 0x00, 0x00, 0x00, 0x00, 0x00, 0x00, 0x00, 0x00, 0x00, 0x00,
  0x00, 0x00, 0x00, 0x00, 0x00, 0x00, 0x00, 0x00, 0x00, 0x00, 0x00, 0x00,
  0x00, 0x00, 0x00, 0x00, 0x00, 0x00, 0x00, 0x00, 0x00, 0x00, 0x00, 0x00,
  0x00, 0x00, 0x00, 0x00, 0x00, 0x00, 0x00, 0x00, 0x00, 0x00, 0x00, 0x00,
  0x00, 0x00, 0x00, 0x00, 0x00, 0x00, 0x00, 0x00, 0x00, 0x00, 0x00, 0x00,
  0x00, 0x00, 0x00, 0x00, 0x00, 0x00, 0x00, 0x00, 0x00, 0x00, 0x00, 0x00,
  0x00, 0x00, 0x00, 0x00, 0x00, 0x00, 0x00, 0x00, 0x00, 0x00, 0x00, 0x00,
  0x00, 0x00, 0x00, 0x00, 0x00, 0x00, 0x00, 0x00, 0x00, 0x00, 0x00, 0x00,
  0x00, 0x00, 0x00, 0x00, 0x00, 0x00, 0x00, 0x00, 0x00, 0x00, 0x00, 0x00,
  0x00, 0x00, 0x00, 0x00, 0x00, 0x00, 0x00, 0x00, 0x00, 0x00, 0x00, 0x00,
  0x00, 0x00, 0x00, 0x00, 0x00, 0x00, 0x00, 0x00, 0x00, 0x00, 0x00, 0x00,
  0x00, 0x00, 0x00, 0x00, 0x00, 0x00, 0x00, 0x00, 0x00, 0x00, 0x00, 0x00,
  0x00, 0x00, 0x00, 0x00, 0x00, 0x00, 0x00, 0x00, 0x00, 0x00, 0x00, 0x00,
  0x00, 0x00, 0x00, 0x00, 0x00, 0x00, 0x00, 0x00, 0x00, 0x00, 0x00, 0x00,
  0x00, 0x00, 0x00, 0x00, 0x00, 0x00, 0x00, 0x00, 0x00, 0x00, 0x00, 0x00,
  0x00, 0x00, 0x00, 0x00, 0x00, 0x00, 0x00, 0x00, 0x00, 0x00, 0x00, 0x00,
  0x00, 0x00, 0x00, 0x00, 0x00, 0x00, 0x00, 0x00, 0x00, 0x00, 0x00, 0x00,
  0x20, 0x00, 0x00, 0x00, 0x61, 0x5a, 0xd6, 0x3b, 0x95, 0x07, 0x52, 0x3c,
  0xc6, 0xb5, 0x23, 0x3c, 0x2f, 0xfa, 0xc4, 0x3b, 0x76, 0x53, 0x83, 0x3c,
  0xac, 0xa3, 0x12, 0x3d, 0x5f, 0x2c, 0x86, 0x3c, 0x27, 0xd7, 0x5e, 0x3c,
  0x9d, 0x98, 0x19, 0x3c, 0x73, 0x89, 0xdb, 0x3b, 0xa1, 0xf5, 0x11, 0x3c,
  0x98, 0xec, 0xef, 0x3b, 0xbe, 0xcf, 0x52, 0x3c, 0x8a, 0xb8, 0xb5, 0x3b,
  0x5e, 0xcd, 0xf1, 0x3b, 0xa0, 0x51, 0x4e, 0x3c, 0x19, 0x64, 0x51, 0x3c,
  0x74, 0xc0, 0x8b, 0x3c, 0x11, 0x20, 0xd2, 0x3c, 0x9a, 0x8e, 0x1b, 0x3c,
  0x8b, 0x81, 0x12, 0x3c, 0xd8, 0xdc, 0x23, 0x3c, 0x88, 0x78, 0x2b, 0x3c,
  0xce, 0x20, 0x11, 0x3c, 0x99, 0x75, 0x11, 0x3c, 0x08, 0x2f, 0x3a, 0x3c,
  0x78, 0x76, 0x1e, 0x3c, 0x6a, 0xb9, 0x11, 0x3c, 0x13, 0x55, 0xf8, 0x3b,
  0x8d, 0xd5, 0x13, 0x3c, 0x4b, 0xda, 0x0d, 0x3c, 0x1d, 0x8e, 0xc4, 0x3c,
  0x12, 0x00, 0x00, 0x00, 0x74, 0x66, 0x6c, 0x2e, 0x70, 0x73, 0x65, 0x75,
  0x64, 0x6f, 0x5f, 0x71, 0x63, 0x6f, 0x6e, 0x73, 0x74, 0x33, 0x00, 0x00,
  0x02, 0x00, 0x00, 0x00, 0x20, 0x00, 0x00, 0x00, 0x20, 0x00, 0x00, 0x00,
  0xbe, 0xfd, 0xff, 0xff, 0x00, 0x00, 0x00, 0x01, 0x14, 0x00, 0x00, 0x00,
  0xa4, 0x01, 0x00, 0x00, 0x04, 0x00, 0x00, 0x00, 0x00, 0x00, 0x00, 0x02,
  0xb0, 0x01, 0x00, 0x00, 0x14, 0xfd, 0xff, 0xff, 0x08, 0x00, 0x00, 0x00,
  0x08, 0x01, 0x00, 0x00, 0x20, 0x00, 0x00, 0x00, 0x00, 0x00, 0x00, 0x00,
  0x00, 0x00, 0x00, 0x00, 0x00, 0x00, 0x00, 0x00, 0x00, 0x00, 0x00, 0x00,
  0x00, 0x00, 0x00, 0x00, 0x00, 0x00, 0x00, 0x00, 0x00, 0x00, 0x00, 0x00,
  0x00, 0x00, 0x00, 0x00, 0x00, 0x00, 0x00, 0x00, 0x00, 0x00, 0x00, 0x00,
  0x00, 0x00, 0x00, 0x00, 0x00, 0x00, 0x00, 0x00, 0x00, 0x00, 0x00, 0x00,
  0x00, 0x00, 0x00, 0x00, 0x00, 0x00, 0x00, 0x00, 0x00, 0x00, 0x00, 0x00,
  0x00, 0x00, 0x00, 0x00, 0x00, 0x00, 0x00, 0x00, 0x00, 0x00, 0x00, 0x00,
  0x00, 0x00, 0x00, 0x00, 0x00, 0x00, 0x00, 0x00, 0x00, 0x00, 0x00, 0x00,
  0x00, 0x00, 0x00, 0x00, 0x00, 0x00, 0x00, 0x00, 0x00, 0x00, 0x00, 0x00,
  0x00, 0x00, 0x00, 0x00, 0x00, 0x00, 0x00, 0x00, 0x00, 0x00, 0x00, 0x00,
  0x00, 0x00, 0x00, 0x00, 0x00, 0x00, 0x00, 0x00, 0x00, 0x00, 0x00, 0x00,
  0x00, 0x00, 0x00, 0x00, 0x00, 0x00, 0x00, 0x00, 0x00, 0x00, 0x00, 0x00,
  0x00, 0x00, 0x00, 0x00, 0x00, 0x00, 0x00, 0x00, 0x00, 0x00, 0x00, 0x00,
  0x00, 0x00, 0x00, 0x00, 0x00, 0x00, 0x00, 0x00, 0x00, 0x00, 0x00, 0x00,
  0x00, 0x00, 0x00, 0x00, 0x00, 0x00, 0x00, 0x00, 0x00, 0x00, 0x00, 0x00,
  0x00, 0x00, 0x00, 0x00, 0x00, 0x00, 0x00, 0x00, 0x00, 0x00, 0x00, 0x00,
  0x00, 0x00, 0x00, 0x00, 0x00, 0x00, 0x00, 0x00, 0x00, 0x00, 0x00, 0x00,
  0x00, 0x00, 0x00, 0x00, 0x00, 0x00, 0x00, 0x00, 0x00, 0x00, 0x00, 0x00,
  0x00, 0x00, 0x00, 0x00, 0x00, 0x00, 0x00, 0x00, 0x00, 0x00, 0x00, 0x00,
  0x00, 0x00, 0x00, 0x00, 0x00, 0x00, 0x00, 0x00, 0x00, 0x00, 0x00, 0x00,
  0x00, 0x00, 0x00, 0x00, 0x00, 0x00, 0x00, 0x00, 0x00, 0x00, 0x00, 0x00,
  0x00, 0x00, 0x00, 0x00, 0x00, 0x00, 0x00, 0x00, 0x00, 0x00, 0x00, 0x00,
  0x20, 0x00, 0x00, 0x00, 0xfb, 0x17, 0x44, 0x3a, 0x77, 0x23, 0xc0, 0x3a,
  0xbf, 0xc3, 0x95, 0x3a, 0xb3, 0x32, 0x34, 0x3a, 0x44, 0x47, 0xf0, 0x3a,
  0xe8, 0x25, 0x86, 0x3b, 0xe8, 0x7c, 0xf5, 0x3a, 0xab, 0xdb, 0xcb, 0x3a,
  0x24, 0x83, 0x8c, 0x3a, 0x02, 0xd6, 0x48, 0x3a, 0xb0, 0x86, 0x85, 0x3a,
  0x91, 0x7c, 0x5b, 0x3a, 0x93, 0xda, 0xc0, 0x3a, 0xc0, 0x3d, 0x26, 0x3a,
  0x62, 0x34, 0x5d, 0x3a, 0x6e, 0xbe, 0xbc, 0x3a, 0xe8, 0x8d, 0xbf, 0x3a,
  0xc5, 0xb1, 0xff, 0x3a, 0xdd, 0x39, 0x40, 0x3b, 0x5e, 0x4e, 0x8e, 0x3a,
  0xaf, 0x06, 0x86, 0x3a, 0x7d, 0xe7, 0x95, 0x3a, 0x44, 0xdd, 0x9c, 0x3a,
  0xff, 0xc3, 0x84, 0x3a, 0x90, 0x11, 0x85, 0x3a, 0xec, 0x52, 0xaa, 0x3a,
  0xdf, 0xf6, 0x90, 0x3a, 0x9b, 0x4f, 0x85, 0x3a, 0xb1, 0x2d, 0x63, 0x3a,
  0xbb, 0x3d, 0x87, 0x3a, 0xe9, 0xc4, 0x81, 0x3a, 0xd6, 0xcf, 0x33, 0x3b,
  0x12, 0x00, 0x00, 0x00, 0x74, 0x66, 0x6c, 0x2e, 0x70, 0x73, 0x65, 0x75,
  0x64, 0x6f, 0x5f, 0x71, 0x63, 0x6f, 0x6e, 0x73, 0x74, 0x32, 0x00, 0x00,
  0x01, 0x00, 0x00, 0x00, 0x20, 0x00, 0x00, 0x00, 0x8e, 0xff, 0xff, 0xff,
  0x00, 0x00, 0x00, 0x01, 0x14, 0x00, 0x00, 0x00, 0x40, 0x00, 0x00, 0x00,
  0x03, 0x00, 0x00, 0x00, 0x00, 0x00, 0x00, 0x09, 0x4c, 0x00, 0x00, 0x00,
  0xe4, 0xfe, 0xff, 0xff, 0x08, 0x00, 0x00, 0x00, 0x1c, 0x00, 0x00, 0x00,
  0x02, 0x00, 0x00, 0x00, 0x00, 0x00, 0x00, 0x00, 0x00, 0x00, 0x00, 0x00,
  0x00, 0x00, 0x00, 0x00, 0x00, 0x00, 0x00, 0x00, 0x00, 0x00, 0x00, 0x00,
  0x02, 0x00, 0x00, 0x00, 0xdc, 0x33, 0x64, 0x3b, 0x1c, 0x24, 0x7b, 0x3b,
  0x12, 0x00, 0x00, 0x00, 0x74, 0x66, 0x6c, 0x2e, 0x70, 0x73, 0x65, 0x75,
  0x64, 0x6f, 0x5f, 0x71, 0x63, 0x6f, 0x6e, 0x73, 0x74, 0x31, 0x00, 0x00,
  0x02, 0x00, 0x00, 0x00, 0x02, 0x00, 0x00, 0x00, 0x20, 0x00, 0x00, 0x00,
  0x00, 0x00, 0x16, 0x00, 0x1c, 0x00, 0x18, 0x00, 0x17, 0x00, 0x10, 0x00,
  0x0c, 0x00, 0x08, 0x00, 0x00, 0x00, 0x00, 0x00, 0x00, 0x00, 0x07, 0x00,
  0x16, 0x00, 0x00, 0x00, 0x00, 0x00, 0x00, 0x01, 0x14, 0x00, 0x00, 0x00,
  0x40, 0x00, 0x00, 0x00, 0x02, 0x00, 0x00, 0x00, 0x00, 0x00, 0x00, 0x02,
  0x4c, 0x00, 0x00, 0x00, 0x6c, 0xff, 0xff, 0xff, 0x08, 0x00, 0x00, 0x00,
  0x1c, 0x00, 0x00, 0x00, 0x02, 0x00, 0x00, 0x00, 0x00, 0x00, 0x00, 0x00,
  0x00, 0x00, 0x00, 0x00, 0x00, 0x00, 0x00, 0x00, 0x00, 0x00, 0x00, 0x00,
  0x00, 0x00, 0x00, 0x00, 0x02, 0x00, 0x00, 0x00, 0x9f, 0x0d, 0x7a, 0x39,
  0x13, 0x98, 0x89, 0x39, 0x11, 0x00, 0x00, 0x00, 0x74, 0x66, 0x6c, 0x2e,
  0x70, 0x73, 0x65, 0x75, 0x64, 0x6f, 0x5f, 0x71, 0x63, 0x6f, 0x6e, 0x73,
  0x74, 0x00, 0x00, 0x00, 0x01, 0x00, 0x00, 0x00, 0x02, 0x00, 0x00, 0x00,
  0x00, 0x00, 0x16, 0x00, 0x20, 0x00, 0x1c, 0x00, 0x1b, 0x00, 0x14, 0x00,
  0x10, 0x00, 0x0c, 0x00, 0x00, 0x00, 0x00, 0x00, 0x08, 0x00, 0x07, 0x00,
