unsigned char engine_nn_pca_quant_tflite[] = {
  0x1c, 0x00, 0x00, 0x00, 0x54, 0x46, 0x4c, 0x33, 0x14, 0x00, 0x20, 0x00,
  0x1c, 0x00, 0x18, 0x00, 0x14, 0x00, 0x10, 0x00, 0x0c, 0x00, 0x00, 0x00,
  0x08, 0x00, 0x04, 0x00, 0x14, 0x00, 0x00, 0x00, 0x1c, 0x00, 0x00, 0x00,
  0x98, 0x00, 0x00, 0x00, 0x18, 0x01, 0x00, 0x00, 0xb0, 0x22, 0x00, 0x00,
  0xc0, 0x22, 0x00, 0x00, 0x94, 0x3f, 0x00, 0x00, 0x03, 0x00, 0x00, 0x00,
  0x01, 0x00, 0x00, 0x00, 0x10, 0x00, 0x00, 0x00, 0x00, 0x00, 0x0a, 0x00,
  0x10, 0x00, 0x0c, 0x00, 0x08, 0x00, 0x04, 0x00, 0x0a, 0x00, 0x00, 0x00,
  0x0c, 0x00, 0x00, 0x00, 0x1c, 0x00, 0x00, 0x00, 0x3c, 0x00, 0x00, 0x00,
  0x0f, 0x00, 0x00, 0x00, 0x73, 0x65, 0x72, 0x76, 0x69, 0x6e, 0x67, 0x5f,
  0x64, 0x65, 0x66, 0x61, 0x75, 0x6c, 0x74, 0x00, 0x01, 0x00, 0x00, 0x00,
  0x04, 0x00, 0x00, 0x00, 0x68, 0xff, 0xff, 0xff, 0x10, 0x00, 0x00, 0x00,
  0x04, 0x00, 0x00, 0x00, 0x08, 0x00, 0x00, 0x00, 0x6f, 0x75, 0x74, 0x70,
  0x75, 0x74, 0x5f, 0x30, 0x00, 0x00, 0x00, 0x00, 0x01, 0x00, 0x00, 0x00,
  0x04, 0x00, 0x00, 0x00, 0x2e, 0xdd, 0xff, 0xff, 0x04, 0x00, 0x00, 0x00,
  0x0f, 0x00, 0x00, 0x00, 0x6b, 0x65, 0x72, 0x61, 0x73, 0x5f, 0x74, 0x65,
  0x6e, 0x73, 0x6f, 0x72, 0x5f, 0x32, 0x30, 0x00, 0x03, 0x00, 0x00, 0x00,
  0x5c, 0x00, 0x00, 0x00, 0x2c, 0x00, 0x00, 0x00, 0x04, 0x00, 0x00, 0x00,
  0xb8, 0xff, 0xff, 0xff, 0x14, 0x00, 0x00, 0x00, 0x04, 0x00, 0x00, 0x00,
  0x13, 0x00, 0x00, 0x00, 0x43, 0x4f, 0x4e, 0x56, 0x45, 0x52, 0x53, 0x49,
  0x4f, 0x4e, 0x5f, 0x4d, 0x45, 0x54, 0x41, 0x44, 0x41, 0x54, 0x41, 0x00,
  0xdc, 0xff, 0xff, 0xff, 0x13, 0x00, 0x00, 0x00, 0x04, 0x00, 0x00, 0x00,
  0x13, 0x00, 0x00, 0x00, 0x6d, 0x69, 0x6e, 0x5f, 0x72, 0x75, 0x6e, 0x74,
  0x69, 0x6d, 0x65, 0x5f, 0x76, 0x65, 0x72, 0x73, 0x69, 0x6f, 0x6e, 0x00,
  0x08, 0x00, 0x0c, 0x00, 0x08, 0x00, 0x04, 0x00, 0x08, 0x00, 0x00, 0x00,
  0x12, 0x00, 0x00, 0x00, 0x04, 0x00, 0x00, 0x00, 0x13, 0x00, 0x00, 0x00,
  0x6d, 0x69, 0x6e, 0x5f, 0x72, 0x75, 0x6e, 0x74, 0x69, 0x6d, 0x65, 0x5f,
  0x76, 0x65, 0x72, 0x73, 0x69, 0x6f, 0x6e, 0x00, 0x15, 0x00, 0x00, 0x00,
  0x94, 0x21, 0x00, 0x00, 0x8c, 0x21, 0x00, 0x00, 0x74, 0x21, 0x00, 0x00,
  0x24, 0x21, 0x00, 0x00, 0x94, 0x20, 0x00, 0x00, 0x84, 0x1c, 0x00, 0x00,
  0xf4, 0x1b, 0x00, 0x00, 0xe4, 0x13, 0x00, 0x00, 0xd4, 0x12, 0x00, 0x00,
  0xc4, 0x02, 0x00, 0x00, 0xb4, 0x01, 0x00, 0x00, 0xe4, 0x00, 0x00, 0x00,
  0xdc, 0x00, 0x00, 0x00, 0xd4, 0x00, 0x00, 0x00, 0xcc, 0x00, 0x00, 0x00,
  0xc4, 0x00, 0x00, 0x00, 0xbc, 0x00, 0x00, 0x00, 0xb4, 0x00, 0x00, 0x00,
  0x94, 0x00, 0x00, 0x00, 0x74, 0x00, 0x00, 0x00, 0x04, 0x00, 0x00, 0x00,
  0x26, 0xde, 0xff, 0xff, 0x04, 0x00, 0x00, 0x00, 0x60, 0x00, 0x00, 0x00,
  0x0c, 0x00, 0x00, 0x00, 0x08, 0x00, 0x0e, 0x00, 0x08, 0x00, 0x04, 0x00,
  0x08, 0x00, 0x00, 0x00, 0x10, 0x00, 0x00, 0x00, 0x28, 0x00, 0x00, 0x00,
  0x00, 0x00, 0x06, 0x00, 0x08, 0x00, 0x04, 0x00, 0x06, 0x00, 0x00, 0x00,
  0x04, 0x00, 0x00, 0x00, 0x01, 0x00, 0x00, 0x00, 0xeb, 0x03, 0x00, 0x00,
  0x0c, 0x00, 0x18, 0x00, 0x14, 0x00, 0x10, 0x00, 0x0c, 0x00, 0x04, 0x00,
  0x0c, 0x00, 0x00, 0x00, 0x26, 0x24, 0x81, 0x27, 0xa8, 0x48, 0x69, 0x93,
  0x02, 0x00, 0x00, 0x00, 0x02, 0x00, 0x00, 0x00, 0x04, 0x00, 0x00, 0x00,
  0x06, 0x00, 0x00, 0x00, 0x32, 0x2e, 0x31, 0x39, 0x2e, 0x31, 0x00, 0x00,
  0x92, 0xde, 0xff, 0xff, 0x04, 0x00, 0x00, 0x00, 0x10, 0x00, 0x00, 0x00,
  0x00, 0x00, 0x00, 0x00, 0x00, 0x00, 0x00, 0x00, 0x00, 0x00, 0x00, 0x00,
  0x00, 0x00, 0x00, 0x00, 0xae, 0xde, 0xff, 0xff, 0x04, 0x00, 0x00, 0x00,
  0x10, 0x00, 0x00, 0x00, 0x31, 0x2e, 0x31, 0x34, 0x2e, 0x30, 0x00, 0x00,
  0x00, 0x00, 0x00, 0x00, 0x00, 0x00, 0x00, 0x00, 0x98, 0xde, 0xff, 0xff,
  0x9c, 0xde, 0xff, 0xff, 0xa0, 0xde, 0xff, 0xff, 0xa4, 0xde, 0xff, 0xff,
  0xa8, 0xde, 0xff, 0xff, 0xac, 0xde, 0xff, 0xff, 0xe2, 0xde, 0xff, 0xff,
  0x04, 0x00, 0x00, 0x00, 0xc0, 0x00, 0x00, 0x00, 0x41, 0xd1, 0x81, 0x7f,
  0x52, 0x22, 0xa7, 0x7f, 0x4e, 0xab, 0x81, 0x53, 0x8d, 0x7f, 0x3c, 0xdb,
  0x7f, 0xb9, 0x7f, 0x3d, 0x28, 0x81, 0xf1, 0x92, 0xc8, 0x2a, 0x7f, 0xd3,
  0x83, 0x7f, 0x8b, 0x04, 0x81, 0x81, 0xbb, 0xeb, 0x9b, 0x7f, 0x66, 0x89,
  0x03, 0x81, 0xb0, 0xdd, 0x81, 0xc4, 0xa3, 0x7f, 0x06, 0xb9, 0x81, 0xa4,
  0x81, 0x52, 0x7f, 0x2f, 0x47, 0x7f, 0x26, 0x51, 0x7f, 0x12, 0x5b, 0xa6,
  0x81, 0x52, 0x81, 0x93, 0x09, 0x21, 0x7f, 0x51, 0x8b, 0x02, 0x81, 0xe7,
  0x37, 0x7f, 0xca, 0x31, 0x81, 0x61, 0x7f, 0x0a, 0x81, 0x04, 0x08, 0x7f,
  0xee, 0xc3, 0xa7, 0x81, 0x4e, 0x81, 0xc4, 0xd5, 0x8b, 0xf8, 0x81, 0xb7,
  0x20, 0x7f, 0x8a, 0x01, 0x81, 0x81, 0xa8, 0xf8, 0x7f, 0x32, 0x37, 0xb4,
  0x7f, 0x63, 0x0f, 0xb7, 0x7f, 0xf0, 0x7f, 0x42, 0x66, 0x7f, 0xda, 0xfe,
  0x81, 0x02, 0x16, 0xa2, 0x7f, 0x81, 0xb4, 0xdf, 0xd0, 0x11, 0x81, 0x4f,
  0xd9, 0x7f, 0xaf, 0x81, 0x58, 0x82, 0x5c, 0x7f, 0x81, 0x71, 0x3e, 0x83,
  0x05, 0x81, 0x81, 0x08, 0x93, 0x12, 0xab, 0x7f, 0xbe, 0x81, 0x64, 0x81,
  0xda, 0xae, 0x81, 0xba, 0xda, 0x60, 0x4c, 0x7f, 0x84, 0x05, 0x81, 0x33,
  0xc5, 0x7f, 0xb8, 0x81, 0x5a, 0x14, 0x20, 0x7f, 0x81, 0x08, 0x0b, 0xcf,
  0x81, 0x7d, 0xbd, 0x81, 0x6c, 0x7f, 0xe6, 0x1a, 0xae, 0xdf, 0xff, 0xff,
  0x04, 0x00, 0x00, 0x00, 0x00, 0x01, 0x00, 0x00, 0xd1, 0xff, 0xff, 0xff,
  0x04, 0x01, 0x00, 0x00, 0x48, 0xf6, 0xff, 0xff, 0x47, 0xfe, 0xff, 0xff,
  0x5a, 0xfd, 0xff, 0xff, 0xab, 0xff, 0xff, 0xff, 0x7b, 0xeb, 0xff, 0xff,
  0x17, 0xff, 0xff, 0xff, 0xd5, 0xf8, 0xff, 0xff, 0x2e, 0xfe, 0xff, 0xff,
  0x4d, 0xff, 0xff, 0xff, 0x71, 0xfb, 0xff, 0xff, 0xb9, 0xf2, 0xff, 0xff,
  0xce, 0xfd, 0xff, 0xff, 0x26, 0x03, 0x00, 0x00, 0x8a, 0xff, 0xff, 0xff,
  0x45, 0xfe, 0xff, 0xff, 0xcf, 0xfe, 0xff, 0xff, 0x57, 0x00, 0x00, 0x00,
  0x6b, 0xf3, 0xff, 0xff, 0x54, 0xf2, 0xff, 0xff, 0x1b, 0xff, 0xff, 0xff,
  0x2e, 0x01, 0x00, 0x00, 0xff, 0xef, 0xff, 0xff, 0x35, 0xff, 0xff, 0xff,
  0x4e, 0x00, 0x00, 0x00, 0x5e, 0x00, 0x00, 0x00, 0x27, 0xf2, 0xff, 0xff,
  0x28, 0xfe, 0xff, 0xff, 0xa4, 0xfd, 0xff, 0xff, 0xfb, 0xfe, 0xff, 0xff,
  0xd4, 0xfe, 0xff, 0xff, 0x94, 0xfb, 0xff, 0xff, 0x2b, 0xfb, 0xff, 0xff,
  0x5f, 0xff, 0xff, 0xff, 0x22, 0xfc, 0xff, 0xff, 0x1e, 0xed, 0xff, 0xff,
  0x61, 0xf5, 0xff, 0xff, 0xa6, 0xfb, 0xff, 0xff, 0xb0, 0xfd, 0xff, 0xff,
  0x16, 0xfb, 0xff, 0xff, 0x3a, 0xff, 0xff, 0xff, 0x37, 0xf4, 0xff, 0xff,
  0x93, 0xfb, 0xff, 0xff, 0xc2, 0x02, 0x00, 0x00, 0x3f, 0xff, 0xff, 0xff,
  0xd8, 0xfd, 0xff, 0xff, 0x80, 0xef, 0xff, 0xff, 0xf6, 0xf1, 0xff, 0xff,
  0x5f, 0xff, 0xff, 0xff, 0x46, 0xfc, 0xff, 0xff, 0xe0, 0xff, 0xff, 0xff,
  0x17, 0x00, 0x00, 0x00, 0x93, 0xfd, 0xff, 0xff, 0xdd, 0xfb, 0xff, 0xff,
  0x3c, 0xfe, 0xff, 0xff, 0x35, 0xff, 0xff, 0xff, 0x01, 0x02, 0x00, 0x00,
  0xa0, 0x01, 0x00, 0x00, 0x60, 0x01, 0x00, 0x00, 0xf5, 0xfd, 0xff, 0xff,
  0x23, 0xfe, 0xff, 0xff, 0xfd, 0xff, 0xff, 0xff, 0x63, 0xff, 0xff, 0xff,
  0xba, 0xe0, 0xff, 0xff, 0x04, 0x00, 0x00, 0x00, 0x00, 0x10, 0x00, 0x00,
  0x00, 0x00, 0xff, 0x13, 0xff, 0x01, 0xdb, 0x03, 0x07, 0x02, 0x00, 0xc7,
  0xff, 0x07, 0xff, 0xfe, 0x00, 0xfe, 0x02, 0xf1, 0xec, 0x04, 0xed, 0xfb,
  0x02, 0x00, 0x00, 0x00, 0xfa, 0xff, 0xfe, 0xf9, 0x1d, 0x02, 0x00, 0xba,
  0xde, 0x05, 0xfd, 0x00, 0xff, 0xff, 0x01, 0xe5, 0x00, 0x01, 0x07, 0x7f,
  0xfb, 0x00, 0x10, 0x00, 0xeb, 0x06, 0xde, 0x00, 0xff, 0x00, 0xf1, 0x00,
  0xfa, 0xfb, 0xe9, 0x00, 0x04, 0xfe, 0xb5, 0x48, 0xff, 0x00, 0x1e, 0xf4,
  0xd0, 0x03, 0xdd, 0x81, 0xce, 0x1e, 0xfc, 0xfc, 0x06, 0x2e, 0xfe, 0x01,
  0x00, 0x30, 0xed, 0x08, 0xe1, 0xfd, 0xff, 0x03, 0x02, 0x00, 0x40, 0xf1,
  0x12, 0x20, 0xde, 0xd2, 0x12, 0x8b, 0xe9, 0x00, 0x02, 0xfe, 0xba, 0x84,
  0xfd, 0xff, 0xba, 0x38, 0x8e, 0xe6, 0x07, 0x02, 0xfb, 0x2e, 0xe8, 0xf9,
  0xde, 0x01, 0xfa, 0xfe, 0xff, 0x04, 0xfd, 0xfe, 0x00, 0x00, 0xfe, 0x7a,
  0xff, 0xff, 0xfc, 0xfe, 0x02, 0x01, 0xfb, 0x11, 0x01, 0xf9, 0xff, 0x01,
  0xff, 0x36, 0x00, 0x05, 0x01, 0x30, 0xff, 0x0d, 0xf9, 0x01, 0xfc, 0x0c,
  0x00, 0x00, 0x1d, 0x09, 0x08, 0x00, 0xfb, 0x17, 0xfc, 0x0d, 0x03, 0x00,
  0xff, 0x00, 0x02, 0xf9, 0xfe, 0x00, 0x77, 0x76, 0x81, 0xfc, 0x1e, 0x01,
  0x04, 0x0b, 0x10, 0x00, 0xf7, 0x00, 0x03, 0x00, 0x01, 0xfd, 0xff, 0x00,
  0x01, 0x00, 0x14, 0xe7, 0x00, 0x00, 0xf7, 0xfb, 0xf4, 0x02, 0xfd, 0x7f,
  0x1a, 0x02, 0x02, 0xf3, 0x01, 0xf2, 0xff, 0x05, 0x07, 0xf7, 0xf9, 0x11,
  0xfc, 0xff, 0x02, 0x05, 0x01, 0x01, 0xfc, 0x05, 0xe9, 0x05, 0xfb, 0x66,
  0xfd, 0x25, 0xfd, 0x00, 0xfe, 0x00, 0x08, 0x13, 0x03, 0xfd, 0xf8, 0x36,
  0xba, 0xfc, 0x03, 0xfb, 0xef, 0x02, 0x44, 0x01, 0xfb, 0xfc, 0xf4, 0xff,
  0x02, 0x05, 0xef, 0x01, 0xfd, 0xfd, 0x38, 0xfe, 0xf9, 0x00, 0xf4, 0xeb,
  0xfc, 0xfd, 0xd8, 0xe1, 0x58, 0xff, 0xff, 0xfe, 0x02, 0xbd, 0xff, 0xb2,
  0x96, 0xfe, 0xf7, 0x09, 0xe1, 0xfe, 0x00, 0x09, 0xff, 0xfb, 0xda, 0xec,
  0x1c, 0x03, 0xe5, 0x03, 0x00, 0x42, 0xff, 0xfd, 0x02, 0xff, 0x9e, 0x9d,
  0xff, 0xff, 0x81, 0x77, 0xab, 0xe5, 0xfb, 0xff, 0x0f, 0x20, 0x02, 0xfe,
  0xe0, 0x01, 0x33, 0x00, 0xfe, 0x02, 0x0b, 0xff, 0xff, 0x00, 0xf9, 0xf8,
  0xf8, 0x00, 0xea, 0xfa, 0xfa, 0x01, 0x00, 0xe9, 0xff, 0x0d, 0xfe, 0x02,
  0xfe, 0xf1, 0x01, 0xd5, 0xd6, 0xfd, 0xfa, 0xfb, 0x02, 0x00, 0x01, 0x03,
  0x01, 0x00, 0xfa, 0xf2, 0x15, 0xed, 0xfe, 0xf7, 0xed, 0xdc, 0x02, 0xfd,
  0x04, 0xff, 0xd2, 0xe1, 0x00, 0x00, 0xdf, 0x7f, 0x9e, 0xfe, 0x15, 0x00,
  0x04, 0xf1, 0xce, 0x01, 0xff, 0x00, 0x0b, 0x00, 0x02, 0x02, 0x01, 0x00,
  0x03, 0xfc, 0x2f, 0x43, 0x04, 0x02, 0xf4, 0xd9, 0x2d, 0xdf, 0xd4, 0x4e,
  0x22, 0x2e, 0x00, 0xff, 0x06, 0x3e, 0xfc, 0xf4, 0xf4, 0x2c, 0x04, 0xe2,
  0xd3, 0x01, 0xe0, 0xeb, 0x03, 0x03, 0x47, 0xd3, 0x63, 0x08, 0xdc, 0xf1,
  0xdf, 0x77, 0x0c, 0x02, 0x01, 0x02, 0x0d, 0x00, 0xff, 0xf7, 0x1a, 0xd6,
  0x7f, 0xe1, 0x48, 0x04, 0x0c, 0x3a, 0x35, 0x02, 0xd5, 0x01, 0x19, 0x00,
  0x01, 0xe8, 0x08, 0xff, 0xfe, 0xfc, 0xb2, 0xeb, 0xfe, 0x00, 0x02, 0xff,
  0xf3, 0xf6, 0x00, 0x57, 0xdb, 0xef, 0x00, 0xff, 0x00, 0xb8, 0xfd, 0xfd,
  0x01, 0xdc, 0x02, 0x04, 0xfc, 0xff, 0x01, 0xfa, 0x02, 0xfc, 0xbc, 0xf7,
  0x30, 0xeb, 0x02, 0x62, 0xfb, 0xc2, 0xfb, 0xff, 0xfd, 0x00, 0x1f, 0x7f,
  0xff, 0xfd, 0x5d, 0xf2, 0x1c, 0x04, 0xe2, 0xfb, 0xe0, 0xe0, 0x68, 0xfd,
  0xf9, 0x01, 0xec, 0x00, 0x02, 0xfd, 0xde, 0xfe, 0x00, 0x00, 0x04, 0x18,
  0x01, 0x00, 0x02, 0x00, 0x01, 0x03, 0xff, 0xbf, 0x03, 0x03, 0x01, 0x00,
  0x01, 0x16, 0x00, 0x00, 0xff, 0x0d, 0x01, 0xff, 0x02, 0x00, 0x00, 0x02,
  0x00, 0xff, 0x0b, 0xfd, 0x81, 0x02, 0x00, 0xd1, 0xff, 0x02, 0xff, 0x00,
  0x01, 0x00, 0x01, 0x8b, 0x01, 0x01, 0x06, 0x25, 0x0e, 0x00, 0x20, 0x00,
  0x00, 0x2e, 0x9a, 0xff, 0x00, 0xfc, 0x03, 0x00, 0x00, 0x03, 0xfe, 0xff,
  0x02, 0xfc, 0xbf, 0x15, 0x06, 0xfe, 0x11, 0xf9, 0xec, 0x0b, 0xf6, 0x74,
  0xee, 0x81, 0x00, 0xff, 0x00, 0xf8, 0xfc, 0xf5, 0xf0, 0x0c, 0xfe, 0x00,
  0xf7, 0x01, 0xfc, 0xfe, 0x01, 0xff, 0xfa, 0xf5, 0x27, 0x03, 0xfb, 0x0f,
  0x0c, 0xa7, 0xfa, 0x02, 0x03, 0x00, 0xea, 0x70, 0x00, 0xfd, 0x52, 0xc1,
  0x25, 0xf8, 0x28, 0xfd, 0x06, 0x82, 0x65, 0xfa, 0xf7, 0xff, 0x08, 0xff,
  0x00, 0x05, 0x0a, 0xff, 0x00, 0x00, 0xf1, 0x7f, 0x00, 0x00, 0xfe, 0x00,
  0x01, 0x00, 0x00, 0x35, 0xec, 0xff, 0xff, 0x00, 0x00, 0x3f, 0x00, 0x00,
  0xff, 0x40, 0x02, 0x02, 0x00, 0x00, 0x00, 0x02, 0x03, 0xff, 0x30, 0x01,
  0x21, 0x02, 0x00, 0x46, 0xfd, 0xf7, 0x00, 0xff, 0x00, 0x00, 0xff, 0x0c,
  0x00, 0x01, 0x15, 0x46, 0xe1, 0x00, 0x06, 0x00, 0x02, 0x00, 0xff, 0x00,
  0xff, 0x00, 0x08, 0x00, 0x02, 0x02, 0x03, 0x00, 0x00, 0x00, 0xaa, 0x22,
  0x01, 0x00, 0xd2, 0xf6, 0xf5, 0xfc, 0xf2, 0x27, 0xcb, 0xd7, 0xff, 0xff,
  0x00, 0xce, 0x00, 0xef, 0xeb, 0xfa, 0xfd, 0x00, 0xf2, 0x02, 0x00, 0x00,
  0x01, 0x00, 0xda, 0xfa, 0xd9, 0xf1, 0xf6, 0x36, 0xd9, 0x8e, 0xfd, 0x00,
  0x00, 0xff, 0x00, 0xcb, 0x00, 0x00, 0x3e, 0x60, 0x81, 0xf7, 0x02, 0x01,
  0xe0, 0x27, 0x15, 0x00, 0xf4, 0x00, 0xf9, 0x01, 0x01, 0xfd, 0xd4, 0x01,
  0x00, 0xff, 0xd5, 0x24, 0xf4, 0xff, 0x01, 0x01, 0x17, 0x00, 0x00, 0x35,
  0x25, 0xfb, 0x00, 0x00, 0xff, 0x1c, 0xff, 0x01, 0x01, 0x0b, 0xf4, 0x09,
  0x02, 0x02, 0x01, 0x05, 0xf7, 0xfe, 0x11, 0xf8, 0x77, 0x09, 0x01, 0x13,
  0x02, 0x1f, 0x00, 0x03, 0xff, 0xfc, 0x02, 0xfc, 0x02, 0xff, 0x81, 0x5f,
  0xba, 0x00, 0x01, 0x00, 0x07, 0xf7, 0xfb, 0xff, 0x03, 0x00, 0xfb, 0x00,
  0xf8, 0x01, 0x01, 0x00, 0xff, 0x00, 0x04, 0x12, 0x03, 0x00, 0x06, 0xf4,
  0xdd, 0xff, 0xf0, 0x41, 0x2b, 0xd5, 0xfe, 0xfc, 0xfe, 0xf9, 0x00, 0x02,
  0x01, 0x01, 0xf1, 0xfc, 0xee, 0x01, 0x01, 0x01, 0xfe, 0x00, 0xf3, 0xfe,
  0x01, 0xef, 0xef, 0x1c, 0x04, 0xf2, 0xff, 0x01, 0xff, 0xff, 0x07, 0x42,
  0x00, 0xff, 0xcf, 0x7f, 0xec, 0xf4, 0x13, 0x00, 0xe0, 0x0f, 0x28, 0x00,
  0xf1, 0xff, 0xe9, 0x01, 0xfd, 0xfc, 0xe7, 0x00, 0x00, 0x01, 0x0a, 0xf9,
  0xfe, 0x00, 0xf3, 0x00, 0x02, 0x01, 0xff, 0xee, 0x05, 0xff, 0x00, 0x00,
  0x01, 0xfa, 0x00, 0xf0, 0xee, 0x01, 0xff, 0x01, 0xff, 0x00, 0x00, 0x00,
  0xfe, 0x00, 0xfc, 0xff, 0xfc, 0xff, 0x00, 0xf6, 0xf5, 0x1e, 0x02, 0x00,
  0x00, 0x00, 0xec, 0x7f, 0x00, 0x00, 0x0a, 0x1c, 0xef, 0x00, 0xfb, 0x00,
  0xfe, 0x02, 0xf5, 0x01, 0x00, 0x00, 0xfe, 0x00, 0xfe, 0x01, 0xff, 0x00,
  0x00, 0xff, 0x0f, 0xef, 0x03, 0x00, 0xfb, 0xf4, 0x0d, 0xf1, 0xf4, 0x26,
  0xf8, 0x81, 0x00, 0xfc, 0x01, 0xfe, 0xfd, 0xf9, 0xfd, 0x0d, 0x00, 0x04,
  0xf5, 0x01, 0x00, 0xff, 0xff, 0x00, 0xec, 0xf3, 0x2a, 0x00, 0xf4, 0x2f,
  0x01, 0x2b, 0xf6, 0x01, 0x01, 0x00, 0x1a, 0x7b, 0x01, 0xfb, 0xbf, 0xb0,
  0xdc, 0xf8, 0x15, 0xf9, 0xfe, 0xcd, 0x48, 0xfe, 0xf8, 0x00, 0x07, 0x01,
  0x00, 0xfb, 0xff, 0xff, 0x01, 0xfd, 0x13, 0xd0, 0xff, 0x01, 0xf3, 0xfc,
  0x0a, 0xf4, 0xf9, 0x7b, 0x0a, 0x97, 0x02, 0x05, 0x01, 0x03, 0xfe, 0x00,
  0x01, 0xf5, 0x03, 0xfb, 0xff, 0xff, 0x00, 0xfb, 0x01, 0x00, 0x02, 0xff,
  0x36, 0x0a, 0xfe, 0x09, 0xf8, 0xf7, 0xfc, 0x00, 0xff, 0x01, 0x04, 0x7f,
  0x02, 0xfb, 0xdc, 0x48, 0xcd, 0x02, 0xdd, 0xf6, 0x09, 0x8f, 0x51, 0xfe,
  0xfa, 0x00, 0x04, 0x00, 0x02, 0xf6, 0x0b, 0xff, 0x01, 0xf3, 0x3d, 0x27,
  0xfe, 0xff, 0xe5, 0xe3, 0xec, 0xeb, 0xdf, 0xbe, 0x04, 0x3d, 0x03, 0xfd,
  0x00, 0x46, 0xf4, 0x08, 0x00, 0x45, 0x08, 0xfe, 0xdc, 0x00, 0xf1, 0x03,
  0x00, 0x00, 0x4a, 0xe5, 0xd3, 0x01, 0xe5, 0xf2, 0x00, 0xd5, 0x01, 0x00,
  0x03, 0x01, 0xfa, 0x9e, 0x03, 0xf4, 0xc2, 0x3d, 0x81, 0xd8, 0xfe, 0x08,
  0x0f, 0x3d, 0xad, 0xfa, 0xdc, 0xfe, 0x12, 0xff, 0x01, 0xf3, 0x0e, 0x00,
  0x00, 0x00, 0xde, 0x00, 0x00, 0xfc, 0xc5, 0xfc, 0x01, 0xff, 0xfd, 0x25,
  0xfb, 0xfd, 0xfc, 0x00, 0xfe, 0xf8, 0x00, 0x01, 0x02, 0xf6, 0xf4, 0xfd,
  0xfd, 0x01, 0xfc, 0xf9, 0xf9, 0x01, 0xfd, 0xfd, 0xfd, 0x0a, 0xf9, 0xff,
  0xcd, 0xd9, 0xff, 0x01, 0xf5, 0x00, 0x03, 0x29, 0xfc, 0xff, 0x7f, 0xfc,
  0xf9, 0xfb, 0x19, 0x00, 0x0d, 0x00, 0x00, 0x00, 0xfb, 0xff, 0x13, 0x00,
  0xf8, 0xff, 0x06, 0x00, 0xfd, 0x01, 0x01, 0xed, 0xf4, 0x01, 0x05, 0x04,
  0xf0, 0xfc, 0xec, 0xf2, 0xce, 0xb6, 0xfe, 0xfa, 0xfa, 0x56, 0x01, 0x06,
  0xfd, 0x37, 0xfe, 0x08, 0xeb, 0xf5, 0x02, 0x0a, 0xf5, 0xfe, 0x3c, 0xf7,
  0x5f, 0x04, 0xee, 0xcd, 0x04, 0xf0, 0xe3, 0x00, 0x02, 0xfe, 0xda, 0x28,
  0x00, 0xfd, 0xb9, 0x81, 0x50, 0xeb, 0x72, 0xff, 0x06, 0xaa, 0xe0, 0xff,
  0xec, 0x01, 0x04, 0xfd, 0xf4, 0xff, 0x06, 0xff, 0x00, 0x00, 0x0a, 0x09,
  0xff, 0x00, 0xfe, 0x03, 0xfb, 0x05, 0x05, 0x89, 0xfc, 0x15, 0x02, 0x01,
  0xff, 0xde, 0xff, 0xff, 0x02, 0xf5, 0x00, 0x01, 0x05, 0x00, 0x01, 0xff,
  0x00, 0xff, 0xd9, 0x03, 0x81, 0x04, 0x06, 0xe8, 0xff, 0x0a, 0xfc, 0x00,
  0x00, 0x00, 0x03, 0xaf, 0x02, 0x00, 0x14, 0x5d, 0xca, 0x05, 0x1e, 0x03,
  0xf5, 0xdf, 0xb1, 0xff, 0x08, 0xfa, 0x01, 0xff, 0x00, 0x04, 0xf1, 0xff,
  0xfc, 0x00, 0xed, 0x00, 0xf2, 0xfc, 0x0d, 0x09, 0x12, 0xff, 0x04, 0x2f,
  0x0e, 0xf7, 0x01, 0xf4, 0xfe, 0x38, 0x00, 0x02, 0xfe, 0x26, 0x09, 0x03,
  0x05, 0xf9, 0xfe, 0x04, 0xf7, 0xfa, 0x31, 0x15, 0x0d, 0x01, 0x05, 0x21,
  0x05, 0x08, 0xfb, 0xfd, 0xfd, 0xff, 0x10, 0xdf, 0x01, 0x00, 0xdb, 0x4f,
  0x81, 0x08, 0x0c, 0xfd, 0xfa, 0xf4, 0x13, 0x04, 0x05, 0x00, 0x02, 0xfe,
  0xfc, 0xfb, 0xfa, 0xfe, 0x00, 0xff, 0x93, 0xe9, 0xec, 0x02, 0x09, 0xfc,
  0x4e, 0xf6, 0xfb, 0x9e, 0x81, 0xeb, 0xff, 0xfa, 0xfe, 0xe8, 0x00, 0x01,
  0x05, 0xfb, 0xee, 0x00, 0x04, 0xfc, 0x00, 0x03, 0xfd, 0x00, 0xf3, 0xdd,
  0x26, 0x03, 0x03, 0xa2, 0x0c, 0x97, 0xfc, 0x02, 0x00, 0xfe, 0xfc, 0x90,
  0x00, 0xff, 0x9c, 0x5f, 0xa7, 0x00, 0x70, 0xfe, 0xe6, 0xec, 0xbe, 0xff,
  0x07, 0xfe, 0xf9, 0xff, 0xfb, 0xfa, 0xf2, 0x00, 0xff, 0xfd, 0xf0, 0x7f,
  0x02, 0x02, 0xff, 0x02, 0xfc, 0xf1, 0x01, 0x1f, 0xf6, 0x00, 0xfd, 0x08,
  0xfd, 0x40, 0xfd, 0x06, 0x00, 0x3f, 0x01, 0x02, 0xff, 0x02, 0x00, 0x05,
  0x04, 0xff, 0x27, 0xff, 0xf4, 0x00, 0x02, 0xeb, 0x00, 0xe4, 0xf2, 0x01,
  0x03, 0xfe, 0xf7, 0x0a, 0xfc, 0xfc, 0x2d, 0x72, 0xc3, 0x01, 0xf0, 0xfe,
  0x0c, 0x05, 0x1b, 0xfd, 0x06, 0xff, 0xff, 0x02, 0x01, 0xf4, 0x08, 0xff,
  0x01, 0xf8, 0x20, 0xf6, 0x01, 0x00, 0xef, 0xe8, 0x0b, 0xed, 0xe8, 0xf1,
  0x23, 0x19, 0x00, 0x02, 0x01, 0x15, 0xfa, 0xff, 0x05, 0x16, 0x04, 0xfb,
  0xec, 0x00, 0xf3, 0x00, 0x01, 0x00, 0x10, 0xe9, 0x23, 0x02, 0xeb, 0xf0,
  0xfe, 0x13, 0x02, 0x00, 0x02, 0x01, 0x0a, 0x13, 0xff, 0xf8, 0x81, 0x11,
  0xf8, 0xee, 0x2c, 0x05, 0x08, 0x1d, 0xf4, 0x02, 0xea, 0x02, 0x0f, 0x00,
  0x01, 0xf2, 0x09, 0x00, 0xff, 0xfc, 0x16, 0x2b, 0xf5, 0xfc, 0x11, 0xf8,
  0xee, 0x09, 0xff, 0xf5, 0x10, 0x34, 0xff, 0xf2, 0xfd, 0x56, 0xff, 0xf9,
  0xef, 0x56, 0xfe, 0x03, 0xf9, 0xf7, 0xf9, 0x05, 0xf7, 0xfa, 0x4f, 0x01,
  0x81, 0x05, 0xf9, 0x8b, 0x02, 0x14, 0xf3, 0xfe, 0x08, 0xff, 0xc8, 0xaf,
  0xff, 0x02, 0xf3, 0xbc, 0x4c, 0xf5, 0x8a, 0x05, 0x06, 0x41, 0xd7, 0xf5,
  0x00, 0x01, 0x00, 0xfa, 0xf7, 0x07, 0xfe, 0xfd, 0x00, 0x00, 0xe5, 0xe9,
  0x00, 0xfd, 0xfe, 0xfe, 0xfe, 0x07, 0xfe, 0x42, 0x03, 0xff, 0xfa, 0x03,
  0xff, 0xf2, 0x00, 0xe2, 0xdf, 0xfd, 0xf0, 0xfe, 0xfc, 0x00, 0xfd, 0x00,
  0xf8, 0xff, 0xf8, 0xff, 0xfa, 0x02, 0xfd, 0x1c, 0x01, 0xf4, 0xff, 0x00,
  0xfb, 0x00, 0xbc, 0x00, 0xfc, 0x00, 0x81, 0x41, 0xae, 0xfa, 0x15, 0x00,
  0x16, 0x06, 0x07, 0x01, 0xfc, 0x00, 0x14, 0x00, 0xf7, 0x06, 0x0a, 0x00,
  0xff, 0x00, 0x04, 0x1b, 0xf8, 0xfd, 0x02, 0x04, 0x11, 0xff, 0x05, 0x83,
  0xf4, 0x2c, 0x01, 0xf8, 0xff, 0x31, 0x00, 0x00, 0xfe, 0x28, 0x03, 0xfb,
  0x04, 0xfc, 0x01, 0x00, 0xf8, 0xff, 0x22, 0x0d, 0x96, 0x04, 0x05, 0xc4,
  0xfc, 0xfd, 0xfd, 0xff, 0xff, 0x00, 0x03, 0x92, 0x00, 0x01, 0xfb, 0x5f,
  0xf9, 0x03, 0x81, 0xff, 0x00, 0x27, 0x93, 0x00, 0x04, 0xfc, 0x05, 0xff,
  0xf7, 0xff, 0x04, 0xff, 0xff, 0x00, 0xff, 0x7f, 0x00, 0xff, 0xf8, 0x02,
  0xff, 0x01, 0x01, 0x01, 0x1f, 0x09, 0xff, 0x00, 0xff, 0x1e, 0x00, 0xfe,
  0xfe, 0x36, 0x00, 0x01, 0x01, 0xff, 0x00, 0x07, 0xff, 0xff, 0x1c, 0x00,
  0xc9, 0xfe, 0xff, 0x2b, 0xfe, 0x00, 0xfe, 0x00, 0x01, 0x00, 0xfe, 0xa6,
  0x00, 0x01, 0x6d, 0x36, 0xba, 0x00, 0xf3, 0x00, 0x04, 0x11, 0xe0, 0x00,
  0x00, 0xff, 0x01, 0xff, 0xfe, 0x02, 0x01, 0x00, 0x02, 0x00, 0xa5, 0xea,
  0xee, 0x00, 0x10, 0x01, 0x09, 0xf4, 0xfb, 0x41, 0xe2, 0x02, 0x00, 0x00,
  0x02, 0xf9, 0x00, 0x01, 0x06, 0xf4, 0x02, 0xfd, 0xfd, 0xff, 0x00, 0x03,
  0x01, 0x01, 0xf8, 0x02, 0xf9, 0xff, 0xff, 0x46, 0x0c, 0xa5, 0xf1, 0x01,
  0xff, 0xff, 0xfe, 0x29, 0x02, 0x00, 0xe5, 0x7e, 0x81, 0xfd, 0x05, 0xff,
  0xe7, 0x08, 0x19, 0x00, 0xfe, 0xff, 0xf8, 0x00, 0x00, 0xf3, 0xe5, 0x00,
  0xff, 0x00, 0xe8, 0xf0, 0xfd, 0xff, 0x01, 0x02, 0xf5, 0x00, 0x02, 0x51,
  0xec, 0x09, 0x00, 0x01, 0x00, 0xed, 0x00, 0x01, 0x01, 0xf9, 0x02, 0xf0,
  0x01, 0x01, 0x00, 0xf3, 0xfe, 0x00, 0xef, 0x02, 0xf1, 0xf6, 0x00, 0x36,
  0x05, 0xf9, 0x00, 0xfe, 0x00, 0x00, 0x01, 0x20, 0x00, 0x00, 0x99, 0x70,
  0x81, 0x02, 0x08, 0x00, 0x03, 0x04, 0x0f, 0x00, 0x02, 0x00, 0x00, 0x00,
  0x00, 0x00, 0x03, 0x00, 0x00, 0xf0, 0x0f, 0xff, 0xff, 0x00, 0xf3, 0xcc,
  0x08, 0xeb, 0xd1, 0xf0, 0xc2, 0x58, 0x03, 0x01, 0x02, 0x66, 0xef, 0x09,
  0x01, 0x7f, 0x0a, 0xf6, 0xda, 0x01, 0xf5, 0xfe, 0x02, 0x00, 0x50, 0xe3,
  0xd0, 0x03, 0xd3, 0xf4, 0xf7, 0x1c, 0xfc, 0x00, 0x03, 0x01, 0xf3, 0xe8,
  0x02, 0xf1, 0x27, 0x85, 0xb1, 0xd8, 0x34, 0x0a, 0x1a, 0x52, 0xf3, 0xfd,
  0xda, 0x01, 0x17, 0x00, 0x01, 0xf9, 0x14, 0x01, 0xfa, 0x00, 0x05, 0x13,
  0x00, 0x01, 0xf9, 0xf6, 0x22, 0xf0, 0xeb, 0xd9, 0xfe, 0x0f, 0xfd, 0xf4,
  0xfd, 0xeb, 0x00, 0x02, 0x03, 0xe7, 0x05, 0xeb, 0xe9, 0xfd, 0x00, 0xf0,
  0xf0, 0xf5, 0xf7, 0x01, 0xf4, 0xea, 0xed, 0x14, 0x04, 0x10, 0xf9, 0x00,
  0x01, 0x00, 0x23, 0xb8, 0x00, 0xf3, 0x7f, 0x79, 0xa7, 0xe7, 0x09, 0xfd,
  0xff, 0x1b, 0xdf, 0xfe, 0xed, 0xff, 0x00, 0x01, 0xee, 0xfd, 0x00, 0xfb,
  0x02, 0xfe, 0x23, 0xfc, 0xfb, 0x01, 0xe1, 0xf9, 0xf5, 0x08, 0x01, 0x8c,
  0x2a, 0xfa, 0x03, 0xfa, 0xff, 0xfe, 0xfc, 0xfd, 0x04, 0xfb, 0xe1, 0xf2,
  0xfb, 0xfd, 0x03, 0x01, 0x05, 0x01, 0xf4, 0xd4, 0x32, 0x08, 0xfe, 0xc6,
  0xe9, 0x18, 0xf9, 0xff, 0x00, 0xff, 0x11, 0xbb, 0x04, 0xfa, 0xeb, 0x7f,
  0xac, 0xfc, 0x18, 0xf6, 0xf0, 0xed, 0xc0, 0xfa, 0x01, 0xf7, 0xf9, 0xfc,
  0x04, 0x07, 0xec, 0x01, 0x01, 0x00, 0xc5, 0xf8, 0x00, 0x00, 0xbb, 0x01,
  0x05, 0xfe, 0x04, 0x24, 0xee, 0x06, 0xfe, 0xff, 0xfe, 0x8d, 0x00, 0x03,
  0x04, 0xe8, 0x05, 0x06, 0x01, 0xfd, 0xfc, 0xfb, 0x03, 0x02, 0xc3, 0xfb,
  0xe7, 0x06, 0x00, 0x08, 0xcc, 0xc3, 0x00, 0x00, 0xed, 0x01, 0x02, 0x25,
  0xfe, 0x00, 0x7f, 0x63, 0xaa, 0xfb, 0xeb, 0xff, 0x02, 0xf2, 0x2a, 0xff,
  0xfe, 0x00, 0x09, 0x00, 0x02, 0x01, 0xff, 0x00, 0x00, 0x00, 0x40, 0x01,
  0x09, 0x00, 0xd3, 0xe5, 0x02, 0xe5, 0xf2, 0x14, 0x19, 0xf9, 0xfc, 0xee,
  0x04, 0xe4, 0x01, 0xe9, 0xe1, 0xf9, 0xea, 0x00, 0xf3, 0x03, 0x00, 0x02,
  0xf9, 0x00, 0xf2, 0xf8, 0xed, 0xfa, 0xf5, 0xf6, 0xdd, 0x76, 0x04, 0x00,
  0xff, 0x01, 0x18, 0x1b, 0x00, 0x01, 0x42, 0x72, 0x81, 0xf6, 0xe9, 0x02,
  0xf5, 0x10, 0x00, 0x01, 0xf5, 0xfe, 0xf7, 0xff, 0xfb, 0xea, 0xe9, 0x00,
  0x00, 0xff, 0x0f, 0x1b, 0x05, 0x00, 0x07, 0xf2, 0xe7, 0x04, 0x00, 0x1c,
  0x02, 0x08, 0xfb, 0xff, 0x00, 0x0b, 0xff, 0xfd, 0xf5, 0x0b, 0xf3, 0x05,
  0xfe, 0x01, 0x01, 0x00, 0xfc, 0xff, 0x0c, 0xf7, 0xea, 0x01, 0x02, 0xef,
  0x07, 0x12, 0xe9, 0x01, 0x00, 0xff, 0xf6, 0x03, 0x00, 0xff, 0x02, 0x7f,
  0xb8, 0xff, 0xeb, 0x01, 0x01, 0xf7, 0x07, 0x00, 0xfe, 0x00, 0xff, 0x00,
  0xfb, 0x03, 0x01, 0xfd, 0x01, 0x00, 0x04, 0x18, 0x03, 0x00, 0xe0, 0xff,
  0x0b, 0xfe, 0xf7, 0x14, 0x09, 0xfa, 0x00, 0xfd, 0x00, 0xfb, 0x00, 0x01,
  0x00, 0x07, 0xfb, 0xf3, 0xfb, 0x00, 0xff, 0xe8, 0xf9, 0x00, 0xfd, 0x08,
  0xf1, 0x03, 0xfa, 0x0b, 0xeb, 0x0c, 0xff, 0x00, 0x00, 0x00, 0x02, 0xda,
  0xff, 0x00, 0xf1, 0x7f, 0xc5, 0xf9, 0x10, 0x01, 0xee, 0x0b, 0x08, 0x00,
  0xfb, 0x00, 0xfc, 0x00, 0xf8, 0xfb, 0xec, 0x00, 0xff, 0x00, 0x18, 0xfd,
  0xf4, 0xf9, 0xd1, 0xf9, 0x00, 0xd8, 0xf7, 0xd4, 0xfe, 0x03, 0x01, 0xdf,
  0x00, 0xe4, 0x00, 0x07, 0x02, 0xfd, 0x09, 0x11, 0xfb, 0xf7, 0xf4, 0xea,
  0x03, 0x01, 0xe6, 0xf1, 0xf4, 0x07, 0xf9, 0x06, 0xda, 0xe8, 0x02, 0xfb,
  0xff, 0x00, 0x01, 0xcb, 0x00, 0xff, 0x43, 0x46, 0x81, 0xf9, 0x36, 0x01,
  0xf5, 0x0b, 0xc0, 0xff, 0xfa, 0x01, 0x06, 0xfe, 0x03, 0xdf, 0xf3, 0x00,
  0x02, 0x00, 0xd7, 0x17, 0xf0, 0x00, 0x01, 0xfd, 0x07, 0x00, 0xfe, 0x26,
  0xf2, 0xf9, 0xff, 0x00, 0x02, 0xf8, 0x00, 0x01, 0x01, 0x01, 0x01, 0x05,
  0xfd, 0x00, 0x01, 0x00, 0xff, 0x00, 0xf8, 0x02, 0xfe, 0x0f, 0xfc, 0x1f,
  0x01, 0xf6, 0x00, 0x02, 0x00, 0xfd, 0x02, 0x04, 0x01, 0x00, 0x14, 0x72,
  0x81, 0xfb, 0x06, 0x00, 0x02, 0x0b, 0xfe, 0x00, 0xfb, 0x00, 0x01, 0x00,
  0xfe, 0x00, 0x02, 0x00, 0x02, 0xff, 0x1f, 0x0a, 0x03, 0x00, 0xe7, 0xfb,
  0x06, 0x0f, 0x17, 0xf4, 0x13, 0xf1, 0x05, 0xfb, 0x01, 0xd3, 0xfd, 0xfe,
  0x00, 0x07, 0xf4, 0x07, 0x13, 0xfd, 0x04, 0x0f, 0x02, 0x01, 0xe8, 0xff,
  0x81, 0x08, 0x0d, 0x2c, 0xf4, 0x49, 0x07, 0xff, 0xfb, 0x01, 0x1b, 0x53,
  0x07, 0xfe, 0xe7, 0x57, 0xd1, 0x12, 0x9f, 0xfa, 0xe6, 0xaa, 0x29, 0xfe,
  0x0e, 0xf4, 0xf2, 0xfd, 0x04, 0x0b, 0xe5, 0x00, 0x01, 0x00, 0x0b, 0x30,
  0xf1, 0xfe, 0xe3, 0xf9, 0x0a, 0xdd, 0xfa, 0x35, 0x0b, 0xa3, 0x02, 0xeb,
  0x00, 0xe3, 0x00, 0xf9, 0x00, 0xf7, 0x01, 0xf7, 0xfc, 0xf8, 0xff, 0x06,
  0xf3, 0xff, 0xfa, 0xf7, 0x03, 0x01, 0xfe, 0x16, 0xea, 0x16, 0xfd, 0xfc,
  0x02, 0x00, 0x0e, 0xc4, 0x04, 0xfe, 0x5f, 0x0a, 0xb2, 0xfd, 0x7f, 0x00,
  0xfe, 0x90, 0x18, 0xfa, 0xfb, 0x04, 0xfa, 0xfc, 0xf4, 0xef, 0xfa, 0x00,
  0x02, 0x00, 0x1c, 0xf1, 0xff, 0x00, 0x81, 0xf5, 0x10, 0xff, 0xf6, 0xd8,
  0x1b, 0x04, 0xfd, 0x01, 0xfb, 0xeb, 0x00, 0x03, 0x02, 0xee, 0xfd, 0x04,
  0xf7, 0xfe, 0xf6, 0xfa, 0x01, 0x02, 0xe9, 0xfd, 0x0e, 0xfa, 0xf8, 0x1e,
  0x95, 0x02, 0x00, 0xfe, 0xea, 0x02, 0x05, 0x0a, 0xfe, 0xff, 0x4e, 0x38,
  0xd1, 0xf6, 0x07, 0x00, 0x08, 0x0b, 0x37, 0x00, 0xf5, 0xff, 0x09, 0x00,
  0x03, 0x01, 0x03, 0x00, 0x00, 0x01, 0x02, 0x7f, 0xfe, 0x00, 0xf9, 0x01,
  0x02, 0x01, 0x00, 0x32, 0xf4, 0x09, 0xff, 0x02, 0xff, 0x36, 0x01, 0xff,
  0xfe, 0x3d, 0xff, 0x01, 0x00, 0xff, 0xff, 0x03, 0xff, 0xff, 0x3c, 0x01,
  0xf5, 0x03, 0xff, 0x56, 0x01, 0xff, 0x00, 0x00, 0x00, 0x00, 0xfc, 0x28,
  0xff, 0x00, 0x6e, 0x61, 0x86, 0xfe, 0x01, 0x00, 0x02, 0x13, 0x22, 0x00,
  0x00, 0x00, 0x06, 0x00, 0x00, 0x01, 0xfd, 0x00, 0x00, 0x00, 0xff, 0x7f,
  0x00, 0xff, 0xfc, 0x00, 0x02, 0x00, 0x01, 0x08, 0xf4, 0xe8, 0xff, 0x00,
  0x00, 0x39, 0x00, 0x00, 0xff, 0x46, 0xfe, 0x01, 0xff, 0xff, 0x00, 0xff,
  0xfe, 0x00, 0x27, 0x01, 0x01, 0x01, 0xff, 0xf4, 0x00, 0x12, 0x01, 0x00,
  0x00, 0x00, 0xfe, 0x0d, 0x00, 0x00, 0x0b, 0xff, 0x0c, 0xfe, 0x0d, 0x00,
  0x01, 0xec, 0x08, 0x00, 0xff, 0x00, 0x02, 0x00, 0xff, 0x00, 0x03, 0x00,
  0x03, 0x00, 0x0a, 0x08, 0x00, 0x00, 0xf3, 0x02, 0x13, 0xf7, 0xff, 0x15,
  0x14, 0xf9, 0xff, 0x03, 0x02, 0xfe, 0x00, 0xf6, 0xf4, 0x03, 0x01, 0xf4,
  0xfe, 0x00, 0xf9, 0xff, 0x01, 0x01, 0xf8, 0x00, 0x1b, 0x09, 0xff, 0x13,
  0xf6, 0x20, 0xff, 0x01, 0x01, 0x01, 0xf5, 0xfa, 0xfd, 0x01, 0x01, 0x7f,
  0xd0, 0x02, 0xf4, 0x00, 0xfe, 0xf8, 0x34, 0x00, 0xff, 0x01, 0x06, 0x00,
  0x00, 0xf5, 0xf5, 0x01, 0x00, 0xfc, 0x10, 0xd9, 0xff, 0x00, 0x04, 0x01,
  0x05, 0xf6, 0x02, 0xe2, 0x03, 0x03, 0x00, 0xfd, 0x00, 0x81, 0xfd, 0xfd,
  0x01, 0xc5, 0x01, 0xfc, 0x00, 0xfe, 0xff, 0xfb, 0x01, 0xff, 0x9c, 0x01,
  0x0a, 0x04, 0x00, 0xe8, 0x00, 0x0d, 0xf9, 0x00, 0xfd, 0x00, 0x0a, 0x05,
  0x00, 0xfe, 0x3c, 0x32, 0xc4, 0xff, 0xfd, 0x02, 0xf5, 0xff, 0xff, 0xfb,
  0xfe, 0x02, 0xf9, 0x00, 0x00, 0xf4, 0xf7, 0xff, 0xff, 0xf9, 0x04, 0xf3,
  0x01, 0x00, 0xfa, 0x06, 0xf9, 0xff, 0x00, 0xd0, 0x03, 0xff, 0x01, 0xfd,
  0x00, 0x81, 0xfa, 0x04, 0x00, 0xd7, 0x00, 0x00, 0x01, 0x00, 0x00, 0xfb,
  0x01, 0xfe, 0xb3, 0x08, 0xf5, 0x04, 0x01, 0xc4, 0x01, 0x15, 0x02, 0x00,
  0xf2, 0x00, 0x06, 0xe9, 0x01, 0xff, 0x5d, 0x52, 0xa9, 0x03, 0xfd, 0x03,
  0xee, 0x07, 0xf4, 0xfe, 0x01, 0xfa, 0xf6, 0xff, 0x01, 0x03, 0xeb, 0x00,
  0x03, 0xf1, 0x0f, 0x53, 0x00, 0x00, 0xe8, 0x9b, 0x31, 0x92, 0x9c, 0x22,
  0x8b, 0x7f, 0x09, 0x01, 0x03, 0x46, 0xef, 0xed, 0xde, 0xfa, 0x07, 0xe5,
  0xa5, 0xfb, 0xdb, 0xec, 0x08, 0x03, 0xfa, 0xb1, 0xe1, 0x1a, 0x9d, 0x84,
  0xe9, 0x68, 0xf8, 0x00, 0xf5, 0x01, 0x12, 0x54, 0x04, 0xec, 0xf8, 0x34,
  0xa3, 0xa6, 0x2d, 0x14, 0xe0, 0x64, 0x95, 0xff, 0xa1, 0x04, 0xee, 0xfe,
  0x06, 0xa4, 0xe9, 0x01, 0x00, 0x00, 0xfc, 0x0a, 0x01, 0x00, 0x07, 0x0c,
  0x01, 0x01, 0x08, 0x81, 0x11, 0xfe, 0x01, 0x00, 0x00, 0x0c, 0x00, 0xff,
  0x00, 0x0f, 0x05, 0xff, 0x0a, 0x00, 0x00, 0xff, 0x01, 0xff, 0x08, 0x10,
  0xbd, 0xfe, 0x09, 0xda, 0x02, 0xfb, 0xff, 0x00, 0x00, 0x00, 0x07, 0xbe,
  0x01, 0x00, 0x20, 0xf7, 0xb6, 0x09, 0xf2, 0xfd, 0x03, 0xfa, 0xc9, 0xfe,
  0x0a, 0x00, 0x04, 0x00, 0x01, 0xff, 0x03, 0x00, 0x00, 0x00, 0x08, 0x19,
  0xfd, 0x00, 0xff, 0xfe, 0x02, 0xfd, 0x05, 0x11, 0x0b, 0x1d, 0x00, 0xfb,
  0xff, 0x05, 0x00, 0x01, 0x05, 0x03, 0xfe, 0xff, 0x05, 0xfc, 0x00, 0x00,
  0xfb, 0x00, 0xff, 0xf9, 0xa3, 0xff, 0x05, 0xff, 0x01, 0x11, 0x00, 0x00,
  0x00, 0x00, 0x04, 0xec, 0x00, 0xff, 0xf1, 0x00, 0xe5, 0x07, 0x81, 0x01,
  0xf9, 0x08, 0xe6, 0x00, 0x09, 0xfd, 0xfd, 0xfe, 0xfb, 0xfe, 0xf8, 0xff,
  0xf8, 0x00, 0x0f, 0xf1, 0xf9, 0x00, 0xfb, 0x06, 0x06, 0xff, 0xfa, 0x4b,
  0x0c, 0x07, 0x00, 0xeb, 0xf3, 0xf5, 0x01, 0x01, 0x00, 0x00, 0x02, 0xec,
  0xfa, 0xfb, 0x01, 0xf0, 0xf1, 0xf6, 0x02, 0xfe, 0xf3, 0xf5, 0xfe, 0x33,
  0xfa, 0x27, 0xfc, 0xff, 0x03, 0xfd, 0x11, 0x0a, 0x02, 0xf6, 0x13, 0xfd,
  0x81, 0xfb, 0xcf, 0xfa, 0xf8, 0xef, 0x11, 0x00, 0xfa, 0xff, 0xfa, 0xfe,
  0xee, 0x0c, 0xfa, 0xfc, 0x01, 0x00, 0x08, 0x12, 0x01, 0x00, 0xfe, 0x02,
  0xfb, 0x02, 0x05, 0x81, 0x01, 0x15, 0x01, 0xff, 0x00, 0x01, 0x00, 0x01,
  0x00, 0xfe, 0xff, 0x06, 0x01, 0x00, 0x00, 0x02, 0x01, 0x00, 0xfe, 0xfc,
  0xb9, 0x02, 0x02, 0xd8, 0x00, 0x07, 0x01, 0x01, 0x00, 0x01, 0x08, 0x8f,
  0x01, 0x00, 0x23, 0x42, 0xcf, 0x01, 0x24, 0x00, 0xfc, 0x05, 0xa0, 0xff,
  0x02, 0xfc, 0xf9, 0x00, 0x01, 0x03, 0xf8, 0x00, 0x02, 0xfb, 0x30, 0x36,
  0x00, 0x00, 0x04, 0x00, 0x07, 0xfb, 0x01, 0x7f, 0x1b, 0xb1, 0x01, 0x02,
  0x01, 0x13, 0xfd, 0x03, 0x01, 0x04, 0x02, 0xff, 0xff, 0x00, 0xff, 0x03,
  0x04, 0x00, 0x0d, 0x07, 0x3d, 0x07, 0x00, 0x3e, 0x08, 0x12, 0xfd, 0xff,
  0xff, 0x01, 0xf6, 0x75, 0x01, 0xfe, 0x11, 0x2e, 0xd9, 0x06, 0xf5, 0xfb,
  0x07, 0xae, 0x43, 0xfe, 0x02, 0x03, 0x01, 0xff, 0x03, 0xfe, 0x05, 0x00,
  0x01, 0xf6, 0xf6, 0xea, 0x00, 0x01, 0xe1, 0xe8, 0x0a, 0xf1, 0xed, 0x96,
  0x1c, 0x24, 0x00, 0x02, 0x00, 0x29, 0xf6, 0x04, 0x07, 0x1f, 0xfe, 0xfb,
  0xef, 0x00, 0xf8, 0xfd, 0xff, 0x00, 0x0d, 0xf4, 0x07, 0x00, 0xf2, 0xf2,
  0xea, 0x19, 0x04, 0x00, 0x02, 0x01, 0x11, 0x0b, 0x01, 0xf8, 0x81, 0x18,
  0xd4, 0xeb, 0x18, 0x02, 0x06, 0x24, 0xe0, 0x01, 0xe9, 0x01, 0x0b, 0x00,
  0xff, 0xf7, 0x04, 0x00, 0x02, 0x00, 0xaa, 0x0f, 0xe7, 0xff, 0x00, 0x01,
  0x24, 0xfe, 0xfe, 0xe7, 0x00, 0x02, 0x00, 0xff, 0xff, 0x01, 0x00, 0x01,
  0x01, 0x00, 0x03, 0x04, 0xfe, 0x01, 0x02, 0x03, 0xfd, 0x00, 0xf4, 0x01,
  0xf8, 0x0d, 0xfe, 0xf3, 0x03, 0xde, 0x01, 0x02, 0x00, 0xfe, 0x00, 0xe4,
  0x01, 0x00, 0xc6, 0x7f, 0x9d, 0xff, 0xf5, 0x00, 0xfa, 0x22, 0xe1, 0x00,
  0xfd, 0x00, 0xf6, 0x00, 0xfd, 0xff, 0xfc, 0x00, 0xfe, 0x00, 0xeb, 0x05,
  0xfe, 0xfc, 0x92, 0xff, 0x04, 0x03, 0x01, 0x16, 0x1a, 0xfc, 0xfb, 0x02,
  0xfc, 0xf0, 0x00, 0xfe, 0xfe, 0xff, 0xeb, 0x06, 0xfd, 0x00, 0xfb, 0x02,
  0xf8, 0x00, 0xfc, 0x00, 0x7f, 0x05, 0x00, 0x15, 0xa0, 0xf5, 0x02, 0x00,
  0xff, 0x00, 0x00, 0xea, 0xfa, 0xff, 0xf5, 0x05, 0x9b, 0xfa, 0x4b, 0x00,
  0x0c, 0xf7, 0xf1, 0x01, 0xf9, 0x00, 0x0c, 0x00, 0xf7, 0x03, 0x0e, 0x00,
  0x01, 0x01, 0x02, 0x1b, 0xfb, 0xfc, 0xf5, 0x07, 0x13, 0xfe, 0x0b, 0x91,
  0x03, 0x1e, 0x00, 0xff, 0x01, 0x29, 0x00, 0x01, 0x00, 0x29, 0x02, 0xfa,
  0x01, 0xfe, 0x03, 0xfb, 0xf9, 0x00, 0x19, 0x0a, 0xaa, 0x06, 0x04, 0xd2,
  0xf4, 0x21, 0x01, 0x00, 0xfd, 0x00, 0x06, 0xc9, 0x00, 0xff, 0xf6, 0x46,
  0xac, 0x05, 0x81, 0xff, 0x04, 0x2a, 0xa9, 0x01, 0x01, 0xfe, 0x0c, 0x00,
  0xf9, 0x01, 0xff, 0x00, 0x00, 0xff, 0xf7, 0x7f, 0x01, 0x01, 0xf6, 0xf9,
  0x08, 0x00, 0xf9, 0xcb, 0xf0, 0xd0, 0x01, 0xff, 0x01, 0x74, 0x00, 0xfd,
  0xff, 0x4b, 0xfc, 0x00, 0xf6, 0x00, 0xfb, 0xff, 0xff, 0x01, 0x53, 0xf9,
  0x46, 0x01, 0xf8, 0xf9, 0xf8, 0x1f, 0x02, 0x00, 0xfd, 0x01, 0x00, 0xe4,
  0x01, 0x00, 0x0f, 0x0c, 0xf5, 0xf8, 0x25, 0x00, 0x01, 0xd8, 0xff, 0xff,
  0xf8, 0x00, 0x01, 0x00, 0x02, 0xff, 0x00, 0x01, 0x00, 0x00, 0x0a, 0x05,
  0x01, 0x00, 0x0a, 0x01, 0xf4, 0xfe, 0x01, 0x7f, 0x0b, 0x01, 0x00, 0xfe,
  0xff, 0x18, 0x00, 0x02, 0x03, 0x0d, 0x03, 0x01, 0x01, 0x00, 0x00, 0x01,
  0x00, 0x00, 0x05, 0x01, 0xf4, 0xf7, 0x02, 0x75, 0x06, 0x17, 0x00, 0x00,
  0x00, 0x01, 0x00, 0x2d, 0x00, 0xff, 0x3c, 0x51, 0xb4, 0xff, 0x05, 0x00,
  0xfe, 0x01, 0x3c, 0x00, 0x02, 0x00, 0x04, 0x00, 0xff, 0x00, 0xfa, 0x00,
  0x00, 0xfa, 0x14, 0x31, 0x01, 0x01, 0xee, 0x00, 0x1d, 0xf7, 0xfe, 0x44,
  0x23, 0xfa, 0xfe, 0x02, 0x01, 0x10, 0xfd, 0xfd, 0xff, 0x1c, 0x03, 0xf9,
  0x01, 0xff, 0xfc, 0x00, 0x01, 0x00, 0x16, 0xfe, 0x20, 0x05, 0x00, 0x15,
  0xf5, 0x27, 0xfe, 0x00, 0x02, 0x00, 0xf7, 0x2d, 0xfd, 0xfc, 0x35, 0x7f,
  0x92, 0xfe, 0xd9, 0x00, 0x01, 0xfe, 0x21, 0x02, 0x01, 0x01, 0x0a, 0x00,
  0x02, 0xfc, 0x05, 0x00, 0x01, 0xf8, 0x16, 0x05, 0x01, 0x00, 0xef, 0xe2,
  0xf8, 0xf4, 0xe0, 0x15, 0xf2, 0x31, 0x01, 0xfc, 0x01, 0x0d, 0xf7, 0xfa,
  0xfc, 0x24, 0xfb, 0xf7, 0xde, 0x00, 0xfc, 0xff, 0xff, 0x00, 0x15, 0xe2,
  0x28, 0x0b, 0xe7, 0x07, 0xfe, 0x02, 0xfc, 0x01, 0xfc, 0x00, 0x0b, 0x0b,
  0x02, 0xfa, 0x81, 0x2b, 0xef, 0xea, 0x25, 0x02, 0x00, 0x1d, 0x06, 0x01,
  0xe2, 0x00, 0x07, 0x01, 0xff, 0xf8, 0x02, 0x00, 0x01, 0x00, 0x08, 0x27,
  0x00, 0x00, 0x01, 0xff, 0x00, 0x01, 0xfe, 0x8f, 0xfa, 0x02, 0x01, 0x01,
  0x01, 0x0c, 0x00, 0x01, 0x01, 0x19, 0x03, 0x00, 0x00, 0x00, 0x00, 0x01,
  0x01, 0x00, 0x0e, 0x07, 0x9d, 0x02, 0x01, 0xd0, 0x02, 0x0b, 0x00, 0x00,
  0x00, 0x00, 0xf7, 0x81, 0x01, 0x00, 0x12, 0x23, 0xe0, 0x00, 0x27, 0xff,
  0x02, 0x25, 0x9f, 0xff, 0xff, 0xfd, 0x04, 0x00, 0x00, 0x02, 0x01, 0x00,
  0xff, 0x00, 0x0e, 0x5f, 0x07, 0x01, 0x04, 0xf4, 0xff, 0x00, 0x03, 0x90,
  0x1c, 0x13, 0xfd, 0x01, 0xfb, 0x4a, 0x00, 0x00, 0x03, 0x2e, 0xfd, 0x01,
  0x08, 0x01, 0x00, 0x01, 0xfd, 0x00, 0x38, 0xfa, 0xc1, 0xfb, 0x06, 0xcb,
  0x04, 0x18, 0xfd, 0x00, 0x00, 0x01, 0xfd, 0xa7, 0x00, 0x00, 0x5e, 0x7f,
  0xed, 0x03, 0xb9, 0x00, 0x02, 0xec, 0xc2, 0x00, 0x08, 0xff, 0x06, 0x00,
  0xfd, 0xfe, 0x03, 0x00, 0xc6, 0xf0, 0xff, 0xff, 0x04, 0x00, 0x00, 0x00,
  0x00, 0x01, 0x00, 0x00, 0xb0, 0x00, 0x00, 0x00, 0xcd, 0x00, 0x00, 0x00,
  0xa2, 0xfe, 0xff, 0xff, 0x19, 0x00, 0x00, 0x00, 0x7a, 0x00, 0x00, 0x00,
  0xc1, 0xff, 0xff, 0xff, 0x8a, 0xff, 0xff, 0xff, 0xdf, 0x01, 0x00, 0x00,
  0x5c, 0xff, 0xff, 0xff, 0x0e, 0x01, 0x00, 0x00, 0x94, 0xfe, 0xff, 0xff,
  0x15, 0x01, 0x00, 0x00, 0xcb, 0xff, 0xff, 0xff, 0x6d, 0x01, 0x00, 0x00,
  0xe2, 0xff, 0xff, 0xff, 0x27, 0x01, 0x00, 0x00, 0x70, 0x00, 0x00, 0x00,
  0xf2, 0xfe, 0xff, 0xff, 0xbd, 0xff, 0xff, 0xff, 0x16, 0x01, 0x00, 0x00,
  0xa9, 0xff, 0xff, 0xff, 0x26, 0xff, 0xff, 0xff, 0x48, 0x01, 0x00, 0x00,
  0xea, 0xfe, 0xff, 0xff, 0xdf, 0xff, 0xff, 0xff, 0xe5, 0xff, 0xff, 0xff,
  0x7d, 0xff, 0xff, 0xff, 0x1b, 0xff, 0xff, 0xff, 0xe3, 0xfe, 0xff, 0xff,
  0x54, 0x00, 0x00, 0x00, 0xb7, 0xff, 0xff, 0xff, 0xa7, 0xfe, 0xff, 0xff,
  0x15, 0x01, 0x00, 0x00, 0xa8, 0x00, 0x00, 0x00, 0x3e, 0x00, 0x00, 0x00,
  0xb4, 0x00, 0x00, 0x00, 0x1c, 0x00, 0x00, 0x00, 0x43, 0x00, 0x00, 0x00,
  0x93, 0x00, 0x00, 0x00, 0xd1, 0xff, 0xff, 0xff, 0xb9, 0xff, 0xff, 0xff,
  0x0f, 0x01, 0x00, 0x00, 0x26, 0x00, 0x00, 0x00, 0x4b, 0xfe, 0xff, 0xff,
  0x01, 0xff, 0xff, 0xff, 0x92, 0xff, 0xff, 0xff, 0x4f, 0x01, 0x00, 0x00,
  0xa7, 0x00, 0x00, 0x00, 0xe6, 0x02, 0x00, 0x00, 0x22, 0xff, 0xff, 0xff,
  0xfd, 0xff, 0xff, 0xff, 0x1f, 0x01, 0x00, 0x00, 0xaa, 0xff, 0xff, 0xff,
  0x8e, 0xff, 0xff, 0xff, 0xb6, 0xff, 0xff, 0xff, 0x28, 0x00, 0x00, 0x00,
  0xd7, 0xff, 0xff, 0xff, 0x77, 0xfe, 0xff, 0xff, 0xfd, 0xfe, 0xff, 0xff,
  0x51, 0xff, 0xff, 0xff, 0x2a, 0xff, 0xff, 0xff, 0x77, 0x00, 0x00, 0x00,
  0x26, 0xff, 0xff, 0xff, 0x91, 0xfe, 0xff, 0xff, 0xd2, 0xf1, 0xff, 0xff,
  0x04, 0x00, 0x00, 0x00, 0x00, 0x08, 0x00, 0x00, 0x9b, 0xf8, 0xa1, 0xe2,
  0x09, 0x15, 0x0a, 0xb6, 0x01, 0xfe, 0xf5, 0xa7, 0xed, 0xc1, 0xf5, 0x07,
  0x04, 0xd8, 0xc4, 0xf5, 0xe6, 0xe2, 0xb7, 0xed, 0xd8, 0x04, 0x81, 0x01,
  0xeb, 0x04, 0xb1, 0x33, 0xd1, 0x05, 0xb6, 0x03, 0xec, 0xf3, 0xf1, 0x0b,
  0xe4, 0x05, 0x0a, 0xb5, 0xff, 0x0c, 0x10, 0x1c, 0x12, 0xa7, 0xd4, 0xf2,
  0xcc, 0xf7, 0x25, 0x01, 0x8d, 0x02, 0x07, 0xe0, 0x0b, 0x1b, 0xf7, 0x08,
  0x0c, 0xc0, 0x02, 0xf3, 0xaa, 0x25, 0xf1, 0x15, 0x0a, 0xbe, 0xd6, 0xed,
  0x09, 0xcf, 0xe5, 0x81, 0xc9, 0x02, 0x11, 0xe6, 0x08, 0x00, 0x0e, 0xf4,
  0x0d, 0x19, 0xed, 0x03, 0xce, 0x01, 0xfa, 0x1e, 0xde, 0x1f, 0x34, 0xb4,
  0xc4, 0xd8, 0xf5, 0xea, 0x03, 0xf5, 0xa6, 0xd1, 0xf3, 0xf4, 0x0c, 0x0a,
  0xf3, 0x02, 0x0b, 0xf9, 0x01, 0xd0, 0x2e, 0x0a, 0x13, 0x0c, 0xe2, 0xec,
  0xf5, 0x18, 0x13, 0xec, 0x0f, 0xd2, 0xec, 0xff, 0xc0, 0x0e, 0xe6, 0x09,
  0x03, 0x81, 0xed, 0xd6, 0xfa, 0xb1, 0xcd, 0x8c, 0xde, 0x05, 0x1b, 0xc3,
  0x07, 0xfc, 0xf4, 0xdc, 0xfc, 0xf8, 0xfd, 0x36, 0xc0, 0xfb, 0xfc, 0x32,
  0xf0, 0x1f, 0x19, 0xb9, 0xb4, 0xf3, 0x04, 0x32, 0x0c, 0xdb, 0x20, 0xe0,
  0xf4, 0x19, 0x16, 0x2f, 0xe3, 0xfa, 0xf8, 0xfb, 0xf9, 0x01, 0x10, 0xd0,
  0xf7, 0x02, 0xdb, 0xfa, 0xe0, 0x0c, 0xec, 0xee, 0xee, 0xfd, 0x03, 0x0a,
  0x03, 0xdd, 0xff, 0x10, 0x0d, 0x09, 0xe0, 0xf2, 0x13, 0x01, 0xfe, 0x07,
  0x05, 0xe3, 0x1b, 0xfe, 0xe3, 0xfc, 0xc2, 0xd4, 0x09, 0xca, 0x10, 0x12,
  0x08, 0xf1, 0xfa, 0xfc, 0xf8, 0x0b, 0x14, 0x0f, 0x1e, 0xd6, 0x81, 0xf5,
  0x04, 0x9b, 0xff, 0xeb, 0xb8, 0xb5, 0x0c, 0x08, 0x0a, 0xf0, 0xed, 0xab,
  0xf8, 0xee, 0x16, 0x07, 0x0b, 0x08, 0xb3, 0x02, 0xb0, 0x16, 0xf8, 0xfa,
  0xf8, 0xc6, 0x81, 0xf5, 0xe8, 0xfd, 0x02, 0x04, 0xd4, 0x11, 0x05, 0x1c,
  0xe6, 0xef, 0x0d, 0x0c, 0x08, 0xd8, 0xb0, 0xb2, 0xdc, 0xf0, 0xfb, 0x0b,
  0xf5, 0xd8, 0xa5, 0xf6, 0xad, 0xfb, 0xc1, 0xe9, 0xef, 0x26, 0x0d, 0xf4,
  0xdf, 0x0f, 0x12, 0xef, 0x06, 0x16, 0xee, 0xc8, 0x18, 0x03, 0x02, 0xfc,
  0xec, 0xff, 0xc8, 0x8f, 0xe0, 0x05, 0xee, 0xfa, 0xae, 0xe8, 0x22, 0xce,
  0x08, 0xe2, 0xe8, 0x0f, 0x0d, 0x22, 0xee, 0xe6, 0x20, 0x2d, 0x0f, 0xda,
  0xfd, 0x10, 0xbd, 0xb8, 0x39, 0xbf, 0x81, 0xf6, 0x00, 0x53, 0xb5, 0x08,
  0xff, 0xce, 0xfd, 0x08, 0x25, 0x14, 0xf8, 0xec, 0xbd, 0xdc, 0xf0, 0xe3,
  0x00, 0x51, 0x34, 0xc1, 0xff, 0xd5, 0xe9, 0x01, 0xd7, 0x04, 0x0e, 0xa3,
  0xd4, 0xdf, 0xe6, 0xcb, 0xf7, 0xfb, 0xf7, 0xbb, 0x39, 0xf1, 0x18, 0xec,
  0x01, 0xf3, 0x01, 0xd0, 0xff, 0x15, 0xfa, 0xe6, 0x09, 0x8e, 0xfe, 0xc1,
  0x8c, 0x25, 0xec, 0x1b, 0xee, 0xfd, 0xf2, 0xf4, 0x10, 0xd5, 0xcf, 0xe5,
  0xf6, 0x10, 0x0b, 0xdd, 0x2d, 0xec, 0x18, 0x09, 0x0a, 0xdc, 0xe5, 0xe8,
  0x04, 0xf2, 0xe3, 0x0d, 0xb4, 0x15, 0x2b, 0x8a, 0xb5, 0xed, 0xe5, 0x10,
  0xfc, 0x0f, 0xac, 0xd4, 0xfd, 0xf8, 0x0c, 0x11, 0x81, 0xfd, 0x27, 0x1d,
  0xf5, 0xfc, 0x0d, 0xf1, 0x0f, 0xe4, 0xea, 0xb4, 0x01, 0x08, 0x29, 0x02,
  0x05, 0x05, 0x81, 0xce, 0x00, 0xda, 0x05, 0x02, 0xd9, 0x00, 0xfe, 0xfd,
  0x05, 0x04, 0xfa, 0x00, 0xf2, 0xcd, 0xdc, 0xfc, 0xa0, 0xd6, 0x00, 0xb0,
  0xf8, 0xe8, 0xbe, 0xc8, 0xc1, 0xf4, 0xe4, 0xda, 0x41, 0xb3, 0x07, 0x09,
  0x20, 0x00, 0x1b, 0xf0, 0x9e, 0x05, 0x09, 0xec, 0xa0, 0x58, 0xfc, 0xed,
  0x13, 0xcf, 0xcd, 0x52, 0xe5, 0xd2, 0x01, 0xed, 0xd2, 0xca, 0xc0, 0xb1,
  0xbd, 0x10, 0xb2, 0xc2, 0xf6, 0x0a, 0x04, 0xfb, 0xc1, 0xcd, 0xcc, 0x0c,
  0x09, 0xdd, 0xe4, 0xec, 0x0e, 0x02, 0xc5, 0xe3, 0xea, 0xd5, 0x1d, 0x01,
  0x1d, 0xfd, 0x3d, 0xf9, 0xf1, 0x0e, 0xfd, 0x07, 0xc4, 0xff, 0xef, 0xe0,
  0xe3, 0xf8, 0x2c, 0xba, 0xcf, 0xdd, 0xd6, 0x15, 0xfc, 0xed, 0x18, 0xe6,
  0xe2, 0xef, 0x0e, 0x44, 0x81, 0x06, 0x12, 0x17, 0x06, 0xf3, 0xf8, 0x0e,
  0x1d, 0x17, 0xcc, 0xf7, 0xd3, 0xca, 0x10, 0xee, 0xfb, 0x81, 0x05, 0xfe,
  0xa7, 0xd8, 0x11, 0x02, 0xfa, 0x8a, 0x02, 0xf0, 0x21, 0xb5, 0xfa, 0x95,
  0xd5, 0xda, 0x19, 0xa6, 0x53, 0x0a, 0x1c, 0xd0, 0x15, 0xe8, 0xfa, 0x8c,
  0x04, 0xda, 0xd5, 0x0d, 0xd2, 0x0f, 0x03, 0xf8, 0x1c, 0xc1, 0x07, 0x3e,
  0x1d, 0xdb, 0x4d, 0xf5, 0x0e, 0xd4, 0x13, 0x16, 0xca, 0x00, 0x46, 0x2a,
  0x2e, 0xda, 0x22, 0x13, 0x0d, 0x1a, 0x04, 0xf7, 0xe8, 0xe6, 0x15, 0x36,
  0xe5, 0x0e, 0xf5, 0xf9, 0x1e, 0xeb, 0x02, 0xff, 0x09, 0x02, 0xb7, 0x01,
  0x12, 0x06, 0xe5, 0x05, 0xe1, 0xd3, 0x08, 0x06, 0xd8, 0xec, 0xfb, 0x81,
  0xfe, 0xe8, 0x18, 0xe2, 0xd6, 0x1a, 0xf6, 0xf2, 0xf3, 0x01, 0x0b, 0xcf,
  0x1f, 0xe3, 0xd2, 0x15, 0xf1, 0xc6, 0x24, 0xdc, 0xb7, 0xd0, 0x0d, 0xf8,
  0x09, 0xcb, 0xee, 0xaa, 0x03, 0xb9, 0x02, 0x1b, 0x18, 0xe0, 0xc5, 0xfe,
  0xc0, 0x09, 0x01, 0xf4, 0xae, 0x18, 0xfa, 0x04, 0x0a, 0xad, 0x0f, 0xc9,
  0x04, 0x16, 0xc3, 0xd4, 0xf6, 0xfc, 0x81, 0xff, 0xf6, 0x08, 0x08, 0x0d,
  0x25, 0xe1, 0x15, 0xef, 0x07, 0xfa, 0x0b, 0xd3, 0xfb, 0x2a, 0xe6, 0x2d,
  0xcb, 0x15, 0xd3, 0xd6, 0x1f, 0xf2, 0x08, 0x05, 0xf7, 0xf2, 0x08, 0xc7,
  0xcb, 0xf1, 0xe2, 0x1c, 0xd5, 0xae, 0xfe, 0xc7, 0xe9, 0xf9, 0x13, 0x04,
  0x0f, 0x18, 0xf8, 0xeb, 0x00, 0x14, 0xf4, 0xca, 0xf2, 0xf1, 0x00, 0xea,
  0xf8, 0x01, 0xdc, 0x06, 0xfc, 0xf6, 0xe6, 0xfa, 0x81, 0xf3, 0xe6, 0xcf,
  0xe1, 0x25, 0xe2, 0xd6, 0xc9, 0xc5, 0xae, 0xf9, 0x09, 0xdb, 0xd1, 0xd5,
  0xf6, 0xde, 0xee, 0xd7, 0xdf, 0xfc, 0xe1, 0xe3, 0xbd, 0xe9, 0xd5, 0x8f,
  0xcd, 0xf1, 0xeb, 0xb6, 0xe1, 0xc1, 0xce, 0xfb, 0xe6, 0xf2, 0xf2, 0xd9,
  0xef, 0xf4, 0x03, 0xc4, 0xde, 0xc6, 0xe7, 0xb7, 0xf9, 0xc7, 0xe4, 0xdf,
  0xe5, 0xc3, 0x06, 0xe0, 0xd4, 0xb5, 0x05, 0xe8, 0xf7, 0xf8, 0xe4, 0xf6,
  0xb4, 0x0f, 0xec, 0xfc, 0x04, 0xe3, 0x08, 0xfe, 0x18, 0x14, 0x13, 0xeb,
  0x09, 0x0f, 0xff, 0xf9, 0xc4, 0xc0, 0xef, 0x09, 0xdc, 0xf4, 0x04, 0xdd,
  0xdc, 0xc7, 0xf1, 0x38, 0xeb, 0xf9, 0x13, 0xda, 0xde, 0xfb, 0x81, 0x37,
  0xd7, 0x03, 0x10, 0x1c, 0xed, 0xef, 0x02, 0x03, 0x00, 0x07, 0x9c, 0xf0,
  0xe4, 0xe1, 0x23, 0xe7, 0x81, 0x4a, 0xf3, 0xf7, 0x89, 0xcd, 0xe0, 0xf9,
  0x2b, 0x82, 0xf8, 0xcc, 0xf0, 0x24, 0xc3, 0xd1, 0xd5, 0xd9, 0xe3, 0x0a,
  0x29, 0x08, 0x33, 0xf3, 0x18, 0x1e, 0x05, 0xd1, 0xde, 0x00, 0xf4, 0x0b,
  0xca, 0xd2, 0x0b, 0xb0, 0x9c, 0xab, 0x98, 0x28, 0x02, 0xae, 0x31, 0xdb,
  0xca, 0x00, 0x41, 0x0d, 0xcc, 0x00, 0xf4, 0xdf, 0x11, 0xde, 0x2f, 0x12,
  0x06, 0x2d, 0xbb, 0xf1, 0xf2, 0xec, 0xcb, 0xde, 0x15, 0x81, 0xf7, 0xdb,
  0x84, 0x2b, 0xf0, 0x30, 0x2f, 0xdc, 0xf4, 0xea, 0x24, 0xe3, 0xb6, 0xa5,
  0xe7, 0xb5, 0xd5, 0xf8, 0x1a, 0xa7, 0x39, 0x1f, 0x38, 0xd1, 0xf5, 0xd8,
  0x0c, 0xe5, 0xd2, 0xf3, 0xd7, 0x31, 0xee, 0xa6, 0xcb, 0xd1, 0xe4, 0x3f,
  0x08, 0x25, 0x61, 0xe2, 0xd9, 0xcc, 0xf3, 0xe7, 0xca, 0x13, 0x11, 0x66,
  0x01, 0xf2, 0x3a, 0xc7, 0xea, 0xd2, 0xb8, 0xb6, 0xd9, 0xeb, 0x18, 0xf8,
  0x09, 0x07, 0xd7, 0xb7, 0x01, 0xd9, 0x1d, 0xde, 0xd4, 0x01, 0xfe, 0xe0,
  0xfe, 0xe9, 0x10, 0x05, 0x01, 0x1d, 0xd1, 0xfd, 0xe5, 0xf2, 0x02, 0x04,
  0x0f, 0x08, 0xab, 0xe9, 0xdc, 0xb3, 0xde, 0x24, 0xfb, 0x81, 0x03, 0x0a,
  0x01, 0x14, 0x02, 0xfb, 0xbd, 0x02, 0x03, 0xe2, 0xfb, 0x09, 0x11, 0xf4,
  0x0f, 0xd8, 0xe5, 0x09, 0xdc, 0xfd, 0x10, 0x04, 0xc7, 0xe6, 0xfd, 0xf6,
  0xf6, 0x04, 0xd5, 0xe2, 0xc7, 0x2b, 0x00, 0x01, 0x22, 0xbb, 0x06, 0xd0,
  0x0c, 0xfd, 0xd4, 0xe6, 0x09, 0xff, 0x81, 0xfd, 0xf8, 0xda, 0x0c, 0x04,
  0x1f, 0xf6, 0x1a, 0xdf, 0xff, 0xe4, 0x17, 0x3a, 0xc9, 0x21, 0xe5, 0xf3,
  0xde, 0xe8, 0x1b, 0xd3, 0x23, 0xd5, 0xed, 0x2b, 0xea, 0xe0, 0x0c, 0xdc,
  0xe9, 0xf7, 0xfb, 0xd7, 0xef, 0xfc, 0xf9, 0xfd, 0xe0, 0xe8, 0xd1, 0xf4,
  0x0d, 0xe4, 0xe6, 0xe6, 0xd1, 0x08, 0xfc, 0xd3, 0xf8, 0x24, 0xf9, 0x28,
  0x0b, 0x07, 0x1b, 0x4b, 0x1d, 0x03, 0x20, 0x12, 0x1c, 0x14, 0x3d, 0xf8,
  0xe8, 0x11, 0x1d, 0xd7, 0x3d, 0x32, 0xe5, 0xe7, 0x24, 0x11, 0x46, 0x09,
  0x0f, 0x1f, 0x03, 0x18, 0x03, 0x20, 0x2c, 0x0f, 0xdf, 0x1e, 0xfb, 0xff,
  0xed, 0xd8, 0x22, 0x0c, 0x10, 0xf0, 0x00, 0x29, 0x32, 0xfb, 0x19, 0x81,
  0x03, 0xf5, 0x28, 0x00, 0x1d, 0x28, 0xfb, 0xff, 0xe1, 0x3b, 0x0e, 0x2f,
  0xcb, 0xb0, 0xf9, 0xcf, 0x36, 0x3c, 0x0b, 0xaf, 0xf6, 0xf9, 0x0a, 0xee,
  0xfe, 0xcc, 0xf6, 0xb0, 0xa9, 0xcc, 0x01, 0xb7, 0xc3, 0xc1, 0xe7, 0xc5,
  0xe2, 0xa0, 0x0a, 0xe1, 0x09, 0xda, 0xd5, 0xe0, 0xe1, 0xd8, 0xf9, 0xfa,
  0xa5, 0xd3, 0xcd, 0x08, 0xd4, 0xbb, 0x04, 0x02, 0x10, 0x04, 0x81, 0xd0,
  0xd9, 0xb0, 0xc1, 0xb6, 0xda, 0xbc, 0xfa, 0xfc, 0x00, 0x1d, 0x1a, 0xfe,
  0xfb, 0xe2, 0xd7, 0x0c, 0x9d, 0x0f, 0xba, 0xf8, 0x04, 0xf5, 0x26, 0x18,
  0xf1, 0x02, 0x01, 0xce, 0xd7, 0xc5, 0xd2, 0xfe, 0x02, 0x33, 0xba, 0x16,
  0xf8, 0xec, 0x0e, 0xf9, 0x17, 0x0f, 0x81, 0xdf, 0xcf, 0xf8, 0xdd, 0x1d,
  0x2f, 0x04, 0x16, 0xdc, 0xdb, 0xb4, 0xfb, 0xee, 0xff, 0xfb, 0xef, 0xdd,
  0xf0, 0xf5, 0x19, 0x22, 0x09, 0x99, 0xb0, 0x04, 0xeb, 0xed, 0x1a, 0xee,
  0xa4, 0xee, 0xfa, 0xa2, 0x11, 0x1f, 0xd9, 0xd4, 0x06, 0x00, 0xfb, 0x0c,
  0x37, 0xd0, 0xd6, 0xf0, 0x14, 0xf6, 0xfe, 0xdc, 0x06, 0xf7, 0x1a, 0xf2,
  0xe7, 0xc1, 0x46, 0xf4, 0xdb, 0x04, 0x81, 0xfb, 0xde, 0x0e, 0x1c, 0xfe,
  0xf0, 0xa0, 0xd6, 0xe3, 0xad, 0x12, 0x13, 0x31, 0x38, 0x89, 0xd5, 0xd6,
  0x0a, 0xda, 0x92, 0xb4, 0x04, 0xb9, 0xfb, 0x24, 0xfc, 0x04, 0x0b, 0xe0,
  0x1b, 0xe8, 0xcf, 0x83, 0xfe, 0x1a, 0xf0, 0xe9, 0xa5, 0x26, 0xf2, 0x03,
  0xd2, 0x0c, 0xfd, 0x06, 0x01, 0xcd, 0x00, 0xc4, 0xf7, 0x07, 0xcf, 0xf2,
  0x06, 0xfe, 0xcb, 0x06, 0x04, 0x17, 0x05, 0x0a, 0xfe, 0xfe, 0x07, 0xef,
  0xff, 0x0a, 0x00, 0xf9, 0xec, 0x1d, 0xe3, 0x03, 0xf2, 0xd6, 0xf7, 0xde,
  0x13, 0xec, 0x09, 0xfe, 0xef, 0x09, 0x0b, 0xca, 0xee, 0xdf, 0x8f, 0x81,
  0xf9, 0xf5, 0xf1, 0x0d, 0xfc, 0xfe, 0x02, 0x14, 0xfe, 0xea, 0xfd, 0xe8,
  0xe2, 0xf1, 0xdc, 0xe3, 0xf8, 0xc1, 0x02, 0xd3, 0x81, 0x20, 0x02, 0xfd,
  0x27, 0x8e, 0x08, 0xf5, 0x8f, 0xbe, 0xe1, 0xa8, 0xc4, 0x07, 0xdf, 0xd2,
  0x23, 0x08, 0xc3, 0x00, 0x0b, 0x14, 0xf8, 0x13, 0xc8, 0xd1, 0xef, 0x23,
  0xcb, 0x06, 0x54, 0x9b, 0xcc, 0xef, 0xfc, 0x2a, 0xf5, 0xd0, 0x10, 0xf5,
  0x02, 0x03, 0x01, 0x2f, 0xa2, 0x01, 0x18, 0x10, 0x18, 0xda, 0x26, 0xfa,
  0xfb, 0x1b, 0x0d, 0xfb, 0x01, 0xef, 0x1b, 0x08, 0xd6, 0xc1, 0x0b, 0xb9,
  0x3b, 0x38, 0x21, 0xd2, 0xf2, 0xef, 0x06, 0xd8, 0xfb, 0xf9, 0xee, 0xd0,
  0xba, 0xce, 0x11, 0xf2, 0xe2, 0xaa, 0xef, 0xd1, 0xf2, 0xa2, 0x1b, 0xe0,
  0x13, 0xb0, 0xcb, 0xec, 0xe4, 0xda, 0xf7, 0xe0, 0x9d, 0xbb, 0xa5, 0x1a,
  0xc1, 0x90, 0x0d, 0x0c, 0x11, 0xfb, 0x90, 0x96, 0xcc, 0x81, 0xae, 0xbd,
  0xc5, 0xc8, 0x0a, 0xf9, 0x11, 0x33, 0x19, 0xf4, 0x01, 0xf6, 0xd3, 0x18,
  0xf4, 0x25, 0x02, 0xe8, 0x05, 0xf6, 0xeb, 0xff, 0xe4, 0x00, 0x0a, 0x27,
  0x81, 0xf8, 0xf1, 0x06, 0x03, 0x26, 0xaf, 0xe2, 0xd8, 0xf8, 0xef, 0x11,
  0x08, 0xee, 0xd0, 0xfb, 0x46, 0xd4, 0xff, 0x3a, 0xd2, 0xf4, 0xf0, 0x0b,
  0xd5, 0x43, 0x06, 0xc3, 0x03, 0x1a, 0xd3, 0x12, 0x13, 0xfb, 0xfe, 0xe8,
  0x31, 0x03, 0xe9, 0x8a, 0xe5, 0xf5, 0x20, 0xe2, 0x86, 0xdf, 0x07, 0xfb,
  0x04, 0x17, 0xec, 0x0e, 0x06, 0x03, 0x87, 0xc2, 0x0a, 0xf2, 0x1f, 0x13,
  0xdb, 0x00, 0x05, 0x08, 0xd9, 0xff, 0x00, 0xff, 0x06, 0x45, 0xbf, 0xe9,
  0xa5, 0xb2, 0xfb, 0xfe, 0x43, 0xd0, 0xc2, 0xdf, 0xaf, 0xd9, 0xfc, 0xba,
  0x7f, 0xae, 0x05, 0x07, 0x0e, 0x1e, 0x3e, 0x9c, 0xf3, 0xf5, 0xf8, 0xa1,
  0x22, 0x0c, 0x06, 0xde, 0xea, 0x01, 0xaa, 0x00, 0xb3, 0xfe, 0x3a, 0xd1,
  0xca, 0xdf, 0x17, 0xde, 0x05, 0x06, 0xe7, 0xfa, 0xa7, 0x0d, 0xfb, 0xe1,
  0x0b, 0xc2, 0xd7, 0x20, 0x04, 0xfb, 0xda, 0xec, 0x04, 0xd7, 0xe9, 0xfa,
  0xf9, 0xd8, 0xfc, 0xea, 0x11, 0xf5, 0x07, 0xec, 0x16, 0xea, 0x92, 0xfd,
  0xc4, 0xb7, 0xfe, 0x7f, 0x09, 0x86, 0x3b, 0x2b, 0xcd, 0xe4, 0xff, 0x29,
  0x0e, 0x22, 0x09, 0xc6, 0xdf, 0x1a, 0x26, 0x09, 0x2b, 0x02, 0x16, 0x0f,
  0xe7, 0xea, 0xde, 0x19, 0x04, 0xea, 0x1c, 0xec, 0x06, 0xec, 0x07, 0xe5,
  0xf6, 0xc0, 0xe4, 0x05, 0xbe, 0xef, 0xed, 0x0d, 0x04, 0x0b, 0xff, 0xc4,
  0x16, 0xb3, 0x1d, 0xd9, 0xf6, 0xdd, 0xdf, 0xc5, 0x0d, 0x0b, 0xe8, 0xd4,
  0xf8, 0xef, 0xee, 0xde, 0xf8, 0x14, 0x0c, 0xf9, 0xd3, 0xe8, 0xdc, 0x02,
  0x14, 0xe0, 0xe9, 0xe0, 0x05, 0x01, 0xf7, 0xfd, 0xdb, 0x0d, 0x81, 0x8e,
  0xed, 0xea, 0x1a, 0xf7, 0x08, 0xfb, 0x1b, 0xf3, 0x0a, 0xdc, 0xe4, 0x03,
  0xf7, 0x0b, 0xf0, 0x16, 0x0a, 0x05, 0xd3, 0xa6, 0x0a, 0xcf, 0x1d, 0x07,
  0xbd, 0x00, 0xf6, 0xfc, 0xf7, 0x06, 0x04, 0xfd, 0xfd, 0x22, 0xbd, 0xfc,
  0xa1, 0xeb, 0x03, 0x04, 0x17, 0xf7, 0xae, 0xd6, 0xd0, 0xf3, 0xe0, 0x36,
  0x25, 0x8e, 0x08, 0x0b, 0x07, 0xf9, 0x34, 0xf2, 0x81, 0x07, 0x06, 0xc9,
  0xf3, 0x01, 0x09, 0xfb, 0x0e, 0xe7, 0xf2, 0x31, 0xc1, 0xf7, 0x24, 0x02,
  0xc3, 0xbe, 0x06, 0xd2, 0x11, 0x1b, 0xb1, 0xf1, 0xdb, 0x0b, 0xe4, 0xe8,
  0xf7, 0x08, 0xe0, 0xf2, 0xef, 0x00, 0x00, 0xf0, 0xf2, 0xec, 0xe5, 0x02,
  0xfd, 0x08, 0xb6, 0xfe, 0xee, 0xf1, 0x01, 0xf9, 0x26, 0x03, 0x81, 0xfb,
  0xf7, 0xf1, 0xd7, 0xd3, 0x11, 0xec, 0xde, 0xe8, 0x16, 0x1e, 0x0a, 0x09,
  0xee, 0x00, 0x05, 0xea, 0xfe, 0x04, 0x97, 0x11, 0x23, 0xed, 0xdb, 0xfa,
  0xed, 0xfd, 0x18, 0xfe, 0xb2, 0x08, 0xff, 0xf0, 0x04, 0x11, 0xfa, 0x04,
  0xa3, 0x17, 0xc1, 0xd9, 0x0c, 0x01, 0x19, 0xaf, 0xf2, 0x01, 0xf5, 0x95,
  0xec, 0xbd, 0xec, 0x04, 0x00, 0x19, 0xb5, 0xfe, 0xef, 0xf2, 0xe9, 0xf2,
  0x1c, 0x05, 0x81, 0xf4, 0xd2, 0xe2, 0x0e, 0x0a, 0xf3, 0xe6, 0xda, 0x02,
  0x02, 0xed, 0x03, 0x2a, 0xe8, 0xfe, 0x09, 0xc5, 0xfc, 0xff, 0xfe, 0x20,
  0x1f, 0xc2, 0xe1, 0xfc, 0xfd, 0x04, 0x27, 0xff, 0x9f, 0xfc, 0x02, 0xef,
  0xf8, 0x25, 0xe0, 0xf6, 0xde, 0xf9, 0xff, 0xff, 0x04, 0x00, 0x00, 0x00,
  0x80, 0x00, 0x00, 0x00, 0xe2, 0xfe, 0xff, 0xff, 0x0f, 0x00, 0x00, 0x00,
  0xb8, 0xff, 0xff, 0xff, 0x6b, 0xff, 0xff, 0xff, 0x7d, 0x01, 0x00, 0x00,
  0xf9, 0xff, 0xff, 0xff, 0xba, 0xfe, 0xff, 0xff, 0x7a, 0xff, 0xff, 0xff,
  0x0f, 0x02, 0x00, 0x00, 0xeb, 0xff, 0xff, 0xff, 0x65, 0x00, 0x00, 0x00,
  0x5f, 0x01, 0x00, 0x00, 0x1c, 0xfe, 0xff, 0xff, 0xee, 0x00, 0x00, 0x00,
  0x8a, 0x00, 0x00, 0x00, 0x3a, 0xff, 0xff, 0xff, 0x8c, 0xff, 0xff, 0xff,
  0x38, 0x00, 0x00, 0x00, 0x70, 0xf5, 0xff, 0xff, 0x20, 0xff, 0xff, 0xff,
  0x27, 0xff, 0xff, 0xff, 0x90, 0x00, 0x00, 0x00, 0x2b, 0x01, 0x00, 0x00,
  0x8d, 0x00, 0x00, 0x00, 0xc8, 0xfd, 0xff, 0xff, 0xba, 0x01, 0x00, 0x00,
  0x42, 0x01, 0x00, 0x00, 0x9c, 0xff, 0xff, 0xff, 0xfe, 0xfd, 0xff, 0xff,
  0xbc, 0xff, 0xff, 0xff, 0x6e, 0xff, 0xff, 0xff, 0x68, 0x00, 0x00, 0x00,
  0x6a, 0xfa, 0xff, 0xff, 0x04, 0x00, 0x00, 0x00, 0x00, 0x04, 0x00, 0x00,
  0x43, 0xfb, 0xb7, 0xed, 0x03, 0xce, 0xec, 0x10, 0xd6, 0x1c, 0xf4, 0x0d,
  0x0c, 0xd1, 0xb5, 0x81, 0xdb, 0x0d, 0xf6, 0x11, 0xf6, 0x18, 0xec, 0x28,
  0x19, 0xf8, 0xee, 0xf2, 0xfa, 0xec, 0x0a, 0x25, 0x54, 0xba, 0x81, 0xc2,
  0x1c, 0xaf, 0xc0, 0x2e, 0xf2, 0x59, 0xa7, 0x3f, 0x1a, 0xdc, 0xc1, 0xc4,
  0xfa, 0xf1, 0xf6, 0x68, 0x09, 0x15, 0xe5, 0xc8, 0xbf, 0xd8, 0xe8, 0xf3,
  0x0d, 0xd8, 0x61, 0x1a, 0x0b, 0xf5, 0x30, 0xef, 0x0a, 0x01, 0x03, 0xf0,
  0xd8, 0xf0, 0xdb, 0x2c, 0xed, 0x22, 0x24, 0x33, 0xf5, 0xb9, 0x81, 0xf1,
  0xf4, 0x1b, 0x1e, 0xcc, 0x1d, 0xe1, 0xf6, 0x1d, 0xf5, 0xdf, 0xcf, 0xfe,
  0x5c, 0xcb, 0xd6, 0x04, 0x05, 0x1b, 0xd7, 0xf0, 0xe6, 0x18, 0xe9, 0x20,
  0x0f, 0xf9, 0xb8, 0xc3, 0x23, 0xe5, 0xf2, 0x24, 0x26, 0xfe, 0x09, 0xf7,
  0xf3, 0x04, 0xfe, 0xf3, 0x00, 0xfe, 0x4a, 0x81, 0xb2, 0x2c, 0x2b, 0xff,
  0xd2, 0x2c, 0x0c, 0xc7, 0x1b, 0x0d, 0x05, 0x28, 0xdf, 0x0e, 0x1f, 0x3b,
  0xb8, 0x1a, 0xf1, 0x81, 0x9a, 0x43, 0x54, 0x17, 0xc8, 0x05, 0xe1, 0xf5,
  0x85, 0xd0, 0xa7, 0xb0, 0x1c, 0xd0, 0xae, 0xac, 0x1d, 0xde, 0xe3, 0xfa,
  0x81, 0x04, 0xdd, 0xf4, 0x07, 0xef, 0x9a, 0xdf, 0x07, 0x0d, 0xbf, 0x00,
  0xe5, 0xf1, 0x05, 0xba, 0xfd, 0xe5, 0xe0, 0x0d, 0xe6, 0xf2, 0x2d, 0xda,
  0xa9, 0xcd, 0x02, 0xed, 0x04, 0x34, 0x12, 0x12, 0xba, 0xd9, 0xc6, 0x17,
  0x09, 0xe2, 0x17, 0xc0, 0x81, 0xfe, 0xdd, 0xe2, 0x0d, 0x00, 0xf6, 0xdd,
  0xea, 0x03, 0xf2, 0x0e, 0xcb, 0xdd, 0x86, 0x48, 0x2f, 0xf3, 0xdd, 0xfd,
  0xf8, 0xf4, 0xeb, 0xde, 0xdc, 0xb8, 0x15, 0xa8, 0xf4, 0xb9, 0x81, 0xdf,
  0x04, 0xe3, 0xe3, 0x0e, 0xf0, 0xfc, 0xfb, 0x0f, 0x23, 0xea, 0xec, 0x16,
  0xbf, 0xeb, 0x2b, 0x02, 0xd8, 0xed, 0xfd, 0xdb, 0x01, 0x0f, 0x3d, 0xdf,
  0xe4, 0xdc, 0xf5, 0x4c, 0xf5, 0x15, 0x06, 0x21, 0xb2, 0xf8, 0xcc, 0x09,
  0xc0, 0x19, 0x13, 0xe3, 0xd8, 0xca, 0x81, 0x34, 0xe2, 0xdf, 0xbc, 0xfd,
  0x5d, 0xbb, 0x00, 0xfd, 0x34, 0x20, 0xe8, 0x32, 0xb1, 0x14, 0x00, 0x17,
  0xef, 0x9b, 0xbc, 0x81, 0xeb, 0xe1, 0xdd, 0xe3, 0x04, 0xe7, 0xd8, 0x14,
  0x31, 0xf4, 0xf4, 0x00, 0x03, 0xd1, 0x3f, 0x38, 0x0b, 0xc2, 0x4a, 0xeb,
  0x25, 0x3d, 0x28, 0x0c, 0xe3, 0x84, 0xd5, 0x38, 0x10, 0xe5, 0x1e, 0x75,
  0xb4, 0x18, 0xa7, 0xc0, 0xd5, 0x64, 0x65, 0x91, 0x08, 0xc8, 0xb4, 0xe5,
  0xca, 0x81, 0xc3, 0xcd, 0x83, 0xfb, 0xfa, 0xe9, 0x81, 0x07, 0x19, 0xa9,
  0x05, 0xfb, 0xfb, 0x48, 0x0f, 0x10, 0x0e, 0xfe, 0xa4, 0x0d, 0xb1, 0xd7,
  0x0a, 0x06, 0xe8, 0xff, 0xe9, 0xaa, 0x93, 0x1c, 0xc4, 0xad, 0xc9, 0x2b,
  0xe3, 0xf5, 0xd0, 0xf8, 0x00, 0x26, 0x03, 0xe6, 0x00, 0x0d, 0x0a, 0x1a,
  0xea, 0xf8, 0x12, 0x06, 0xf2, 0xdd, 0xdb, 0xf4, 0x03, 0xe8, 0xed, 0xed,
  0x00, 0xe8, 0x01, 0x20, 0x81, 0xd5, 0xe3, 0xe4, 0x31, 0xfa, 0xc8, 0xf0,
  0x07, 0xff, 0xf6, 0x03, 0xfc, 0xe7, 0xf1, 0x11, 0xf2, 0x81, 0xdd, 0xf4,
  0x10, 0xcc, 0xf2, 0xe2, 0xf3, 0xd6, 0xe6, 0xad, 0xff, 0xfd, 0xb8, 0x07,
  0xe5, 0x03, 0x07, 0x0c, 0x12, 0xb2, 0xad, 0xc2, 0xbd, 0x18, 0xd8, 0xec,
  0xea, 0x81, 0xad, 0x33, 0xe1, 0x03, 0xbf, 0xe5, 0x1a, 0xe5, 0x90, 0xba,
  0x20, 0xd8, 0x11, 0xc4, 0xb0, 0xfd, 0x01, 0x21, 0xf1, 0x01, 0x22, 0x35,
  0x44, 0xba, 0xbe, 0xc1, 0xfa, 0x15, 0xd4, 0x2a, 0x06, 0xc7, 0xc5, 0x08,
  0x06, 0xf3, 0xd2, 0x1e, 0x26, 0xe0, 0xf6, 0xb8, 0x0e, 0xf6, 0x0f, 0xde,
  0x81, 0xf5, 0x11, 0x18, 0x0d, 0x0b, 0x3a, 0x3b, 0x81, 0x28, 0xf0, 0x0e,
  0x05, 0x3f, 0xd2, 0x14, 0xaf, 0xf1, 0xcf, 0x77, 0x24, 0x42, 0xd5, 0x69,
  0xb9, 0xbd, 0xd5, 0x0d, 0xc4, 0x29, 0xd5, 0xd5, 0x00, 0xac, 0xcf, 0x0e,
  0xf2, 0xd1, 0x81, 0x1d, 0x81, 0xe7, 0xe3, 0xed, 0x14, 0x09, 0xdb, 0x14,
  0xa4, 0x17, 0xde, 0x40, 0xec, 0xd3, 0xdb, 0xe1, 0x10, 0xb9, 0xd6, 0x3b,
  0x28, 0xc8, 0x0f, 0xf5, 0x17, 0xce, 0xf7, 0xd3, 0xc7, 0xe7, 0x68, 0x26,
  0xb8, 0xef, 0x3a, 0x1c, 0x32, 0x69, 0x23, 0x12, 0xd5, 0xe8, 0xfe, 0x33,
  0xdb, 0x0d, 0x0a, 0x2b, 0xd6, 0xd4, 0xdf, 0x0b, 0x06, 0x2a, 0x3c, 0x04,
  0xfb, 0x81, 0xc4, 0x37, 0x1f, 0xdb, 0xa3, 0x14, 0x6e, 0xeb, 0xa4, 0xee,
  0xe5, 0xeb, 0x08, 0x08, 0xc9, 0x03, 0xb8, 0xf3, 0x00, 0x81, 0x8d, 0xe1,
  0xdc, 0xb5, 0xf2, 0xf1, 0x14, 0xd9, 0xcf, 0x07, 0x36, 0xe2, 0xe6, 0xf6,
  0xeb, 0xfd, 0x31, 0xf2, 0xc5, 0x1a, 0x1b, 0x1a, 0x81, 0x3b, 0x26, 0xf8,
  0x05, 0x15, 0x15, 0x33, 0xe0, 0x26, 0x07, 0x0c, 0xb7, 0x1b, 0xe1, 0xcb,
  0xa8, 0xd4, 0x0a, 0x12, 0xf1, 0x9c, 0xb1, 0x2b, 0x15, 0xde, 0xc4, 0x38,
  0x19, 0xde, 0x12, 0xa1, 0xe6, 0x24, 0xdc, 0x00, 0xa6, 0x00, 0xb8, 0x0f,
  0x10, 0x9d, 0xb9, 0xfc, 0xde, 0xc3, 0xf6, 0xf6, 0xf7, 0xdb, 0xf8, 0xfb,
  0xfd, 0x81, 0xc8, 0xda, 0xfe, 0xf6, 0x10, 0xec, 0x05, 0xa1, 0xb2, 0xcd,
  0xf6, 0x05, 0x96, 0x95, 0xb9, 0x34, 0x8a, 0x28, 0x07, 0xa0, 0x81, 0xac,
  0xf2, 0xc9, 0xe1, 0xf3, 0xf7, 0xf8, 0xf9, 0xd7, 0x38, 0x01, 0x0a, 0xee,
  0xfb, 0x1f, 0x10, 0x10, 0x08, 0xfa, 0x81, 0x0d, 0x26, 0xff, 0xa0, 0xd8,
  0xb8, 0xe6, 0x23, 0x22, 0x21, 0x9b, 0xa1, 0xa5, 0xe9, 0xd8, 0xa7, 0xee,
  0xed, 0xea, 0xf3, 0x17, 0xc3, 0xe1, 0xfc, 0x19, 0xf2, 0xf2, 0x42, 0xf8,
  0x2a, 0xf4, 0x08, 0xbc, 0x8b, 0x09, 0x0c, 0xfe, 0xeb, 0xfe, 0x0c, 0x07,
  0xf2, 0x3a, 0xf7, 0x1f, 0x1f, 0x0c, 0xea, 0x07, 0x1a, 0x81, 0xc3, 0xf4,
  0x12, 0xf4, 0xf4, 0x06, 0x18, 0x08, 0x34, 0x0d, 0xe9, 0x08, 0x07, 0xf9,
  0x81, 0xfc, 0x04, 0xd5, 0x01, 0x04, 0xca, 0xc0, 0x03, 0x05, 0x08, 0xff,
  0xe4, 0x07, 0xfb, 0x11, 0xa6, 0x07, 0xd3, 0x05, 0xfc, 0xee, 0xd7, 0xe7,
  0x02, 0xd1, 0xed, 0xd9, 0xc3, 0x10, 0x1c, 0x0d, 0xbe, 0x11, 0x40, 0x8e,
  0xbe, 0x00, 0x06, 0x06, 0x15, 0x1d, 0x21, 0xca, 0x86, 0x1b, 0xf5, 0xa6,
  0xe7, 0x0a, 0xf5, 0xfc, 0xae, 0x1e, 0x9e, 0xdd, 0xe2, 0x81, 0xad, 0x94,
  0xbe, 0x03, 0xfb, 0xf8, 0x81, 0x01, 0xfe, 0xc7, 0xf9, 0x02, 0xfe, 0x01,
  0x04, 0xfe, 0x09, 0xfe, 0xb7, 0x01, 0x04, 0x06, 0xd5, 0x07, 0xfa, 0x05,
  0x04, 0xfd, 0xe2, 0xc2, 0xfe, 0xb3, 0xcd, 0x9b, 0x15, 0x03, 0x01, 0xc6,
  0xfc, 0xf5, 0xfe, 0xfa, 0x02, 0xf4, 0xb4, 0xeb, 0xfb, 0x0b, 0xfe, 0xf5,
  0x03, 0x03, 0xef, 0xc7, 0xfc, 0xf1, 0x0f, 0xfd, 0x81, 0xff, 0x04, 0xfa,
  0xd2, 0xfe, 0x09, 0x12, 0x2d, 0xac, 0x9f, 0xf8, 0x02, 0xed, 0xe5, 0xf2,
  0xf7, 0xfc, 0xf9, 0x17, 0xd4, 0x81, 0xb6, 0x05, 0x9f, 0xa4, 0xe4, 0x55,
  0x2f, 0xff, 0xf3, 0xc2, 0xf7, 0xf5, 0xea, 0xe8, 0x99, 0x06, 0x0d, 0x28,
  0x81, 0x11, 0x16, 0x10, 0x06, 0xe6, 0x22, 0xc3, 0xbb, 0xff, 0xd9, 0x37,
  0x11, 0x2a, 0x3b, 0x2c, 0xb3, 0x20, 0xbb, 0xfb, 0x22, 0x16, 0xf7, 0xdd,
  0x1c, 0xca, 0xe9, 0x11, 0xdb, 0xc6, 0x96, 0xd8, 0xd6, 0xf6, 0xf5, 0x14,
  0x02, 0x05, 0xec, 0x26, 0xce, 0xed, 0xfc, 0x20, 0xee, 0x0f, 0xe7, 0x02,
  0xeb, 0xfc, 0xe6, 0xee, 0x2a, 0xfc, 0xf4, 0xe9, 0xf0, 0xf5, 0xe7, 0xbc,
  0xfd, 0xd6, 0x7f, 0x1b, 0x76, 0xfe, 0xff, 0xff, 0x04, 0x00, 0x00, 0x00,
  0x80, 0x00, 0x00, 0x00, 0x0a, 0xf6, 0xff, 0xff, 0x54, 0xee, 0xff, 0xff,
  0xf3, 0xf2, 0xff, 0xff, 0x6a, 0xfd, 0xff, 0xff, 0xc7, 0x09, 0x00, 0x00,
  0x00, 0xf3, 0xff, 0xff, 0xe5, 0xfb, 0xff, 0xff, 0x4b, 0xff, 0xff, 0xff,
  0x67, 0xfa, 0xff, 0xff, 0x05, 0xf7, 0xff, 0xff, 0xac, 0xeb, 0xff, 0xff,
  0xb9, 0x02, 0x00, 0x00, 0xf9, 0xfd, 0xff, 0xff, 0xe0, 0x00, 0x00, 0x00,
  0xb1, 0x03, 0x00, 0x00, 0x59, 0x06, 0x00, 0x00, 0xd9, 0xee, 0xff, 0xff,
  0x9c, 0xf8, 0xff, 0xff, 0xed, 0xef, 0xff, 0xff, 0x6a, 0x01, 0x00, 0x00,
  0x65, 0x0c, 0x00, 0x00, 0xfd, 0xfe, 0xff, 0xff, 0x14, 0x00, 0x00, 0x00,
  0xe2, 0xf7, 0xff, 0xff, 0xc4, 0xf2, 0xff, 0xff, 0xde, 0xfc, 0xff, 0xff,
  0xd1, 0xff, 0xff, 0xff, 0xb5, 0xfe, 0xff, 0xff, 0x5f, 0xfd, 0xff, 0xff,
  0x93, 0x00, 0x00, 0x00, 0x77, 0xfd, 0xff, 0xff, 0x09, 0xf7, 0xff, 0xff,
  0x02, 0xff, 0xff, 0xff, 0x04, 0x00, 0x00, 0x00, 0x40, 0x00, 0x00, 0x00,
  0xe8, 0xc5, 0xf0, 0x38, 0x19, 0xc2, 0x68, 0xf9, 0xba, 0xcb, 0xdf, 0x13,
  0xbe, 0xf3, 0x75, 0x00, 0x10, 0xde, 0xc0, 0xf7, 0xec, 0xd5, 0x28, 0x2a,
  0x27, 0x7f, 0x14, 0xe8, 0xa2, 0x66, 0x63, 0x10, 0x03, 0x98, 0xf0, 0x04,
  0x6b, 0x9d, 0x4a, 0xfc, 0xc9, 0xd0, 0xfc, 0x3e, 0xb0, 0xe6, 0x3c, 0xcc,
  0x17, 0xdb, 0xd6, 0xcf, 0x25, 0xde, 0x0d, 0x25, 0x59, 0x57, 0x35, 0xda,
  0x86, 0x5d, 0x7f, 0xce, 0x4e, 0xff, 0xff, 0xff, 0x04, 0x00, 0x00, 0x00,
  0x08, 0x00, 0x00, 0x00, 0x30, 0x01, 0x00, 0x00, 0xc1, 0xfe, 0xff, 0xff,
  0x30, 0xff, 0xff, 0xff, 0x34, 0xff, 0xff, 0xff, 0x0f, 0x00, 0x00, 0x00,
  0x4d, 0x4c, 0x49, 0x52, 0x20, 0x43, 0x6f, 0x6e, 0x76, 0x65, 0x72, 0x74,
  0x65, 0x64, 0x2e, 0x00, 0x01, 0x00, 0x00, 0x00, 0x14, 0x00, 0x00, 0x00,
  0x00, 0x00, 0x0e, 0x00, 0x18, 0x00, 0x14, 0x00, 0x10, 0x00, 0x0c, 0x00,
  0x08, 0x00, 0x04, 0x00, 0x0e, 0x00, 0x00, 0x00, 0x14, 0x00, 0x00, 0x00,
  0x1c, 0x00, 0x00, 0x00, 0x98, 0x01, 0x00, 0x00, 0x9c, 0x01, 0x00, 0x00,
  0xa0, 0x01, 0x00, 0x00, 0x04, 0x00, 0x00, 0x00, 0x6d, 0x61, 0x69, 0x6e,
  0x00, 0x00, 0x00, 0x00, 0x06, 0x00, 0x00, 0x00, 0x40, 0x01, 0x00, 0x00,
  0xf8, 0x00, 0x00, 0x00, 0xc0, 0x00, 0x00, 0x00, 0x88, 0x00, 0x00, 0x00,
  0x50, 0x00, 0x00, 0x00, 0x14, 0x00, 0x00, 0x00, 0x00, 0x00, 0x0e, 0x00,
  0x1a, 0x00, 0x14, 0x00, 0x10, 0x00, 0x0c, 0x00, 0x0b, 0x00, 0x04, 0x00,
  0x0e, 0x00, 0x00, 0x00, 0x1c, 0x00, 0x00, 0x00, 0x00, 0x00, 0x00, 0x09,
  0x1c, 0x00, 0x00, 0x00, 0x20, 0x00, 0x00, 0x00, 0x01, 0x00, 0x00, 0x00,
  0x00, 0x00, 0x06, 0x00, 0x08, 0x00, 0x04, 0x00, 0x06, 0x00, 0x00, 0x00,
  0x00, 0x00, 0x80, 0x3f, 0x01, 0x00, 0x00, 0x00, 0x10, 0x00, 0x00, 0x00,
  0x01, 0x00, 0x00, 0x00, 0x0f, 0x00, 0x00, 0x00, 0x2e, 0xff, 0xff, 0xff,
  0x14, 0x00, 0x00, 0x00, 0x00, 0x00, 0x00, 0x08, 0x10, 0x00, 0x00, 0x00,
  0x14, 0x00, 0x00, 0x00, 0x04, 0x00, 0x04, 0x00, 0x04, 0x00, 0x00, 0x00,
  0x01, 0x00, 0x00, 0x00, 0x0f, 0x00, 0x00, 0x00, 0x03, 0x00, 0x00, 0x00,
  0x0e, 0x00, 0x00, 0x00, 0x02, 0x00, 0x00, 0x00, 0x01, 0x00, 0x00, 0x00,
  0x62, 0xff, 0xff, 0xff, 0x10, 0x00, 0x00, 0x00, 0x00, 0x00, 0x00, 0x08,
  0x10, 0x00, 0x00, 0x00, 0x14, 0x00, 0x00, 0x00, 0x52, 0xff, 0xff, 0xff,
  0x00, 0x00, 0x00, 0x01, 0x01, 0x00, 0x00, 0x00, 0x0e, 0x00, 0x00, 0x00,
  0x03, 0x00, 0x00, 0x00, 0x0d, 0x00, 0x00, 0x00, 0x04, 0x00, 0x00, 0x00,
  0x03, 0x00, 0x00, 0x00, 0x96, 0xff, 0xff, 0xff, 0x10, 0x00, 0x00, 0x00,
  0x00, 0x00, 0x00, 0x08, 0x10, 0x00, 0x00, 0x00, 0x14, 0x00, 0x00, 0x00,
  0x86, 0xff, 0xff, 0xff, 0x00, 0x00, 0x00, 0x01, 0x01, 0x00, 0x00, 0x00,
  0x0d, 0x00, 0x00, 0x00, 0x03, 0x00, 0x00, 0x00, 0x0c, 0x00, 0x00, 0x00,
  0x06, 0x00, 0x00, 0x00, 0x05, 0x00, 0x00, 0x00, 0xca, 0xff, 0xff, 0xff,
  0x10, 0x00, 0x00, 0x00, 0x00, 0x00, 0x00, 0x08, 0x10, 0x00, 0x00, 0x00,
  0x14, 0x00, 0x00, 0x00, 0xba, 0xff, 0xff, 0xff, 0x00, 0x00, 0x00, 0x01,
  0x01, 0x00, 0x00, 0x00, 0x0c, 0x00, 0x00, 0x00, 0x03, 0x00, 0x00, 0x00,
  0x0b, 0x00, 0x00, 0x00, 0x08, 0x00, 0x00, 0x00, 0x07, 0x00, 0x00, 0x00,
  0x00, 0x00, 0x0e, 0x00, 0x16, 0x00, 0x00, 0x00, 0x10, 0x00, 0x0c, 0x00,
  0x0b, 0x00, 0x04, 0x00, 0x0e, 0x00, 0x00, 0x00, 0x18, 0x00, 0x00, 0x00,
  0x00, 0x00, 0x00, 0x08, 0x18, 0x00, 0x00, 0x00, 0x1c, 0x00, 0x00, 0x00,
  0x00, 0x00, 0x06, 0x00, 0x08, 0x00, 0x07, 0x00, 0x06, 0x00, 0x00, 0x00,
  0x00, 0x00, 0x00, 0x01, 0x01, 0x00, 0x00, 0x00, 0x0b, 0x00, 0x00, 0x00,
  0x03, 0x00, 0x00, 0x00, 0x00, 0x00, 0x00, 0x00, 0x0a, 0x00, 0x00, 0x00,
  0x09, 0x00, 0x00, 0x00, 0x01, 0x00, 0x00, 0x00, 0x10, 0x00, 0x00, 0x00,
  0x01, 0x00, 0x00, 0x00, 0x00, 0x00, 0x00, 0x00, 0x11, 0x00, 0x00, 0x00,
  0x78, 0x1a, 0x00, 0x00, 0xf0, 0x19, 0x00, 0x00, 0x64, 0x19, 0x00, 0x00,
  0x90, 0x17, 0x00, 0x00, 0xb4, 0x15, 0x00, 0x00, 0xe0, 0x13, 0x00, 0x00,
  0x04, 0x12, 0x00, 0x00, 0xb0, 0x0e, 0x00, 0x00, 0x54, 0x0b, 0x00, 0x00,
  0x00, 0x08, 0x00, 0x00, 0xa4, 0x04, 0x00, 0x00, 0xe0, 0x03, 0x00, 0x00,
  0xac, 0x02, 0x00, 0x00, 0xe8, 0x01, 0x00, 0x00, 0x24, 0x01, 0x00, 0x00,
  0x80, 0x00, 0x00, 0x00, 0x04, 0x00, 0x00, 0x00, 0xe2, 0xe5, 0xff, 0xff,
  0x00, 0x00, 0x00, 0x01, 0x18, 0x00, 0x00, 0x00, 0x20, 0x00, 0x00, 0x00,
  0x3c, 0x00, 0x00, 0x00, 0x11, 0x00, 0x00, 0x00, 0x00, 0x00, 0x00, 0x09,
  0x50, 0x00, 0x00, 0x00, 0x02, 0x00, 0x00, 0x00, 0xff, 0xff, 0xff, 0xff,
  0x02, 0x00, 0x00, 0x00, 0xcc, 0xe5, 0xff, 0xff, 0x08, 0x00, 0x00, 0x00,
  0x10, 0x00, 0x00, 0x00, 0x01, 0x00, 0x00, 0x00, 0x80, 0xff, 0xff, 0xff,
  0xff, 0xff, 0xff, 0xff, 0x01, 0x00, 0x00, 0x00, 0x00, 0x00, 0x80, 0x3b,
  0x1b, 0x00, 0x00, 0x00, 0x53, 0x74, 0x61, 0x74, 0x65, 0x66, 0x75, 0x6c,
  0x50, 0x61, 0x72, 0x74, 0x69, 0x74, 0x69, 0x6f, 0x6e, 0x65, 0x64, 0x43,
  0x61, 0x6c, 0x6c, 0x5f, 0x31, 0x3a, 0x30, 0x00, 0x02, 0x00, 0x00, 0x00,
  0x01, 0x00, 0x00, 0x00, 0x02, 0x00, 0x00, 0x00, 0x5a, 0xe6, 0xff, 0xff,
  0x00, 0x00, 0x00, 0x01, 0x18, 0x00, 0x00, 0x00, 0x20, 0x00, 0x00, 0x00,
  0x3c, 0x00, 0x00, 0x00, 0x10, 0x00, 0x00, 0x00, 0x00, 0x00, 0x00, 0x09,
  0x78, 0x00, 0x00, 0x00, 0x02, 0x00, 0x00, 0x00, 0xff, 0xff, 0xff, 0xff,
  0x02, 0x00, 0x00, 0x00, 0x44, 0xe6, 0xff, 0xff, 0x08, 0x00, 0x00, 0x00,
  0x10, 0x00, 0x00, 0x00, 0x01, 0x00, 0x00, 0x00, 0xd4, 0xff, 0xff, 0xff,
  0xff, 0xff, 0xff, 0xff, 0x01, 0x00, 0x00, 0x00, 0xc7, 0x65, 0x17, 0x3d,
  0x42, 0x00, 0x00, 0x00, 0x73, 0x65, 0x71, 0x75, 0x65, 0x6e, 0x74, 0x69,
  0x61, 0x6c, 0x5f, 0x32, 0x5f, 0x31, 0x2f, 0x64, 0x65, 0x6e, 0x73, 0x65,
  0x5f, 0x31, 0x34, 0x5f, 0x31, 0x2f, 0x4d, 0x61, 0x74, 0x4d, 0x75, 0x6c,
  0x3b, 0x73, 0x65, 0x71, 0x75, 0x65, 0x6e, 0x74, 0x69, 0x61, 0x6c, 0x5f,
  0x32, 0x5f, 0x31, 0x2f, 0x64, 0x65, 0x6e, 0x73, 0x65, 0x5f, 0x31, 0x34,
  0x5f, 0x31, 0x2f, 0x42, 0x69, 0x61, 0x73, 0x41, 0x64, 0x64, 0x00, 0x00,
  0x02, 0x00, 0x00, 0x00, 0x01, 0x00, 0x00, 0x00, 0x02, 0x00, 0x00, 0x00,
  0xfa, 0xe6, 0xff, 0xff, 0x00, 0x00, 0x00, 0x01, 0x18, 0x00, 0x00, 0x00,
  0x20, 0x00, 0x00, 0x00, 0x3c, 0x00, 0x00, 0x00, 0x0f, 0x00, 0x00, 0x00,
  0x00, 0x00, 0x00, 0x09, 0x98, 0x00, 0x00, 0x00, 0x02, 0x00, 0x00, 0x00,
  0xff, 0xff, 0xff, 0xff, 0x20, 0x00, 0x00, 0x00, 0xe4, 0xe6, 0xff, 0xff,
  0x08, 0x00, 0x00, 0x00, 0x10, 0x00, 0x00, 0x00, 0x01, 0x00, 0x00, 0x00,
  0x80, 0xff, 0xff, 0xff, 0xff, 0xff, 0xff, 0xff, 0x01, 0x00, 0x00, 0x00,
  0x7c, 0x68, 0x95, 0x3d, 0x61, 0x00, 0x00, 0x00, 0x73, 0x65, 0x71, 0x75,
  0x65, 0x6e, 0x74, 0x69, 0x61, 0x6c, 0x5f, 0x32, 0x5f, 0x31, 0x2f, 0x64,
  0x65, 0x6e, 0x73, 0x65, 0x5f, 0x31, 0x33, 0x5f, 0x31, 0x2f, 0x4d, 0x61,
  0x74, 0x4d, 0x75, 0x6c, 0x3b, 0x73, 0x65, 0x71, 0x75, 0x65, 0x6e, 0x74,
  0x69, 0x61, 0x6c, 0x5f, 0x32, 0x5f, 0x31, 0x2f, 0x64, 0x65, 0x6e, 0x73,
  0x65, 0x5f, 0x31, 0x33, 0x5f, 0x31, 0x2f, 0x52, 0x65, 0x6c, 0x75, 0x3b,
  0x73, 0x65, 0x71, 0x75, 0x65, 0x6e, 0x74, 0x69, 0x61, 0x6c, 0x5f, 0x32,
  0x5f, 0x31, 0x2f, 0x64, 0x65, 0x6e, 0x73, 0x65, 0x5f, 0x31, 0x33, 0x5f,
  0x31, 0x2f, 0x42, 0x69, 0x61, 0x73, 0x41, 0x64, 0x64, 0x00, 0x00, 0x00,
  0x02, 0x00, 0x00, 0x00, 0x01, 0x00, 0x00, 0x00, 0x20, 0x00, 0x00, 0x00,
  0xba, 0xe7, 0xff, 0xff, 0x00, 0x00, 0x00, 0x01, 0x18, 0x00, 0x00, 0x00,
  0x20, 0x00, 0x00, 0x00, 0x3c, 0x00, 0x00, 0x00, 0x0e, 0x00, 0x00, 0x00,
  0x00, 0x00, 0x00, 0x09, 0x98, 0x00, 0x00, 0x00, 0x02, 0x00, 0x00, 0x00,
  0xff, 0xff, 0xff, 0xff, 0x20, 0x00, 0x00, 0x00, 0xa4, 0xe7, 0xff, 0xff,
  0x08, 0x00, 0x00, 0x00, 0x10, 0x00, 0x00, 0x00, 0x01, 0x00, 0x00, 0x00,
  0x80, 0xff, 0xff, 0xff, 0xff, 0xff, 0xff, 0xff, 0x01, 0x00, 0x00, 0x00,
  0xe7, 0x5d, 0xc4, 0x3d, 0x61, 0x00, 0x00, 0x00, 0x73, 0x65, 0x71, 0x75,
  0x65, 0x6e, 0x74, 0x69, 0x61, 0x6c, 0x5f, 0x32, 0x5f, 0x31, 0x2f, 0x64,
  0x65, 0x6e, 0x73, 0x65, 0x5f, 0x31, 0x32, 0x5f, 0x31, 0x2f, 0x4d, 0x61,
  0x74, 0x4d, 0x75, 0x6c, 0x3b, 0x73, 0x65, 0x71, 0x75, 0x65, 0x6e, 0x74,
  0x69, 0x61, 0x6c, 0x5f, 0x32, 0x5f, 0x31, 0x2f, 0x64, 0x65, 0x6e, 0x73,
  0x65, 0x5f, 0x31, 0x32, 0x5f, 0x31, 0x2f, 0x52, 0x65, 0x6c, 0x75, 0x3b,
  0x73, 0x65, 0x71, 0x75, 0x65, 0x6e, 0x74, 0x69, 0x61, 0x6c, 0x5f, 0x32,
  0x5f, 0x31, 0x2f, 0x64, 0x65, 0x6e, 0x73, 0x65, 0x5f, 0x31, 0x32, 0x5f,
  0x31, 0x2f, 0x42, 0x69, 0x61, 0x73, 0x41, 0x64, 0x64, 0x00, 0x00, 0x00,
  0x02, 0x00, 0x00, 0x00, 0x01, 0x00, 0x00, 0x00, 0x20, 0x00, 0x00, 0x00,
  0x7a, 0xe8, 0xff, 0xff, 0x00, 0x00, 0x00, 0x01, 0x18, 0x00, 0x00, 0x00,
  0x20, 0x00, 0x00, 0x00, 0x40, 0x00, 0x00, 0x00, 0x0d, 0x00, 0x00, 0x00,
  0x00, 0x00, 0x00, 0x09, 0x08, 0x01, 0x00, 0x00, 0x02, 0x00, 0x00, 0x00,
  0xff, 0xff, 0xff, 0xff, 0x40, 0x00, 0x00, 0x00, 0x64, 0xe8, 0xff, 0xff,
  0x08, 0x00, 0x00, 0x00, 0x14, 0x00, 0x00, 0x00, 0x01, 0x00, 0x00, 0x00,
  0x80, 0xff, 0xff, 0xff, 0xff, 0xff, 0xff, 0xff, 0x00, 0x00, 0x00, 0x00,
  0x01, 0x00, 0x00, 0x00, 0x48, 0x42, 0xf7, 0x3d, 0xcf, 0x00, 0x00, 0x00,
  0x73, 0x65, 0x71, 0x75, 0x65, 0x6e, 0x74, 0x69, 0x61, 0x6c, 0x5f, 0x32,
  0x5f, 0x31, 0x2f, 0x62, 0x61, 0x74, 0x63, 0x68, 0x5f, 0x6e, 0x6f, 0x72,
  0x6d, 0x61, 0x6c, 0x69, 0x7a, 0x61, 0x74, 0x69, 0x6f, 0x6e, 0x5f, 0x32,
  0x5f, 0x31, 0x2f, 0x62, 0x61, 0x74, 0x63, 0x68, 0x6e, 0x6f, 0x72, 0x6d,
  0x2f, 0x6d, 0x75, 0x6c, 0x5f, 0x31, 0x3b, 0x73, 0x65, 0x71, 0x75, 0x65,
  0x6e, 0x74, 0x69, 0x61, 0x6c, 0x5f, 0x32, 0x5f, 0x31, 0x2f, 0x62, 0x61,
  0x74, 0x63, 0x68, 0x5f, 0x6e, 0x6f, 0x72, 0x6d, 0x61, 0x6c, 0x69, 0x7a,
  0x61, 0x74, 0x69, 0x6f, 0x6e, 0x5f, 0x32, 0x5f, 0x31, 0x2f, 0x62, 0x61,
  0x74, 0x63, 0x68, 0x6e, 0x6f, 0x72, 0x6d, 0x2f, 0x61, 0x64, 0x64, 0x5f,
  0x31, 0x3b, 0x73, 0x65, 0x71, 0x75, 0x65, 0x6e, 0x74, 0x69, 0x61, 0x6c,
  0x5f, 0x32, 0x5f, 0x31, 0x2f, 0x64, 0x65, 0x6e, 0x73, 0x65, 0x5f, 0x31,
  0x31, 0x5f, 0x31, 0x2f, 0x4d, 0x61, 0x74, 0x4d, 0x75, 0x6c, 0x3b, 0x73,
  0x65, 0x71, 0x75, 0x65, 0x6e, 0x74, 0x69, 0x61, 0x6c, 0x5f, 0x32, 0x5f,
  0x31, 0x2f, 0x64, 0x65, 0x6e, 0x73, 0x65, 0x5f, 0x31, 0x31, 0x5f, 0x31,
  0x2f, 0x52, 0x65, 0x6c, 0x75, 0x3b, 0x73, 0x65, 0x71, 0x75, 0x65, 0x6e,
  0x74, 0x69, 0x61, 0x6c, 0x5f, 0x32, 0x5f, 0x31, 0x2f, 0x64, 0x65, 0x6e,
  0x73, 0x65, 0x5f, 0x31, 0x31, 0x5f, 0x31, 0x2f, 0x42, 0x69, 0x61, 0x73,
  0x41, 0x64, 0x64, 0x00, 0x02, 0x00, 0x00, 0x00, 0x01, 0x00, 0x00, 0x00,
  0x40, 0x00, 0x00, 0x00, 0xaa, 0xe9, 0xff, 0xff, 0x00, 0x00, 0x00, 0x01,
  0x18, 0x00, 0x00, 0x00, 0x20, 0x00, 0x00, 0x00, 0x3c, 0x00, 0x00, 0x00,
  0x0c, 0x00, 0x00, 0x00, 0x00, 0x00, 0x00, 0x09, 0x98, 0x00, 0x00, 0x00,
  0x02, 0x00, 0x00, 0x00, 0xff, 0xff, 0xff, 0xff, 0x40, 0x00, 0x00, 0x00,
  0x94, 0xe9, 0xff, 0xff, 0x08, 0x00, 0x00, 0x00, 0x10, 0x00, 0x00, 0x00,
  0x01, 0x00, 0x00, 0x00, 0x80, 0xff, 0xff, 0xff, 0xff, 0xff, 0xff, 0xff,
  0x01, 0x00, 0x00, 0x00, 0xb0, 0x29, 0x86, 0x3d, 0x61, 0x00, 0x00, 0x00,
  0x73, 0x65, 0x71, 0x75, 0x65, 0x6e, 0x74, 0x69, 0x61, 0x6c, 0x5f, 0x32,
  0x5f, 0x31, 0x2f, 0x64, 0x65, 0x6e, 0x73, 0x65, 0x5f, 0x31, 0x30, 0x5f,
  0x31, 0x2f, 0x4d, 0x61, 0x74, 0x4d, 0x75, 0x6c, 0x3b, 0x73, 0x65, 0x71,
  0x75, 0x65, 0x6e, 0x74, 0x69, 0x61, 0x6c, 0x5f, 0x32, 0x5f, 0x31, 0x2f,
  0x64, 0x65, 0x6e, 0x73, 0x65, 0x5f, 0x31, 0x30, 0x5f, 0x31, 0x2f, 0x52,
  0x65, 0x6c, 0x75, 0x3b, 0x73, 0x65, 0x71, 0x75, 0x65, 0x6e, 0x74, 0x69,
  0x61, 0x6c, 0x5f, 0x32, 0x5f, 0x31, 0x2f, 0x64, 0x65, 0x6e, 0x73, 0x65,
  0x5f, 0x31, 0x30, 0x5f, 0x31, 0x2f, 0x42, 0x69, 0x61, 0x73, 0x41, 0x64,
  0x64, 0x00, 0x00, 0x00, 0x02, 0x00, 0x00, 0x00, 0x01, 0x00, 0x00, 0x00,
  0x40, 0x00, 0x00, 0x00, 0xee, 0xea, 0xff, 0xff, 0x00, 0x00, 0x00, 0x01,
  0x14, 0x00, 0x00, 0x00, 0x28, 0x03, 0x00, 0x00, 0x0b, 0x00, 0x00, 0x00,
  0x00, 0x00, 0x00, 0x09, 0x34, 0x03, 0x00, 0x00, 0x44, 0xea, 0xff, 0xff,
  0x08, 0x00, 0x00, 0x00, 0x0c, 0x02, 0x00, 0x00, 0x40, 0x00, 0x00, 0x00,
  0x00, 0x00, 0x00, 0x00, 0x00, 0x00, 0x00, 0x00, 0x00, 0x00, 0x00, 0x00,
  0x00, 0x00, 0x00, 0x00, 0x00, 0x00, 0x00, 0x00, 0x00, 0x00, 0x00, 0x00,
  0x00, 0x00, 0x00, 0x00, 0x00, 0x00, 0x00, 0x00, 0x00, 0x00, 0x00, 0x00,
  0x00, 0x00, 0x00, 0x00, 0x00, 0x00, 0x00, 0x00, 0x00, 0x00, 0x00, 0x00,
  0x00, 0x00, 0x00, 0x00, 0x00, 0x00, 0x00, 0x00, 0x00, 0x00, 0x00, 0x00,
  0x00, 0x00, 0x00, 0x00, 0x00, 0x00, 0x00, 0x00, 0x00, 0x00, 0x00, 0x00,
  0x00, 0x00, 0x00, 0x00, 0x00, 0x00, 0x00, 0x00, 0x00, 0x00, 0x00, 0x00,
  0x00, 0x00, 0x00, 0x00, 0x00, 0x00, 0x00, 0x00, 0x00, 0x00, 0x00, 0x00,
  0x00, 0x00, 0x00, 0x00, 0x00, 0x00, 0x00, 0x00, 0x00, 0x00, 0x00, 0x00,
  0x00, 0x00, 0x00, 0x00, 0x00, 0x00, 0x00, 0x00, 0x00, 0x00, 0x00, 0x00,
  0x00, 0x00, 0x00, 0x00, 0x00, 0x00, 0x00, 0x00, 0x00, 0x00, 0x00, 0x00,
  0x00, 0x00, 0x00, 0x00, 0x00, 0x00, 0x00, 0x00, 0x00, 0x00, 0x00, 0x00,
  0x00, 0x00, 0x00, 0x00, 0x00, 0x00, 0x00, 0x00, 0x00, 0x00, 0x00, 0x00,
  0x00, 0x00, 0x00, 0x00, 0x00, 0x00, 0x00, 0x00, 0x00, 0x00, 0x00, 0x00,
  0x00, 0x00, 0x00, 0x00, 0x00, 0x00, 0x00, 0x00, 0x00, 0x00, 0x00, 0x00,
  0x00, 0x00, 0x00, 0x00, 0x00, 0x00, 0x00, 0x00, 0x00, 0x00, 0x00, 0x00,
  0x00, 0x00, 0x00, 0x00, 0x00, 0x00, 0x00, 0x00, 0x00, 0x00, 0x00, 0x00,
  0x00, 0x00, 0x00, 0x00, 0x00, 0x00, 0x00, 0x00, 0x00, 0x00, 0x00, 0x00,
  0x00, 0x00, 0x00, 0x00, 0x00, 0x00, 0x00, 0x00, 0x00, 0x00, 0x00, 0x00,
  0x00, 0x00, 0x00, 0x00, 0x00, 0x00, 0x00, 0x00, 0x00, 0x00, 0x00, 0x00,
  0x00, 0x00, 0x00, 0x00, 0x00, 0x00, 0x00, 0x00, 0x00, 0x00, 0x00, 0x00,
  0x00, 0x00, 0x00, 0x00, 0x00, 0x00, 0x00, 0x00, 0x00, 0x00, 0x00, 0x00,
  0x00, 0x00, 0x00, 0x00, 0x00, 0x00, 0x00, 0x00, 0x00, 0x00, 0x00, 0x00,
  0x00, 0x00, 0x00, 0x00, 0x00, 0x00, 0x00, 0x00, 0x00, 0x00, 0x00, 0x00,
  0x00, 0x00, 0x00, 0x00, 0x00, 0x00, 0x00, 0x00, 0x00, 0x00, 0x00, 0x00,
  0x00, 0x00, 0x00, 0x00, 0x00, 0x00, 0x00, 0x00, 0x00, 0x00, 0x00, 0x00,
  0x00, 0x00, 0x00, 0x00, 0x00, 0x00, 0x00, 0x00, 0x00, 0x00, 0x00, 0x00,
  0x00, 0x00, 0x00, 0x00, 0x00, 0x00, 0x00, 0x00, 0x00, 0x00, 0x00, 0x00,
  0x00, 0x00, 0x00, 0x00, 0x00, 0x00, 0x00, 0x00, 0x00, 0x00, 0x00, 0x00,
  0x00, 0x00, 0x00, 0x00, 0x00, 0x00, 0x00, 0x00, 0x00, 0x00, 0x00, 0x00,
  0x00, 0x00, 0x00, 0x00, 0x00, 0x00, 0x00, 0x00, 0x00, 0x00, 0x00, 0x00,
  0x00, 0x00, 0x00, 0x00, 0x00, 0x00, 0x00, 0x00, 0x00, 0x00, 0x00, 0x00,
  0x00, 0x00, 0x00, 0x00, 0x00, 0x00, 0x00, 0x00, 0x00, 0x00, 0x00, 0x00,
  0x00, 0x00, 0x00, 0x00, 0x00, 0x00, 0x00, 0x00, 0x00, 0x00, 0x00, 0x00,
  0x00, 0x00, 0x00, 0x00, 0x00, 0x00, 0x00, 0x00, 0x00, 0x00, 0x00, 0x00,
  0x00, 0x00, 0x00, 0x00, 0x00, 0x00, 0x00, 0x00, 0x00, 0x00, 0x00, 0x00,
  0x00, 0x00, 0x00, 0x00, 0x00, 0x00, 0x00, 0x00, 0x00, 0x00, 0x00, 0x00,
  0x00, 0x00, 0x00, 0x00, 0x00, 0x00, 0x00, 0x00, 0x00, 0x00, 0x00, 0x00,
  0x00, 0x00, 0x00, 0x00, 0x00, 0x00, 0x00, 0x00, 0x00, 0x00, 0x00, 0x00,
  0x00, 0x00, 0x00, 0x00, 0x00, 0x00, 0x00, 0x00, 0x00, 0x00, 0x00, 0x00,
  0x00, 0x00, 0x00, 0x00, 0x00, 0x00, 0x00, 0x00, 0x00, 0x00, 0x00, 0x00,
  0x00, 0x00, 0x00, 0x00, 0x00, 0x00, 0x00, 0x00, 0x00, 0x00, 0x00, 0x00,
  0x00, 0x00, 0x00, 0x00, 0x00, 0x00, 0x00, 0x00, 0x00, 0x00, 0x00, 0x00,
  0x40, 0x00, 0x00, 0x00, 0x91, 0x88, 0xeb, 0x3b, 0x91, 0x8d, 0xe3, 0x3b,
  0x44, 0xc3, 0x9e, 0x3b, 0x12, 0x5b, 0xe9, 0x3b, 0x75, 0x3e, 0xa5, 0x3b,
  0x01, 0x46, 0x16, 0x3c, 0xd2, 0x67, 0x3f, 0x3b, 0x28, 0xa1, 0xee, 0x3b,
  0xd6, 0xec, 0xc9, 0x3b, 0x2f, 0x8c, 0xbb, 0x3b, 0xf6, 0x91, 0xe4, 0x3b,
  0x2b, 0xf8, 0xda, 0x3b, 0xeb, 0x95, 0x63, 0x3b, 0xdb, 0x7b, 0x02, 0x3c,
  0x22, 0xf8, 0xdf, 0x3b, 0x31, 0x85, 0x14, 0x3c, 0x5f, 0x3a, 0x0b, 0x3c,
  0xd4, 0xd8, 0xda, 0x3b, 0x9c, 0xdf, 0xe4, 0x3b, 0x9f, 0x3f, 0x86, 0x3b,
  0x45, 0x36, 0x6e, 0x3b, 0x0f, 0x4e, 0xe0, 0x3b, 0x12, 0x7d, 0xc8, 0x3b,
  0xf3, 0x56, 0x8d, 0x3b, 0x15, 0xd4, 0xe5, 0x3b, 0xde, 0x66, 0x10, 0x3c,
  0x85, 0xba, 0x03, 0x3c, 0x0b, 0xbc, 0x8d, 0x3b, 0x39, 0xbb, 0x42, 0x3c,
  0x8d, 0x8d, 0x11, 0x3c, 0x00, 0x5a, 0xd8, 0x3b, 0x9e, 0xf7, 0x03, 0x3c,
  0x05, 0x61, 0xe2, 0x3b, 0xb3, 0x7d, 0xe2, 0x3b, 0x6a, 0x63, 0xe9, 0x3b,
  0xee, 0x12, 0xd7, 0x3b, 0x5e, 0x68, 0x5b, 0x3b, 0x64, 0x47, 0xa1, 0x3b,
  0xde, 0x0c, 0xb7, 0x3b, 0x27, 0x60, 0x35, 0x3c, 0xb9, 0xfd, 0xc7, 0x3b,
  0x76, 0x26, 0xd2, 0x3c, 0x99, 0xfb, 0x82, 0x3b, 0xad, 0x4d, 0xe5, 0x3b,
  0x3d, 0x93, 0x0c, 0x3c, 0x02, 0x4a, 0xf9, 0x3b, 0xe3, 0xc1, 0xe8, 0x3b,
  0x6d, 0x9f, 0x1b, 0x3a, 0x02, 0x96, 0x32, 0x3a, 0xb8, 0x81, 0xdf, 0x3b,
  0xfa, 0x37, 0xe2, 0x3b, 0x85, 0x51, 0x07, 0x3c, 0x5b, 0x0b, 0xc7, 0x3b,
  0x6f, 0x47, 0x13, 0x3c, 0xe9, 0x6c, 0xdf, 0x3b, 0x00, 0xb2, 0xc4, 0x3b,
  0xe6, 0x6c, 0xe4, 0x3b, 0x01, 0x44, 0x02, 0x3c, 0x68, 0x22, 0xc0, 0x3b,
  0x2a, 0x5f, 0x2d, 0x3c, 0x56, 0x52, 0x3a, 0x3c, 0x5f, 0xe6, 0xce, 0x3b,
  0x85, 0xff, 0xc8, 0x3b, 0x21, 0xde, 0x53, 0x3c, 0x12, 0x00, 0x00, 0x00,
  0x74, 0x66, 0x6c, 0x2e, 0x70, 0x73, 0x65, 0x75, 0x64, 0x6f, 0x5f, 0x71,
  0x63, 0x6f, 0x6e, 0x73, 0x74, 0x39, 0x00, 0x00, 0x02, 0x00, 0x00, 0x00,
  0x40, 0x00, 0x00, 0x00, 0x03, 0x00, 0x00, 0x00, 0x46, 0xee, 0xff, 0xff,
  0x00, 0x00, 0x00, 0x01, 0x14, 0x00, 0x00, 0x00, 0x24, 0x03, 0x00, 0x00,
  0x0a, 0x00, 0x00, 0x00, 0x00, 0x00, 0x00, 0x02, 0x30, 0x03, 0x00, 0x00,
  0x9c, 0xed, 0xff, 0xff, 0x08, 0x00, 0x00, 0x00, 0x08, 0x02, 0x00, 0x00,
  0x40, 0x00, 0x00, 0x00, 0x00, 0x00, 0x00, 0x00, 0x00, 0x00, 0x00, 0x00,
  0x00, 0x00, 0x00, 0x00, 0x00, 0x00, 0x00, 0x00, 0x00, 0x00, 0x00, 0x00,
  0x00, 0x00, 0x00, 0x00, 0x00, 0x00, 0x00, 0x00, 0x00, 0x00, 0x00, 0x00,
  0x00, 0x00, 0x00, 0x00, 0x00, 0x00, 0x00, 0x00, 0x00, 0x00, 0x00, 0x00,
  0x00, 0x00, 0x00, 0x00, 0x00, 0x00, 0x00, 0x00, 0x00, 0x00, 0x00, 0x00,
  0x00, 0x00, 0x00, 0x00, 0x00, 0x00, 0x00, 0x00, 0x00, 0x00, 0x00, 0x00,
  0x00, 0x00, 0x00, 0x00, 0x00, 0x00, 0x00, 0x00, 0x00, 0x00, 0x00, 0x00,
  0x00, 0x00, 0x00, 0x00, 0x00, 0x00, 0x00, 0x00, 0x00, 0x00, 0x00, 0x00,
  0x00, 0x00, 0x00, 0x00, 0x00, 0x00, 0x00, 0x00, 0x00, 0x00, 0x00, 0x00,
  0x00, 0x00, 0x00, 0x00, 0x00, 0x00, 0x00, 0x00, 0x00, 0x00, 0x00, 0x00,
  0x00, 0x00, 0x00, 0x00, 0x00, 0x00, 0x00, 0x00, 0x00, 0x00, 0x00, 0x00,
  0x00, 0x00, 0x00, 0x00, 0x00, 0x00, 0x00, 0x00, 0x00, 0x00, 0x00, 0x00,
  0x00, 0x00, 0x00, 0x00, 0x00, 0x00, 0x00, 0x00, 0x00, 0x00, 0x00, 0x00,
  0x00, 0x00, 0x00, 0x00, 0x00, 0x00, 0x00, 0x00, 0x00, 0x00, 0x00, 0x00,
  0x00, 0x00, 0x00, 0x00, 0x00, 0x00, 0x00, 0x00, 0x00, 0x00, 0x00, 0x00,
  0x00, 0x00, 0x00, 0x00, 0x00, 0x00, 0x00, 0x00, 0x00, 0x00, 0x00, 0x00,
  0x00, 0x00, 0x00, 0x00, 0x00, 0x00, 0x00, 0x00, 0x00, 0x00, 0x00, 0x00,
  0x00, 0x00, 0x00, 0x00, 0x00, 0x00, 0x00, 0x00, 0x00, 0x00, 0x00, 0x00,
  0x00, 0x00, 0x00, 0x00, 0x00, 0x00, 0x00, 0x00, 0x00, 0x00, 0x00, 0x00,
  0x00, 0x00, 0x00, 0x00, 0x00, 0x00, 0x00, 0x00, 0x00, 0x00, 0x00, 0x00,
  0x00, 0x00, 0x00, 0x00, 0x00, 0x00, 0x00, 0x00, 0x00, 0x00, 0x00, 0x00,
  0x00, 0x00, 0x00, 0x00, 0x00, 0x00, 0x00, 0x00, 0x00, 0x00, 0x00, 0x00,
  0x00, 0x00, 0x00, 0x00, 0x00, 0x00, 0x00, 0x00, 0x00, 0x00, 0x00, 0x00,
  0x00, 0x00, 0x00, 0x00, 0x00, 0x00, 0x00, 0x00, 0x00, 0x00, 0x00, 0x00,
  0x00, 0x00, 0x00, 0x00, 0x00, 0x00, 0x00, 0x00, 0x00, 0x00, 0x00, 0x00,
  0x00, 0x00, 0x00, 0x00, 0x00, 0x00, 0x00, 0x00, 0x00, 0x00, 0x00, 0x00,
  0x00, 0x00, 0x00, 0x00, 0x00, 0x00, 0x00, 0x00, 0x00, 0x00, 0x00, 0x00,
  0x00, 0x00, 0x00, 0x00, 0x00, 0x00, 0x00, 0x00, 0x00, 0x00, 0x00, 0x00,
  0x00, 0x00, 0x00, 0x00, 0x00, 0x00, 0x00, 0x00, 0x00, 0x00, 0x00, 0x00,
  0x00, 0x00, 0x00, 0x00, 0x00, 0x00, 0x00, 0x00, 0x00, 0x00, 0x00, 0x00,
  0x00, 0x00, 0x00, 0x00, 0x00, 0x00, 0x00, 0x00, 0x00, 0x00, 0x00, 0x00,
  0x00, 0x00, 0x00, 0x00, 0x00, 0x00, 0x00, 0x00, 0x00, 0x00, 0x00, 0x00,
  0x00, 0x00, 0x00, 0x00, 0x00, 0x00, 0x00, 0x00, 0x00, 0x00, 0x00, 0x00,
  0x00, 0x00, 0x00, 0x00, 0x00, 0x00, 0x00, 0x00, 0x00, 0x00, 0x00, 0x00,
  0x00, 0x00, 0x00, 0x00, 0x00, 0x00, 0x00, 0x00, 0x00, 0x00, 0x00, 0x00,
  0x00, 0x00, 0x00, 0x00, 0x00, 0x00, 0x00, 0x00, 0x00, 0x00, 0x00, 0x00,
  0x00, 0x00, 0x00, 0x00, 0x00, 0x00, 0x00, 0x00, 0x00, 0x00, 0x00, 0x00,
  0x00, 0x00, 0x00, 0x00, 0x00, 0x00, 0x00, 0x00, 0x00, 0x00, 0x00, 0x00,
  0x00, 0x00, 0x00, 0x00, 0x00, 0x00, 0x00, 0x00, 0x00, 0x00, 0x00, 0x00,
  0x00, 0x00, 0x00, 0x00, 0x00, 0x00, 0x00, 0x00, 0x00, 0x00, 0x00, 0x00,
  0x00, 0x00, 0x00, 0x00, 0x00, 0x00, 0x00, 0x00, 0x00, 0x00, 0x00, 0x00,
  0x00, 0x00, 0x00, 0x00, 0x00, 0x00, 0x00, 0x00, 0x00, 0x00, 0x00, 0x00,
  0x00, 0x00, 0x00, 0x00, 0x00, 0x00, 0x00, 0x00, 0x00, 0x00, 0x00, 0x00,
  0x40, 0x00, 0x00, 0x00, 0x2c, 0xf9, 0x11, 0x3a, 0x03, 0x07, 0x0d, 0x3a,
  0xd5, 0xc9, 0xc4, 0x39, 0xa9, 0x9f, 0x10, 0x3a, 0x6c, 0xd2, 0xcc, 0x39,
  0x0c, 0x44, 0x3a, 0x3a, 0xe3, 0x3f, 0x6d, 0x39, 0x62, 0xe4, 0x13, 0x3a,
  0xea, 0x49, 0xfa, 0x39, 0xb3, 0x77, 0xe8, 0x39, 0x64, 0xa8, 0x0d, 0x3a,
  0x29, 0xb5, 0x07, 0x3a, 0x30, 0x0c, 0x8d, 0x39, 0x7f, 0xbc, 0x21, 0x3a,
  0x6d, 0xce, 0x0a, 0x3a, 0xbd, 0x17, 0x38, 0x3a, 0x2a, 0x93, 0x2c, 0x3a,
  0xbc, 0xa1, 0x07, 0x3a, 0x84, 0xd8, 0x0d, 0x3a, 0x18, 0x67, 0xa6, 0x39,
  0x24, 0xa2, 0x93, 0x39, 0xae, 0x03, 0x0b, 0x3a, 0x10, 0x82, 0xf8, 0x39,
  0x37, 0x31, 0xaf, 0x39, 0x07, 0x70, 0x0e, 0x3a, 0xe4, 0xfc, 0x32, 0x3a,
  0x7c, 0x47, 0x23, 0x3a, 0x86, 0xae, 0xaf, 0x39, 0x36, 0x5f, 0x71, 0x3a,
  0x28, 0x6a, 0x34, 0x3a, 0xd1, 0x15, 0x06, 0x3a, 0x37, 0x93, 0x23, 0x3a,
  0xbf, 0x4c, 0x0c, 0x3a, 0x85, 0x5e, 0x0c, 0x3a, 0xd5, 0xa4, 0x10, 0x3a,
  0x1d, 0x4b, 0x05, 0x3a, 0xb2, 0xfa, 0x87, 0x39, 0x3c, 0xe8, 0xc7, 0x39,
  0xa1, 0xe4, 0xe2, 0x39, 0x3b, 0xd1, 0x60, 0x3a, 0x37, 0xe4, 0xf7, 0x39,
  0xee, 0x3d, 0x02, 0x3b, 0xd5, 0x5a, 0xa2, 0x39, 0xbb, 0x1c, 0x0e, 0x3a,
  0xa1, 0x3e, 0x2e, 0x3a, 0x9b, 0x7f, 0x1a, 0x3a, 0xb9, 0x40, 0x10, 0x3a,
  0x77, 0xe5, 0x40, 0x38, 0x0a, 0x5c, 0x5d, 0x38, 0x0a, 0x85, 0x0a, 0x3a,
  0x4f, 0x33, 0x0c, 0x3a, 0x98, 0xba, 0x27, 0x3a, 0xcc, 0xb7, 0xf6, 0x39,
  0xe0, 0x8d, 0x36, 0x3a, 0x24, 0x78, 0x0a, 0x3a, 0x69, 0xce, 0xf3, 0x39,
  0x6c, 0x91, 0x0d, 0x3a, 0x44, 0x77, 0x21, 0x3a, 0x2a, 0x27, 0xee, 0x39,
  0x7c, 0xe5, 0x56, 0x3a, 0xae, 0xf2, 0x66, 0x3a, 0x3d, 0x3a, 0x00, 0x3a,
  0xc2, 0x23, 0xf9, 0x39, 0x6b, 0x4e, 0x83, 0x3a, 0x12, 0x00, 0x00, 0x00,
  0x74, 0x66, 0x6c, 0x2e, 0x70, 0x73, 0x65, 0x75, 0x64, 0x6f, 0x5f, 0x71,
  0x63, 0x6f, 0x6e, 0x73, 0x74, 0x38, 0x00, 0x00, 0x01, 0x00, 0x00, 0x00,
  0x40, 0x00, 0x00, 0x00, 0x96, 0xf1, 0xff, 0xff, 0x00, 0x00, 0x00, 0x01,
  0x14, 0x00, 0x00, 0x00, 0x28, 0x03, 0x00, 0x00, 0x09, 0x00, 0x00, 0x00,
  0x00, 0x00, 0x00, 0x09, 0x34, 0x03, 0x00, 0x00, 0xec, 0xf0, 0xff, 0xff,
  0x08, 0x00, 0x00, 0x00, 0x0c, 0x02, 0x00, 0x00, 0x40, 0x00, 0x00, 0x00,
  0x00, 0x00, 0x00, 0x00, 0x00, 0x00, 0x00, 0x00, 0x00, 0x00, 0x00, 0x00,
  0x00, 0x00, 0x00, 0x00, 0x00, 0x00, 0x00, 0x00, 0x00, 0x00, 0x00, 0x00,
  0x00, 0x00, 0x00, 0x00, 0x00, 0x00, 0x00, 0x00, 0x00, 0x00, 0x00, 0x00,
  0x00, 0x00, 0x00, 0x00, 0x00, 0x00, 0x00, 0x00, 0x00, 0x00, 0x00, 0x00,
  0x00, 0x00, 0x00, 0x00, 0x00, 0x00, 0x00, 0x00, 0x00, 0x00, 0x00, 0x00,
  0x00, 0x00, 0x00, 0x00, 0x00, 0x00, 0x00, 0x00, 0x00, 0x00, 0x00, 0x00,
  0x00, 0x00, 0x00, 0x00, 0x00, 0x00, 0x00, 0x00, 0x00, 0x00, 0x00, 0x00,
  0x00, 0x00, 0x00, 0x00, 0x00, 0x00, 0x00, 0x00, 0x00, 0x00, 0x00, 0x00,
  0x00, 0x00, 0x00, 0x00, 0x00, 0x00, 0x00, 0x00, 0x00, 0x00, 0x00, 0x00,
  0x00, 0x00, 0x00, 0x00, 0x00, 0x00, 0x00, 0x00, 0x00, 0x00, 0x00, 0x00,
  0x00, 0x00, 0x00, 0x00, 0x00, 0x00, 0x00, 0x00, 0x00, 0x00, 0x00, 0x00,
  0x00, 0x00, 0x00, 0x00, 0x00, 0x00, 0x00, 0x00, 0x00, 0x00, 0x00, 0x00,
  0x00, 0x00, 0x00, 0x00, 0x00, 0x00, 0x00, 0x00, 0x00, 0x00, 0x00, 0x00,
  0x00, 0x00, 0x00, 0x00, 0x00, 0x00, 0x00, 0x00, 0x00, 0x00, 0x00, 0x00,
  0x00, 0x00, 0x00, 0x00, 0x00, 0x00, 0x00, 0x00, 0x00, 0x00, 0x00, 0x00,
  0x00, 0x00, 0x00, 0x00, 0x00, 0x00, 0x00, 0x00, 0x00, 0x00, 0x00, 0x00,
  0x00, 0x00, 0x00, 0x00, 0x00, 0x00, 0x00, 0x00, 0x00, 0x00, 0x00, 0x00,
  0x00, 0x00, 0x00, 0x00, 0x00, 0x00, 0x00, 0x00, 0x00, 0x00, 0x00, 0x00,
  0x00, 0x00, 0x00, 0x00, 0x00, 0x00, 0x00, 0x00, 0x00, 0x00, 0x00, 0x00,
  0x00, 0x00, 0x00, 0x00, 0x00, 0x00, 0x00, 0x00, 0x00, 0x00, 0x00, 0x00,
  0x00, 0x00, 0x00, 0x00, 0x00, 0x00, 0x00, 0x00, 0x00, 0x00, 0x00, 0x00,
  0x00, 0x00, 0x00, 0x00, 0x00, 0x00, 0x00, 0x00, 0x00, 0x00, 0x00, 0x00,
  0x00, 0x00, 0x00, 0x00, 0x00, 0x00, 0x00, 0x00, 0x00, 0x00, 0x00, 0x00,
  0x00, 0x00, 0x00, 0x00, 0x00, 0x00, 0x00, 0x00, 0x00, 0x00, 0x00, 0x00,
  0x00, 0x00, 0x00, 0x00, 0x00, 0x00, 0x00, 0x00, 0x00, 0x00, 0x00, 0x00,
  0x00, 0x00, 0x00, 0x00, 0x00, 0x00, 0x00, 0x00, 0x00, 0x00, 0x00, 0x00,
  0x00, 0x00, 0x00, 0x00, 0x00, 0x00, 0x00, 0x00, 0x00, 0x00, 0x00, 0x00,
  0x00, 0x00, 0x00, 0x00, 0x00, 0x00, 0x00, 0x00, 0x00, 0x00, 0x00, 0x00,
  0x00, 0x00, 0x00, 0x00, 0x00, 0x00, 0x00, 0x00, 0x00, 0x00, 0x00, 0x00,
  0x00, 0x00, 0x00, 0x00, 0x00, 0x00, 0x00, 0x00, 0x00, 0x00, 0x00, 0x00,
  0x00, 0x00, 0x00, 0x00, 0x00, 0x00, 0x00, 0x00, 0x00, 0x00, 0x00, 0x00,
  0x00, 0x00, 0x00, 0x00, 0x00, 0x00, 0x00, 0x00, 0x00, 0x00, 0x00, 0x00,
  0x00, 0x00, 0x00, 0x00, 0x00, 0x00, 0x00, 0x00, 0x00, 0x00, 0x00, 0x00,
  0x00, 0x00, 0x00, 0x00, 0x00, 0x00, 0x00, 0x00, 0x00, 0x00, 0x00, 0x00,
  0x00, 0x00, 0x00, 0x00, 0x00, 0x00, 0x00, 0x00, 0x00, 0x00, 0x00, 0x00,
  0x00, 0x00, 0x00, 0x00, 0x00, 0x00, 0x00, 0x00, 0x00, 0x00, 0x00, 0x00,
  0x00, 0x00, 0x00, 0x00, 0x00, 0x00, 0x00, 0x00, 0x00, 0x00, 0x00, 0x00,
  0x00, 0x00, 0x00, 0x00, 0x00, 0x00, 0x00, 0x00, 0x00, 0x00, 0x00, 0x00,
  0x00, 0x00, 0x00, 0x00, 0x00, 0x00, 0x00, 0x00, 0x00, 0x00, 0x00, 0x00,
  0x00, 0x00, 0x00, 0x00, 0x00, 0x00, 0x00, 0x00, 0x00, 0x00, 0x00, 0x00,
  0x00, 0x00, 0x00, 0x00, 0x00, 0x00, 0x00, 0x00, 0x00, 0x00, 0x00, 0x00,
  0x00, 0x00, 0x00, 0x00, 0x00, 0x00, 0x00, 0x00, 0x00, 0x00, 0x00, 0x00,
  0x00, 0x00, 0x00, 0x00, 0x00, 0x00, 0x00, 0x00, 0x00, 0x00, 0x00, 0x00,
  0x40, 0x00, 0x00, 0x00, 0xb2, 0x44, 0x86, 0x3e, 0x68, 0xa3, 0xd5, 0x3d,
  0xb7, 0x57, 0x51, 0x3e, 0xad, 0xe0, 0x53, 0x3e, 0x98, 0x5c, 0xad, 0x3d,
  0x91, 0xb3, 0x48, 0x3e, 0xf4, 0x6f, 0x8d, 0x3d, 0x29, 0xc5, 0x08, 0x3e,
  0x37, 0xe4, 0x7e, 0x3e, 0xc8, 0x76, 0xda, 0x3d, 0x0b, 0xf0, 0x8b, 0x3e,
  0xc7, 0x94, 0x36, 0x3e, 0x7a, 0xaf, 0x4f, 0x3e, 0x57, 0xd7, 0x57, 0x3e,
  0xa8, 0x8a, 0xe9, 0x3e, 0x95, 0xfc, 0xf8, 0x3d, 0x54, 0x57, 0xed, 0x3d,
  0x02, 0xca, 0xc6, 0x3d, 0xd3, 0xbf, 0x43, 0x3e, 0x53, 0xb8, 0xc2, 0x3d,
  0xec, 0xdb, 0x46, 0x3e, 0x2a, 0x80, 0x07, 0x3e, 0x0d, 0x83, 0xdb, 0x3d,
  0xc8, 0x21, 0x1a, 0x3e, 0x46, 0xeb, 0x1b, 0x3e, 0xb6, 0xc2, 0xa4, 0x3d,
  0x31, 0x8f, 0x1f, 0x3e, 0x60, 0xbb, 0x2b, 0x3e, 0x5e, 0x6b, 0x93, 0x3e,
  0x00, 0xa2, 0x3c, 0x3e, 0x74, 0x6c, 0xc9, 0x3e, 0x62, 0x47, 0xa3, 0x3d,
  0xad, 0x25, 0xfb, 0x3d, 0xf8, 0xd4, 0x0b, 0x3e, 0xa1, 0xdd, 0x36, 0x3e,
  0x39, 0x47, 0x09, 0x3e, 0xa8, 0x07, 0x75, 0x3e, 0x04, 0xb3, 0x99, 0x3e,
  0xce, 0x5a, 0xf1, 0x3d, 0x78, 0x28, 0x9e, 0x3e, 0x25, 0x90, 0xb8, 0x3d,
  0x08, 0x92, 0xd5, 0x3d, 0xd9, 0xe5, 0x29, 0x3e, 0x2d, 0x24, 0x70, 0x3e,
  0x99, 0x17, 0x97, 0x3e, 0x32, 0x09, 0x79, 0x3e, 0xb9, 0x58, 0x45, 0x3e,
  0x42, 0xff, 0x2d, 0x3e, 0x71, 0xdf, 0x1b, 0x3d, 0x85, 0x07, 0x49, 0x3e,
  0x05, 0xee, 0x57, 0x3e, 0x00, 0xa0, 0xf8, 0x3d, 0xfb, 0xcb, 0x92, 0x3e,
  0x9b, 0x57, 0x10, 0x3e, 0xb1, 0xd1, 0x19, 0x3e, 0x66, 0x12, 0x68, 0x3e,
  0x20, 0xea, 0x05, 0x3e, 0x3f, 0x6b, 0x1f, 0x3e, 0x61, 0x89, 0x23, 0x3e,
  0x1b, 0x33, 0xb6, 0x3e, 0x6c, 0x7a, 0x28, 0x3e, 0xc4, 0x2d, 0xef, 0x3d,
  0x17, 0x04, 0x95, 0x3e, 0xa4, 0x2f, 0x5c, 0x3e, 0x12, 0x00, 0x00, 0x00,
  0x74, 0x66, 0x6c, 0x2e, 0x70, 0x73, 0x65, 0x75, 0x64, 0x6f, 0x5f, 0x71,
  0x63, 0x6f, 0x6e, 0x73, 0x74, 0x37, 0x00, 0x00, 0x02, 0x00, 0x00, 0x00,
  0x40, 0x00, 0x00, 0x00, 0x40, 0x00, 0x00, 0x00, 0xee, 0xf4, 0xff, 0xff,
  0x00, 0x00, 0x00, 0x01, 0x14, 0x00, 0x00, 0x00, 0x24, 0x03, 0x00, 0x00,
  0x08, 0x00, 0x00, 0x00, 0x00, 0x00, 0x00, 0x02, 0x30, 0x03, 0x00, 0x00,
  0x44, 0xf4, 0xff, 0xff, 0x08, 0x00, 0x00, 0x00, 0x08, 0x02, 0x00, 0x00,
  0x40, 0x00, 0x00, 0x00, 0x00, 0x00, 0x00, 0x00, 0x00, 0x00, 0x00, 0x00,
  0x00, 0x00, 0x00, 0x00, 0x00, 0x00, 0x00, 0x00, 0x00, 0x00, 0x00, 0x00,
  0x00, 0x00, 0x00, 0x00, 0x00, 0x00, 0x00, 0x00, 0x00, 0x00, 0x00, 0x00,
  0x00, 0x00, 0x00, 0x00, 0x00, 0x00, 0x00, 0x00, 0x00, 0x00, 0x00, 0x00,
  0x00, 0x00, 0x00, 0x00, 0x00, 0x00, 0x00, 0x00, 0x00, 0x00, 0x00, 0x00,
  0x00, 0x00, 0x00, 0x00, 0x00, 0x00, 0x00, 0x00, 0x00, 0x00, 0x00, 0x00,
  0x00, 0x00, 0x00, 0x00, 0x00, 0x00, 0x00, 0x00, 0x00, 0x00, 0x00, 0x00,
  0x00, 0x00, 0x00, 0x00, 0x00, 0x00, 0x00, 0x00, 0x00, 0x00, 0x00, 0x00,
  0x00, 0x00, 0x00, 0x00, 0x00, 0x00, 0x00, 0x00, 0x00, 0x00, 0x00, 0x00,
  0x00, 0x00, 0x00, 0x00, 0x00, 0x00, 0x00, 0x00, 0x00, 0x00, 0x00, 0x00,
  0x00, 0x00, 0x00, 0x00, 0x00, 0x00, 0x00, 0x00, 0x00, 0x00, 0x00, 0x00,
  0x00, 0x00, 0x00, 0x00, 0x00, 0x00, 0x00, 0x00, 0x00, 0x00, 0x00, 0x00,
  0x00, 0x00, 0x00, 0x00, 0x00, 0x00, 0x00, 0x00, 0x00, 0x00, 0x00, 0x00,
  0x00, 0x00, 0x00, 0x00, 0x00, 0x00, 0x00, 0x00, 0x00, 0x00, 0x00, 0x00,
  0x00, 0x00, 0x00, 0x00, 0x00, 0x00, 0x00, 0x00, 0x00, 0x00, 0x00, 0x00,
  0x00, 0x00, 0x00, 0x00, 0x00, 0x00, 0x00, 0x00, 0x00, 0x00, 0x00, 0x00,
  0x00, 0x00, 0x00, 0x00, 0x00, 0x00, 0x00, 0x00, 0x00, 0x00, 0x00, 0x00,
  0x00, 0x00, 0x00, 0x00, 0x00, 0x00, 0x00, 0x00, 0x00, 0x00, 0x00, 0x00,
  0x00, 0x00, 0x00, 0x00, 0x00, 0x00, 0x00, 0x00, 0x00, 0x00, 0x00, 0x00,
  0x00, 0x00, 0x00, 0x00, 0x00, 0x00, 0x00, 0x00, 0x00, 0x00, 0x00, 0x00,
  0x00, 0x00, 0x00, 0x00, 0x00, 0x00, 0x00, 0x00, 0x00, 0x00, 0x00, 0x00,
  0x00, 0x00, 0x00, 0x00, 0x00, 0x00, 0x00, 0x00, 0x00, 0x00, 0x00, 0x00,
  0x00, 0x00, 0x00, 0x00, 0x00, 0x00, 0x00, 0x00, 0x00, 0x00, 0x00, 0x00,
  0x00, 0x00, 0x00, 0x00, 0x00, 0x00, 0x00, 0x00, 0x00, 0x00, 0x00, 0x00,
  0x00, 0x00, 0x00, 0x00, 0x00, 0x00, 0x00, 0x00, 0x00, 0x00, 0x00, 0x00,
  0x00, 0x00, 0x00, 0x00, 0x00, 0x00, 0x00, 0x00, 0x00, 0x00, 0x00, 0x00,
  0x00, 0x00, 0x00, 0x00, 0x00, 0x00, 0x00, 0x00, 0x00, 0x00, 0x00, 0x00,
  0x00, 0x00, 0x00, 0x00, 0x00, 0x00, 0x00, 0x00, 0x00, 0x00, 0x00, 0x00,
  0x00, 0x00, 0x00, 0x00, 0x00, 0x00, 0x00, 0x00, 0x00, 0x00, 0x00, 0x00,
  0x00, 0x00, 0x00, 0x00, 0x00, 0x00, 0x00, 0x00, 0x00, 0x00, 0x00, 0x00,
  0x00, 0x00, 0x00, 0x00, 0x00, 0x00, 0x00, 0x00, 0x00, 0x00, 0x00, 0x00,
  0x00, 0x00, 0x00, 0x00, 0x00, 0x00, 0x00, 0x00, 0x00, 0x00, 0x00, 0x00,
  0x00, 0x00, 0x00, 0x00, 0x00, 0x00, 0x00, 0x00, 0x00, 0x00, 0x00, 0x00,
  0x00, 0x00, 0x00, 0x00, 0x00, 0x00, 0x00, 0x00, 0x00, 0x00, 0x00, 0x00,
  0x00, 0x00, 0x00, 0x00, 0x00, 0x00, 0x00, 0x00, 0x00, 0x00, 0x00, 0x00,
  0x00, 0x00, 0x00, 0x00, 0x00, 0x00, 0x00, 0x00, 0x00, 0x00, 0x00, 0x00,
  0x00, 0x00, 0x00, 0x00, 0x00, 0x00, 0x00, 0x00, 0x00, 0x00, 0x00, 0x00,
  0x00, 0x00, 0x00, 0x00, 0x00, 0x00, 0x00, 0x00, 0x00, 0x00, 0x00, 0x00,
  0x00, 0x00, 0x00, 0x00, 0x00, 0x00, 0x00, 0x00, 0x00, 0x00, 0x00, 0x00,
  0x00, 0x00, 0x00, 0x00, 0x00, 0x00, 0x00, 0x00, 0x00, 0x00, 0x00, 0x00,
  0x00, 0x00, 0x00, 0x00, 0x00, 0x00, 0x00, 0x00, 0x00, 0x00, 0x00, 0x00,
  0x00, 0x00, 0x00, 0x00, 0x00, 0x00, 0x00, 0x00, 0x00, 0x00, 0x00, 0x00,
  0x00, 0x00, 0x00, 0x00, 0x00, 0x00, 0x00, 0x00, 0x00, 0x00, 0x00, 0x00,
  0x40, 0x00, 0x00, 0x00, 0xa5, 0xbb, 0x8c, 0x3c, 0xa5, 0xec, 0xdf, 0x3b,
  0x02, 0x6c, 0x5b, 0x3c, 0x36, 0x14, 0x5e, 0x3c, 0x65, 0xb5, 0xb5, 0x3b,
  0x59, 0x5d, 0x52, 0x3c, 0x44, 0x3f, 0x94, 0x3b, 0xf2, 0x5a, 0x0f, 0x3c,
  0xf7, 0x94, 0x85, 0x3c, 0x80, 0xfb, 0xe4, 0x3b, 0xdf, 0xac, 0x92, 0x3c,
  0x37, 0x5f, 0x3f, 0x3c, 0x57, 0xaf, 0x59, 0x3c, 0xbb, 0x3b, 0x62, 0x3c,
  0x37, 0xc9, 0xf4, 0x3c, 0xc2, 0x7c, 0x02, 0x3c, 0xb8, 0xc4, 0xf8, 0x3b,
  0x38, 0x5c, 0xd0, 0x3b, 0x91, 0x2c, 0x4d, 0x3c, 0x62, 0x18, 0xcc, 0x3b,
  0xff, 0x6e, 0x50, 0x3c, 0x4d, 0x06, 0x0e, 0x3c, 0xaf, 0x14, 0xe6, 0x3b,
  0x90, 0x8d, 0x21, 0x3c, 0x15, 0x6d, 0x23, 0x3c, 0x7f, 0xb1, 0xac, 0x3b,
  0xdf, 0x3d, 0x27, 0x3c, 0x17, 0x00, 0x34, 0x3c, 0x69, 0x84, 0x9a, 0x3c,
  0x07, 0xb7, 0x45, 0x3c, 0x23, 0x1f, 0xd3, 0x3c, 0xe8, 0x23, 0xab, 0x3b,
  0x9e, 0x9e, 0x03, 0x3c, 0x7e, 0x90, 0x12, 0x3c, 0x93, 0xab, 0x3f, 0x3c,
  0x45, 0xe3, 0x0f, 0x3c, 0xe9, 0x69, 0x80, 0x3c, 0x77, 0x19, 0xa1, 0x3c,
  0xab, 0xf9, 0xfc, 0x3b, 0xe0, 0xc5, 0xa5, 0x3c, 0x03, 0x73, 0xc1, 0x3b,
  0x6f, 0xda, 0xdf, 0x3b, 0xf4, 0x13, 0x32, 0x3c, 0x15, 0xb4, 0x7b, 0x3c,
  0xe9, 0x5d, 0x9e, 0x3c, 0x5e, 0x83, 0x82, 0x3c, 0x27, 0xd9, 0x4e, 0x3c,
  0xe4, 0x5f, 0x36, 0x3c, 0xae, 0x60, 0x23, 0x3b, 0x58, 0xb5, 0x52, 0x3c,
  0x80, 0x53, 0x62, 0x3c, 0x3d, 0x4c, 0x02, 0x3c, 0x5a, 0xdd, 0x99, 0x3c,
  0xb9, 0x4a, 0x17, 0x3c, 0x9e, 0x39, 0x21, 0x3c, 0xd8, 0x3e, 0x73, 0x3c,
  0xb7, 0x5c, 0x0c, 0x3c, 0x32, 0x18, 0x27, 0x3c, 0x14, 0x69, 0x2b, 0x3c,
  0xd7, 0xf8, 0xbe, 0x3c, 0x08, 0x97, 0x30, 0x3c, 0xcf, 0xb1, 0xfa, 0x3b,
  0xd0, 0x30, 0x9c, 0x3c, 0x96, 0xc9, 0x66, 0x3c, 0x12, 0x00, 0x00, 0x00,
  0x74, 0x66, 0x6c, 0x2e, 0x70, 0x73, 0x65, 0x75, 0x64, 0x6f, 0x5f, 0x71,
  0x63, 0x6f, 0x6e, 0x73, 0x74, 0x36, 0x00, 0x00, 0x01, 0x00, 0x00, 0x00,
  0x40, 0x00, 0x00, 0x00, 0x3e, 0xf8, 0xff, 0xff, 0x00, 0x00, 0x00, 0x01,
  0x14, 0x00, 0x00, 0x00, 0xa8, 0x01, 0x00, 0x00, 0x07, 0x00, 0x00, 0x00,
  0x00, 0x00, 0x00, 0x09, 0xb4, 0x01, 0x00, 0x00, 0x94, 0xf7, 0xff, 0xff,
  0x08, 0x00, 0x00, 0x00, 0x0c, 0x01, 0x00, 0x00, 0x20, 0x00, 0x00, 0x00,
  0x00, 0x00, 0x00, 0x00, 0x00, 0x00, 0x00, 0x00, 0x00, 0x00, 0x00, 0x00,
  0x00, 0x00, 0x00, 0x00, 0x00, 0x00, 0x00, 0x00, 0x00, 0x00, 0x00, 0x00,
  0x00, 0x00, 0x00, 0x00, 0x00, 0x00, 0x00, 0x00, 0x00, 0x00, 0x00, 0x00,
  0x00, 0x00, 0x00, 0x00, 0x00, 0x00, 0x00, 0x00, 0x00, 0x00, 0x00, 0x00,
  0x00, 0x00, 0x00, 0x00, 0x00, 0x00, 0x00, 0x00, 0x00, 0x00, 0x00, 0x00,
  0x00, 0x00, 0x00, 0x00, 0x00, 0x00, 0x00, 0x00, 0x00, 0x00, 0x00, 0x00,
  0x00, 0x00, 0x00, 0x00, 0x00, 0x00, 0x00, 0x00, 0x00, 0x00, 0x00, 0x00,
  0x00, 0x00, 0x00, 0x00, 0x00, 0x00, 0x00, 0x00, 0x00, 0x00, 0x00, 0x00,
  0x00, 0x00, 0x00, 0x00, 0x00, 0x00, 0x00, 0x00, 0x00, 0x00, 0x00, 0x00,
  0x00, 0x00, 0x00, 0x00, 0x00, 0x00, 0x00, 0x00, 0x00, 0x00, 0x00, 0x00,
  0x00, 0x00, 0x00, 0x00, 0x00, 0x00, 0x00, 0x00, 0x00, 0x00, 0x00, 0x00,
  0x00, 0x00, 0x00, 0x00, 0x00, 0x00, 0x00, 0x00, 0x00, 0x00, 0x00, 0x00,
  0x00, 0x00, 0x00, 0x00, 0x00, 0x00, 0x00, 0x00, 0x00, 0x00, 0x00, 0x00,
  0x00, 0x00, 0x00, 0x00, 0x00, 0x00, 0x00, 0x00, 0x00, 0x00, 0x00, 0x00,
  0x00, 0x00, 0x00, 0x00, 0x00, 0x00, 0x00, 0x00, 0x00, 0x00, 0x00, 0x00,
  0x00, 0x00, 0x00, 0x00, 0x00, 0x00, 0x00, 0x00, 0x00, 0x00, 0x00, 0x00,
  0x00, 0x00, 0x00, 0x00, 0x00, 0x00, 0x00, 0x00, 0x00, 0x00, 0x00, 0x00,
  0x00, 0x00, 0x00, 0x00, 0x00, 0x00, 0x00, 0x00, 0x00, 0x00, 0x00, 0x00,
  0x00, 0x00, 0x00, 0x00, 0x00, 0x00, 0x00, 0x00, 0x00, 0x00, 0x00, 0x00,
  0x00, 0x00, 0x00, 0x00, 0x00, 0x00, 0x00, 0x00, 0x00, 0x00, 0x00, 0x00,
  0x00, 0x00, 0x00, 0x00, 0x00, 0x00, 0x00, 0x00, 0x00, 0x00, 0x00, 0x00,
  0x00, 0x00, 0x00, 0x00, 0x00, 0x00, 0x00, 0x00, 0x20, 0x00, 0x00, 0x00,
  0x78, 0xc6, 0x19, 0x3c, 0x79, 0x92, 0xa0, 0x3c, 0xb3, 0x0f, 0x7b, 0x3c,
  0xf7, 0x78, 0xea, 0x3c, 0x42, 0x02, 0xab, 0x3c, 0x6c, 0x1d, 0x45, 0x3c,
  0xd8, 0x19, 0x81, 0x3c, 0x38, 0x49, 0x9c, 0x3c, 0x9a, 0xd8, 0xa5, 0x3c,
  0x2a, 0x8a, 0x63, 0x3c, 0x15, 0x8b, 0xc6, 0x3c, 0x4c, 0xb6, 0x6c, 0x3c,
  0x8d, 0xea, 0xbe, 0x3b, 0xb1, 0xbb, 0x8e, 0x3c, 0x24, 0x62, 0x49, 0x3c,
  0x15, 0x7e, 0x4d, 0x3c, 0x3a, 0x7e, 0xc4, 0x3c, 0x6c, 0x83, 0x96, 0x3c,
  0xe0, 0xd0, 0x21, 0x3c, 0x66, 0x6d, 0xb4, 0x3c, 0x7a, 0xf6, 0x46, 0x3c,
  0xeb, 0x1e, 0x67, 0x3c, 0xa8, 0x63, 0xe2, 0x3c, 0xc3, 0x1a, 0x6a, 0x3c,
  0x53, 0xfa, 0x9b, 0x3c, 0x23, 0x2a, 0x8f, 0x3c, 0x3b, 0x22, 0xa2, 0x3c,
  0x07, 0xa4, 0x42, 0x3c, 0x5f, 0x93, 0xbb, 0x3c, 0x35, 0xb6, 0xbe, 0x3c,
  0xcd, 0x9a, 0x71, 0x3c, 0x2f, 0x5d, 0xa2, 0x3c, 0x12, 0x00, 0x00, 0x00,
  0x74, 0x66, 0x6c, 0x2e, 0x70, 0x73, 0x65, 0x75, 0x64, 0x6f, 0x5f, 0x71,
  0x63, 0x6f, 0x6e, 0x73, 0x74, 0x35, 0x00, 0x00, 0x02, 0x00, 0x00, 0x00,
  0x20, 0x00, 0x00, 0x00, 0x40, 0x00, 0x00, 0x00, 0x16, 0xfa, 0xff, 0xff,
  0x00, 0x00, 0x00, 0x01, 0x14, 0x00, 0x00, 0x00, 0xa4, 0x01, 0x00, 0x00,
  0x06, 0x00, 0x00, 0x00, 0x00, 0x00, 0x00, 0x02, 0xb0, 0x01, 0x00, 0x00,
  0x6c, 0xf9, 0xff, 0xff, 0x08, 0x00, 0x00, 0x00, 0x08, 0x01, 0x00, 0x00,
  0x20, 0x00, 0x00, 0x00, 0x00, 0x00, 0x00, 0x00, 0x00, 0x00, 0x00, 0x00,
  0x00, 0x00, 0x00, 0x00, 0x00, 0x00, 0x00, 0x00, 0x00, 0x00, 0x00, 0x00,
  0x00, 0x00, 0x00, 0x00, 0x00, 0x00, 0x00, 0x00, 0x00, 0x00, 0x00, 0x00,
  0x00, 0x00, 0x00, 0x00, 0x00, 0x00, 0x00, 0x00, 0x00, 0x00, 0x00, 0x00,
  0x00, 0x00, 0x00, 0x00, 0x00, 0x00, 0x00, 0x00, 0x00, 0x00, 0x00, 0x00,
  0x00, 0x00, 0x00, 0x00, 0x00, 0x00, 0x00, 0x00, 0x00, 0x00, 0x00, 0x00,
  0x00, 0x00, 0x00, 0x00, 0x00, 0x00, 0x00, 0x00, 0x00, 0x00, 0x00, 0x00,
  0x00, 0x00, 0x00, 0x00, 0x00, 0x00, 0x00, 0x00, 0x00, 0x00, 0x00, 0x00,
  0x00, 0x00, 0x00, 0x00, 0x00, 0x00, 0x00, 0x00, 0x00, 0x00, 0x00, 0x00,
  0x00, 0x00, 0x00, 0x00, 0x00, 0x00, 0x00, 0x00, 0x00, 0x00, 0x00, 0x00,
  0x00, 0x00, 0x00, 0x00, 0x00, 0x00, 0x00, 0x00, 0x00, 0x00, 0x00, 0x00,
  0x00, 0x00, 0x00, 0x00, 0x00, 0x00, 0x00, 0x00, 0x00, 0x00, 0x00, 0x00,
  0x00, 0x00, 0x00, 0x00, 0x00, 0x00, 0x00, 0x00, 0x00, 0x00, 0x00, 0x00,
  0x00, 0x00, 0x00, 0x00, 0x00, 0x00, 0x00, 0x00, 0x00, 0x00, 0x00, 0x00,
  0x00, 0x00, 0x00, 0x00, 0x00, 0x00, 0x00, 0x00, 0x00, 0x00, 0x00, 0x00,
  0x00, 0x00, 0x00, 0x00, 0x00, 0x00, 0x00, 0x00, 0x00, 0x00, 0x00, 0x00,
  0x00, 0x00, 0x00, 0x00, 0x00, 0x00, 0x00, 0x00, 0x00, 0x00, 0x00, 0x00,
  0x00, 0x00, 0x00, 0x00, 0x00, 0x00, 0x00, 0x00, 0x00, 0x00, 0x00, 0x00,
  0x00, 0x00, 0x00, 0x00, 0x00, 0x00, 0x00, 0x00, 0x00, 0x00, 0x00, 0x00,
  0x00, 0x00, 0x00, 0x00, 0x00, 0x00, 0x00, 0x00, 0x00, 0x00, 0x00, 0x00,
  0x00, 0x00, 0x00, 0x00, 0x00, 0x00, 0x00, 0x00, 0x00, 0x00, 0x00, 0x00,
  0x00, 0x00, 0x00, 0x00, 0x00, 0x00, 0x00, 0x00, 0x20, 0x00, 0x00, 0x00,
  0x4e, 0x86, 0x94, 0x3a, 0xe6, 0x16, 0x1b, 0x3b, 0x26, 0x7d, 0xf2, 0x3a,
  0x6b, 0x77, 0x62, 0x3b, 0x74, 0x2b, 0x25, 0x3b, 0x6c, 0x62, 0xbe, 0x3a,
  0xb9, 0x62, 0xf9, 0x3a, 0x1c, 0xf3, 0x16, 0x3b, 0xed, 0x2e, 0x20, 0x3b,
  0x38, 0xc5, 0xdb, 0x3a, 0x99, 0xc3, 0x3f, 0x3b, 0x2d, 0xa1, 0xe4, 0x3a,
  0xbc, 0x65, 0x38, 0x3a, 0x0c, 0xdc, 0x09, 0x3b, 0xd5, 0x81, 0xc2, 0x3a,
  0xdb, 0x79, 0xc6, 0x3a, 0xaa, 0xc8, 0x3d, 0x3b, 0xc5, 0x5f, 0x11, 0x3b,
  0x6d, 0x4a, 0x9c, 0x3a, 0x44, 0x44, 0x2e, 0x3b, 0x53, 0x2b, 0xc0, 0x3a,
  0xac, 0x3a, 0xdf, 0x3a, 0xc4, 0xa8, 0x5a, 0x3b, 0x6f, 0x1c, 0xe2, 0x3a,
  0xe8, 0xa6, 0x16, 0x3b, 0xb9, 0x46, 0x0a, 0x3b, 0x01, 0x99, 0x1c, 0x3b,
  0xa8, 0xfe, 0xbb, 0x3a, 0xc1, 0x2b, 0x35, 0x3b, 0x2e, 0x33, 0x38, 0x3b,
  0xea, 0x5a, 0xe9, 0x3a, 0xf2, 0xd1, 0x1c, 0x3b, 0x12, 0x00, 0x00, 0x00,
  0x74, 0x66, 0x6c, 0x2e, 0x70, 0x73, 0x65, 0x75, 0x64, 0x6f, 0x5f, 0x71,
  0x63, 0x6f, 0x6e, 0x73, 0x74, 0x34, 0x00, 0x00, 0x01, 0x00, 0x00, 0x00,
  0x20, 0x00, 0x00, 0x00, 0xe6, 0xfb, 0xff, 0xff, 0x00, 0x00, 0x00, 0x01,
  0x14, 0x00, 0x00, 0x00, 0xa8, 0x01, 0x00, 0x00, 0x05, 0x00, 0x00, 0x00,
  0x00, 0x00, 0x00, 0x09, 0xb4, 0x01, 0x00, 0x00, 0x3c, 0xfb, 0xff, 0xff,
  0x08, 0x00, 0x00, 0x00, 0x0c, 0x01, 0x00, 0x00, 0x20, 0x00, 0x00, 0x00,
  0x00, 0x00, 0x00, 0x00, 0x00, 0x00, 0x00, 0x00, 0x00, 0x00, 0x00, 0x00,
  0x00, 0x00, 0x00, 0x00, 0x00, 0x00, 0x00, 0x00, 0x00, 0x00, 0x00, 0x00,
  0x00, 0x00, 0x00, 0x00, 0x00, 0x00, 0x00, 0x00, 0x00, 0x00, 0x00, 0x00,
  0x00, 0x00, 0x00, 0x00, 0x00, 0x00, 0x00, 0x00, 0x00, 0x00, 0x00, 0x00,
  0x00, 0x00, 0x00, 0x00, 0x00, 0x00, 0x00, 0x00, 0x00, 0x00, 0x00, 0x00,
  0x00, 0x00, 0x00, 0x00, 0x00, 0x00, 0x00, 0x00, 0x00, 0x00, 0x00, 0x00,
  0x00, 0x00, 0x00, 0x00, 0x00, 0x00, 0x00, 0x00, 0x00, 0x00, 0x00, 0x00,
  0x00, 0x00, 0x00, 0x00, 0x00, 0x00, 0x00, 0x00, 0x00, 0x00, 0x00, 0x00,
  0x00, 0x00, 0x00, 0x00, 0x00, 0x00, 0x00, 0x00, 0x00, 0x00, 0x00, 0x00,
  0x00, 0x00, 0x00, 0x00, 0x00, 0x00, 0x00, 0x00, 0x00, 0x00, 0x00, 0x00,
  0x00, 0x00, 0x00, 0x00, 0x00, 0x00, 0x00, 0x00, 0x00, 0x00, 0x00, 0x00,
  0x00, 0x00, 0x00, 0x00, 0x00, 0x00, 0x00, 0x00, 0x00, 0x00, 0x00, 0x00,
  0x00, 0x00, 0x00, 0x00, 0x00, 0x00, 0x00, 0x00, 0x00, 0x00, 0x00, 0x00,
  0x00, 0x00, 0x00, 0x00, 0x00, 0x00, 0x00, 0x00, 0x00, 0x00, 0x00, 0x00,
  0x00, 0x00, 0x00, 0x00, 0x00, 0x00, 0x00, 0x00, 0x00, 0x00, 0x00, 0x00,
  0x00, 0x00, 0x00, 0x00, 0x00, 0x00, 0x00, 0x00, 0x00, 0x00, 0x00, 0x00,
  0x00, 0x00, 0x00, 0x00, 0x00, 0x00, 0x00, 0x00, 0x00, 0x00, 0x00, 0x00,
  0x00, 0x00, 0x00, 0x00, 0x00, 0x00, 0x00, 0x00, 0x00, 0x00, 0x00, 0x00,
  0x00, 0x00, 0x00, 0x00, 0x00, 0x00, 0x00, 0x00, 0x00, 0x00, 0x00, 0x00,
  0x00, 0x00, 0x00, 0x00, 0x00, 0x00, 0x00, 0x00, 0x00, 0x00, 0x00, 0x00,
  0x00, 0x00, 0x00, 0x00, 0x00, 0x00, 0x00, 0x00, 0x00, 0x00, 0x00, 0x00,
  0x00, 0x00, 0x00, 0x00, 0x00, 0x00, 0x00, 0x00, 0x20, 0x00, 0x00, 0x00,
  0xa0, 0x7b, 0x07, 0x3c, 0xfa, 0x17, 0x07, 0x3c, 0x0f, 0x0e, 0xd6, 0x3b,
  0xfd, 0xd8, 0x56, 0x3c, 0x02, 0x9b, 0xd3, 0x3b, 0xcd, 0x30, 0xb8, 0x3b,
  0x5f, 0x9e, 0x27, 0x3c, 0x29, 0xb7, 0x7e, 0x3c, 0x5d, 0x01, 0x0a, 0x3c,
  0xca, 0x4d, 0x0b, 0x3c, 0xbc, 0x4b, 0x85, 0x3b, 0x02, 0x56, 0x61, 0x3c,
  0xd7, 0x71, 0x20, 0x3c, 0x86, 0x37, 0x9e, 0x3c, 0xd6, 0xd8, 0x15, 0x3c,
  0xad, 0xfb, 0x1e, 0x3c, 0x3f, 0x34, 0x95, 0x3b, 0x60, 0x33, 0xf1, 0x3b,
  0x1a, 0xd7, 0xb1, 0x3b, 0xc5, 0x7f, 0x4f, 0x3c, 0xac, 0xcb, 0xa9, 0x3b,
  0x02, 0x08, 0x6e, 0x3c, 0xaf, 0x2d, 0x3f, 0x3c, 0x68, 0x7d, 0x1c, 0x3c,
  0xd9, 0x58, 0x6e, 0x3c, 0x3e, 0xab, 0x38, 0x3d, 0x78, 0x55, 0x2e, 0x3c,
  0x29, 0x39, 0x2c, 0x3d, 0x3d, 0x45, 0x2e, 0x3d, 0x7c, 0xb4, 0x17, 0x3c,
  0x26, 0xbb, 0xde, 0x3b, 0x6a, 0xc2, 0x0d, 0x3c, 0x12, 0x00, 0x00, 0x00,
  0x74, 0x66, 0x6c, 0x2e, 0x70, 0x73, 0x65, 0x75, 0x64, 0x6f, 0x5f, 0x71,
  0x63, 0x6f, 0x6e, 0x73, 0x74, 0x33, 0x00, 0x00, 0x02, 0x00, 0x00, 0x00,
  0x20, 0x00, 0x00, 0x00, 0x20, 0x00, 0x00, 0x00, 0xbe, 0xfd, 0xff, 0xff,
  0x00, 0x00, 0x00, 0x01, 0x14, 0x00, 0x00, 0x00, 0xa4, 0x01, 0x00, 0x00,
  0x04, 0x00, 0x00, 0x00, 0x00, 0x00, 0x00, 0x02, 0xb0, 0x01, 0x00, 0x00,
  0x14, 0xfd, 0xff, 0xff, 0x08, 0x00, 0x00, 0x00, 0x08, 0x01, 0x00, 0x00,
  0x20, 0x00, 0x00, 0x00, 0x00, 0x00, 0x00, 0x00, 0x00, 0x00, 0x00, 0x00,
  0x00, 0x00, 0x00, 0x00, 0x00, 0x00, 0x00, 0x00, 0x00, 0x00, 0x00, 0x00,
  0x00, 0x00, 0x00, 0x00, 0x00, 0x00, 0x00, 0x00, 0x00, 0x00, 0x00, 0x00,
  0x00, 0x00, 0x00, 0x00, 0x00, 0x00, 0x00, 0x00, 0x00, 0x00, 0x00, 0x00,
  0x00, 0x00, 0x00, 0x00, 0x00, 0x00, 0x00, 0x00, 0x00, 0x00, 0x00, 0x00,
  0x00, 0x00, 0x00, 0x00, 0x00, 0x00, 0x00, 0x00, 0x00, 0x00, 0x00, 0x00,
  0x00, 0x00, 0x00, 0x00, 0x00, 0x00, 0x00, 0x00, 0x00, 0x00, 0x00, 0x00,
  0x00, 0x00, 0x00, 0x00, 0x00, 0x00, 0x00, 0x00, 0x00, 0x00, 0x00, 0x00,
  0x00, 0x00, 0x00, 0x00, 0x00, 0x00, 0x00, 0x00, 0x00, 0x00, 0x00, 0x00,
  0x00, 0x00, 0x00, 0x00, 0x00, 0x00, 0x00, 0x00, 0x00, 0x00, 0x00, 0x00,
  0x00, 0x00, 0x00, 0x00, 0x00, 0x00, 0x00, 0x00, 0x00, 0x00, 0x00, 0x00,
  0x00, 0x00, 0x00, 0x00, 0x00, 0x00, 0x00, 0x00, 0x00, 0x00, 0x00, 0x00,
  0x00, 0x00, 0x00, 0x00, 0x00, 0x00, 0x00, 0x00, 0x00, 0x00, 0x00, 0x00,
  0x00, 0x00, 0x00, 0x00, 0x00, 0x00, 0x00, 0x00, 0x00, 0x00, 0x00, 0x00,
  0x00, 0x00, 0x00, 0x00, 0x00, 0x00, 0x00, 0x00, 0x00, 0x00, 0x00, 0x00,
  0x00, 0x00, 0x00, 0x00, 0x00, 0x00, 0x00, 0x00, 0x00, 0x00, 0x00, 0x00,
  0x00, 0x00, 0x00, 0x00, 0x00, 0x00, 0x00, 0x00, 0x00, 0x00, 0x00, 0x00,
  0x00, 0x00, 0x00, 0x00, 0x00, 0x00, 0x00, 0x00, 0x00, 0x00, 0x00, 0x00,
  0x00, 0x00, 0x00, 0x00, 0x00, 0x00, 0x00, 0x00, 0x00, 0x00, 0x00, 0x00,
  0x00, 0x00, 0x00, 0x00, 0x00, 0x00, 0x00, 0x00, 0x00, 0x00, 0x00, 0x00,
  0x00, 0x00, 0x00, 0x00, 0x00, 0x00, 0x00, 0x00, 0x00, 0x00, 0x00, 0x00,
  0x00, 0x00, 0x00, 0x00, 0x00, 0x00, 0x00, 0x00, 0x20, 0x00, 0x00, 0x00,
  0xb1, 0xd8, 0x4f, 0x3a, 0xd2, 0x3f, 0x4f, 0x3a, 0x48, 0x31, 0x24, 0x3a,
  0xf0, 0xcc, 0xa4, 0x3a, 0x4c, 0x50, 0x22, 0x3a, 0xed, 0x48, 0x0d, 0x3a,
  0xbd, 0x92, 0x80, 0x3a, 0xaa, 0x61, 0xc3, 0x3a, 0x54, 0xb7, 0x53, 0x3a,
  0x4f, 0xb5, 0x55, 0x3a, 0xc1, 0x7d, 0xcc, 0x39, 0x81, 0xd8, 0xac, 0x3a,
  0x05, 0x24, 0x76, 0x3a, 0x17, 0xb9, 0xf2, 0x3a, 0xf6, 0xe1, 0x65, 0x3a,
  0x03, 0xe6, 0x73, 0x3a, 0x76, 0xe5, 0xe4, 0x39, 0xcf, 0x03, 0x39, 0x3a,
  0xec, 0x69, 0x08, 0x3a, 0xef, 0x29, 0x9f, 0x3a, 0x38, 0x3e, 0x02, 0x3a,
  0x71, 0x95, 0xb6, 0x3a, 0x1a, 0xa5, 0x92, 0x3a, 0xd5, 0x12, 0x70, 0x3a,
  0x73, 0xd3, 0xb6, 0x3a, 0xd8, 0xa6, 0x8d, 0x3b, 0x62, 0xb9, 0x85, 0x3a,
  0xf0, 0x1a, 0x84, 0x3b, 0xef, 0xac, 0x85, 0x3b, 0xa9, 0xbb, 0x68, 0x3a,
  0xfc, 0xd8, 0x2a, 0x3a, 0xb1, 0x79, 0x59, 0x3a, 0x12, 0x00, 0x00, 0x00,
  0x74, 0x66, 0x6c, 0x2e, 0x70, 0x73, 0x65, 0x75, 0x64, 0x6f, 0x5f, 0x71,
  0x63, 0x6f, 0x6e, 0x73, 0x74, 0x32, 0x00, 0x00, 0x01, 0x00, 0x00, 0x00,
  0x20, 0x00, 0x00, 0x00, 0x8e, 0xff, 0xff, 0xff, 0x00, 0x00, 0x00, 0x01,
  0x14, 0x00, 0x00, 0x00, 0x40, 0x00, 0x00, 0x00, 0x03, 0x00, 0x00, 0x00,
  0x00, 0x00, 0x00, 0x09, 0x4c, 0x00, 0x00, 0x00, 0xe4, 0xfe, 0xff, 0xff,
  0x08, 0x00, 0x00, 0x00, 0x1c, 0x00, 0x00, 0x00, 0x02, 0x00, 0x00, 0x00,
  0x00, 0x00, 0x00, 0x00, 0x00, 0x00, 0x00, 0x00, 0x00, 0x00, 0x00, 0x00,
  0x00, 0x00, 0x00, 0x00, 0x00, 0x00, 0x00, 0x00, 0x02, 0x00, 0x00, 0x00,
  0x5b, 0xb3, 0x53, 0x3b, 0xab, 0xd1, 0x49, 0x3b, 0x12, 0x00, 0x00, 0x00,
  0x74, 0x66, 0x6c, 0x2e, 0x70, 0x73, 0x65, 0x75, 0x64, 0x6f, 0x5f, 0x71,
  0x63, 0x6f, 0x6e, 0x73, 0x74, 0x31, 0x00, 0x00, 0x02, 0x00, 0x00, 0x00,
  0x02, 0x00, 0x00, 0x00, 0x20, 0x00, 0x00, 0x00, 0x00, 0x00, 0x16, 0x00,
  0x1c, 0x00, 0x18, 0x00, 0x17, 0x00, 0x10, 0x00, 0x0c, 0x00, 0x08, 0x00,
  0x00, 0x00, 0x00, 0x00, 0x00, 0x00, 0x07, 0x00, 0x16, 0x00, 0x00, 0x00,
  0x00, 0x00, 0x00, 0x01, 0x14, 0x00, 0x00, 0x00, 0x40, 0x00, 0x00, 0x00,
  0x02, 0x00, 0x00, 0x00, 0x00, 0x00, 0x00, 0x02, 0x4c, 0x00, 0x00, 0x00,
  0x6c, 0xff, 0xff, 0xff, 0x08, 0x00, 0x00, 0x00, 0x1c, 0x00, 0x00, 0x00,
  0x02, 0x00, 0x00, 0x00, 0x00, 0x00, 0x00, 0x00, 0x00, 0x00, 0x00, 0x00,
  0x00, 0x00, 0x00, 0x00, 0x00, 0x00, 0x00, 0x00, 0x00, 0x00, 0x00, 0x00,
  0x02, 0x00, 0x00, 0x00, 0x97, 0x1b, 0x77, 0x39, 0xcf, 0x92, 0x6b, 0x39,
  0x11, 0x00, 0x00, 0x00, 0x74, 0x66, 0x6c, 0x2e, 0x70, 0x73, 0x65, 0x75,
  0x64, 0x6f, 0x5f, 0x71, 0x63, 0x6f, 0x6e, 0x73, 0x74, 0x00, 0x00, 0x00,
  0x01, 0x00, 0x00, 0x00, 0x02, 0x00, 0x00, 0x00, 0x00, 0x00, 0x16, 0x00,
  0x20, 0x00, 0x1c, 0x00, 0x1b, 0x00, 0x14, 0x00, 0x10, 0x00, 0x0c, 0x00,
  0x00, 0x00, 0x00, 0x00, 0x08, 0x00, 0x07, 0x00, 0x16, 0x00, 0x00, 0x00,
  0x00, 0x00, 0x00, 0x01, 0x18, 0x00, 0x00, 0x00, 0x2c, 0x00, 0x00, 0x00,
